<unk>	0
<pad>	0
xxbos	0
xxfld	0
xxunk	0
xxpad	0
、	-3.11842
の	-3.21201
。	-3.42359
▁	-3.84513
は	-4.02715
が	-4.32296
を	-4.47876
・	-4.50697
に	-4.53641
)	-4.5471
年	-4.62295
(	-4.63168
で	-4.82068
と	-4.90446
.	-5.11755
」	-5.32945
「	-5.38173
月	-5.41768
▁"	-5.45986
した	-5.63507
から	-5.70353
2	-5.7211
1	-5.72433
し	-5.7532
である	-5.7569
や	-5.76598
も	-5.83851
日	-5.94905
する	-5.95078
3	-5.9584
として	-6.00279
た	-6.18658
では	-6.21362
4	-6.24654
』	-6.2483
『	-6.29921
5	-6.48081
には	-6.52259
ス	-6.53513
る	-6.57052
された	-6.59586
大	-6.61269
6	-6.61492
な	-6.63266
この	-6.66251
年に	-6.67104
など	-6.69521
また	-6.70467
7	-6.71245
している	-6.71431
という	-6.71432
人	-6.72076
その	-6.74649
して	-6.75234
10	-6.75835
第	-6.81611
8	-6.81834
て	-6.82991
9	-6.87823
▁-	-6.90635
ア	-6.92213
ト	-6.93984
市	-6.96666
-	-6.97982
山	-7.00686
一	-7.01783
り	-7.02386
ク	-7.03464
され	-7.03965
ている	-7.04189
12	-7.06163
中	-7.07851
""	-7.08447
ド	-7.09312
日に	-7.10213
い	-7.11493
となった	-7.11759
本	-7.12282
ラ	-7.13473
国	-7.13919
による	-7.14152
によって	-7.16075
:	-7.16991
11	-7.17326
か	-7.18477
日本	-7.18534
ズ	-7.1861
により	-7.19562
川	-7.19563
,	-7.19761
町	-7.20073
される	-7.21242
であった	-7.21626
であり	-7.23665
上	-7.2473
▁(	-7.24745
カ	-7.26315
名	-7.29936
マ	-7.30366
長	-7.30778
後	-7.31136
されている	-7.31433
回	-7.31479
新	-7.31881
子	-7.32302
田	-7.3245
駅	-7.33114
部	-7.3313
く	-7.33996
リ	-7.3406
へ	-7.34406
ナ	-7.36209
法	-7.36267
者	-7.36529
線	-7.36787
がある	-7.36794
同	-7.38698
ル	-7.40294
となる	-7.40861
より	-7.41216
家	-7.43137
地	-7.43489
タ	-7.43606
水	-7.44919
ため	-7.45328
ロ	-7.46293
まで	-7.46813
道	-7.4704
み	-7.47063
内	-7.47261
への	-7.47361
、「	-7.47863
島	-7.48751
18	-7.48773
き	-7.49002
化	-7.49757
つ	-7.49933
戦	-7.50114
三	-7.50712
シ	-7.51352
分	-7.51392
性	-7.52877
的な	-7.52924
イ	-7.53239
数	-7.53272
ら	-7.53604
20	-7.54203
高	-7.5431
昭和	-7.55007
A	-7.55184
東	-7.55434
った	-7.5567
フ	-7.55926
コ	-7.56851
サ	-7.569
していた	-7.57097
下	-7.57877
元	-7.58181
前	-7.58547
バ	-7.58814
生	-7.59312
ミ	-7.59422
だった	-7.60301
17	-7.60518
15	-7.60767
にも	-7.60893
大学	-7.612
B	-7.613
号	-7.61301
オ	-7.61553
s	-7.616
西	-7.62263
州	-7.62466
エ	-7.6404
南	-7.64318
しかし	-7.64718
型	-7.64961
▁/	-7.65124
C	-7.65308
的	-7.65555
原	-7.65651
16	-7.66014
m	-7.66563
などの	-7.66573
郡	-7.6675
デ	-7.66782
ム	-7.66964
ダ	-7.67153
村	-7.6777
レ	-7.67946
S	-7.68271
ていた	-7.68699
ノ	-7.68779
において	-7.69536
月に	-7.69595
でも	-7.70877
リー	-7.71142
会	-7.71425
小	-7.72266
北	-7.72732
時	-7.74948
ニ	-7.75551
M	-7.75566
手	-7.75631
30	-7.75925
D	-7.76986
▁概要	-7.77534
王	-7.77872
金	-7.78408
位	-7.78472
お	-7.79424
所	-7.79614
F	-7.80805
にある	-7.8134
城	-7.81799
ブ	-7.82331
および	-7.82341
車	-7.82355
となり	-7.82533
野	-7.82615
マン	-7.82647
その後	-7.82737
ン	-7.8336
点	-7.83534
等	-7.84035
物	-7.8414
ジ	-7.84154
って	-7.84201
14	-7.84401
P	-7.8521
用	-7.85716
す	-7.85735
語	-7.8581
体	-7.85879
学	-7.86215
神	-7.86256
13	-7.86596
キ	-7.86678
放送	-7.87263
形	-7.87407
さ	-7.87571
映画	-7.8784
ツ	-7.8793
チ	-7.87938
見	-7.88339
平	-7.88367
面	-7.88486
正	-7.89217
後に	-7.89271
作品	-7.89337
全	-7.89544
行	-7.89897
グ	-7.90584
軍	-7.90679
石	-7.9075
海	-7.90885
社	-7.92371
』(	-7.92418
東京	-7.92564
年には	-7.92694
ガ	-7.9312
式	-7.93285
出	-7.93318
モ	-7.93443
機	-7.93585
公	-7.9359
約	-7.93626
における	-7.941
う	-7.94223
いた	-7.94702
光	-7.94751
プ	-7.95643
区	-7.96125
系	-7.96341
パ	-7.96517
文	-7.96748
メ	-7.9708
世界	-7.97419
ティ	-7.97507
活動	-7.97545
外	-7.97558
平成	-7.97782
同年	-7.97856
ない	-7.97927
二	-7.98652
代	-7.98684
こと	-7.98848
ディ	-7.99177
T	-7.99294
番組	-7.99338
木	-7.99523
ネ	-7.99537
日本の	-8.00321
とは	-8.00354
ビ	-8.00484
事	-8.00794
19	-8.00905
G	-8.01025
イン	-8.01699
ハ	-8.01903
R	-8.01942
目	-8.02629
ウ	-8.04129
となっている	-8.04298
重	-8.04396
▁『	-8.04513
さらに	-8.04554
寺	-8.04969
=	-8.05028
力	-8.05253
K	-8.05411
勝	-8.05427
場	-8.05919
地域	-8.068
立	-8.06976
テ	-8.07084
曲	-8.07436
ター	-8.08243
発	-8.08334
的に	-8.09001
W	-8.09064
25	-8.09502
ゲーム	-8.09615
ザ	-8.09701
話	-8.09732
間	-8.0974
作	-8.09897
こ	-8.09982
アン	-8.10074
方	-8.10255
明	-8.10348
ま	-8.10724
和	-8.11484
時間	-8.11772
L	-8.12267
年から	-8.12407
天	-8.1243
馬	-8.12715
書	-8.12885
不	-8.13306
だ	-8.13313
版	-8.135
鉄道	-8.1387
口	-8.14066
について	-8.1439
シュ	-8.14396
N	-8.14404
旧	-8.14557
度	-8.14678
E	-8.15085
初	-8.16579
ており	-8.16724
両	-8.16747
流	-8.17211
役	-8.17827
無	-8.17849
通	-8.1796
セ	-8.18355
バー	-8.18481
シリーズ	-8.18488
J	-8.19176
21	-8.1946
現	-8.19639
これは	-8.19803
開発	-8.19939
V	-8.1994
H	-8.19984
カー	-8.20192
なお	-8.2026
局	-8.20453
があり	-8.21194
とする	-8.21306
主	-8.21538
世	-8.21716
県	-8.21869
美	-8.22109
ラー	-8.22122
にて	-8.22443
白	-8.2259
船	-8.22824
実	-8.22838
24	-8.22927
」(	-8.23424
着	-8.23508
宮	-8.23524
人の	-8.23742
各	-8.24057
万	-8.24359
ボ	-8.25007
アメリカ	-8.25224
じ	-8.25412
義	-8.25433
気	-8.25716
頭	-8.26143
ゴ	-8.26741
のみ	-8.26833
台	-8.27212
とも	-8.27594
バス	-8.27696
学校	-8.27751
選手	-8.28023
スト	-8.28034
色	-8.28334
風	-8.28563
入	-8.28569
ケ	-8.28577
プロ	-8.28687
当時	-8.28936
安	-8.29163
科	-8.29165
あ	-8.29374
期	-8.29409
橋	-8.29486
め	-8.29591
になった	-8.29668
U	-8.29729
制	-8.29741
音楽	-8.29849
問題	-8.30001
ロー	-8.30076
ラン	-8.30279
ワ	-8.30309
ヤ	-8.30469
23	-8.30478
22	-8.30679
ー	-8.30711
チーム	-8.30846
できる	-8.30873
アル	-8.30879
多くの	-8.31023
明治	-8.31097
屋	-8.31239
直	-8.31283
代表	-8.31592
ッ	-8.32433
次	-8.33001
信	-8.33639
ある	-8.33861
計画	-8.33922
事業	-8.33928
トン	-8.34138
成	-8.34254
音	-8.3458
O	-8.34732
教育	-8.34844
花	-8.34861
関係	-8.34988
特に	-8.35091
及び	-8.35207
派	-8.35671
別	-8.35686
官	-8.35986
現在の	-8.36174
そして	-8.36207
研究	-8.36317
コン	-8.36692
ット	-8.36746
50	-8.37077
わ	-8.37267
歌	-8.37452
になる	-8.37585
級	-8.37949
知	-8.38181
む	-8.38256
国際	-8.38407
番	-8.38452
26	-8.38457
に対して	-8.38518
28	-8.3856
谷	-8.38589
フランス	-8.39078
i	-8.39342
賞	-8.39386
心	-8.39717
▁""	-8.39787
種	-8.39837
ヒ	-8.39971
を持つ	-8.40037
れ	-8.40346
それ	-8.40558
されていた	-8.40585
t	-8.40666
他の	-8.40689
られた	-8.40724
アルバム	-8.40823
監督	-8.40867
すると	-8.40906
27	-8.41027
兵	-8.41164
門	-8.41165
井	-8.41197
権	-8.41227
ち	-8.41331
」「	-8.41493
y	-8.41494
え	-8.41533
有	-8.41765
星	-8.41815
定	-8.41999
しており	-8.42054
っている	-8.42338
氏	-8.4251
古	-8.42653
だが	-8.42828
ん	-8.42912
文化	-8.43154
つの	-8.43289
多	-8.4331
省	-8.43617
院	-8.43843
政	-8.44054
リーグ	-8.44214
n	-8.44319
システム	-8.44324
都市	-8.44773
ドイツ	-8.44966
ソ	-8.45233
29	-8.45254
I	-8.45415
X	-8.46097
ポ	-8.46228
合	-8.46263
サン	-8.46347
とともに	-8.46378
室	-8.46555
中国	-8.4656
真	-8.46629
対	-8.46638
試合	-8.4774
中央	-8.48291
シーズン	-8.48513
テレビ	-8.49539
▁また	-8.49759
戦争	-8.498
例	-8.49951
大会	-8.50296
尾	-8.5062
組	-8.50647
については	-8.50743
自	-8.50888
女	-8.50953
いる	-8.50966
、『	-8.51023
論	-8.51115
もある	-8.51138
マー	-8.51658
と呼ばれる	-8.51897
松	-8.52442
座	-8.52547
業	-8.52559
情報	-8.52754
ず	-8.53113
100	-8.53358
館	-8.5336
シー	-8.53476
グループ	-8.53527
当	-8.53633
▁S	-8.53676
車両	-8.53736
と共に	-8.53838
武	-8.53893
四	-8.53949
総	-8.54042
年間	-8.54161
地方	-8.54165
隊	-8.54263
時代	-8.54496
会社	-8.54663
ベ	-8.55001
40	-8.55066
江	-8.55623
校	-8.55668
を行う	-8.56055
ダー	-8.56129
施設	-8.56132
身	-8.56209
事件	-8.56469
地区	-8.56513
朝	-8.56678
愛	-8.5677
e	-8.56802
イギリス	-8.57003
ソン	-8.57396
モデル	-8.57662
開	-8.57714
路線	-8.57891
量	-8.57971
記	-8.5846
レン	-8.58511
男	-8.58512
歳	-8.58529
ック	-8.58547
んだ	-8.58584
清	-8.58591
!	-8.58763
ば	-8.58765
党	-8.58985
女性	-8.59295
々	-8.59568
空	-8.59683
に対する	-8.59687
としては	-8.59725
o	-8.6012
ギ	-8.60237
リン	-8.60502
艦	-8.60869
人物	-8.60949
先	-8.61296
条	-8.61412
ピ	-8.61605
社会	-8.617
相	-8.61852
治	-8.62199
久	-8.62291
技術	-8.6244
出身	-8.62552
丸	-8.62607
通り	-8.6289
領	-8.63038
ナー	-8.63059
所属	-8.63251
集	-8.63276
に関する	-8.6339
制作	-8.63807
教	-8.63855
組織	-8.63916
ことから	-8.63995
土	-8.63997
っていた	-8.64056
といった	-8.64073
もの	-8.64103
31	-8.64121
ことを	-8.64242
があった	-8.64302
すること	-8.64318
当時の	-8.64378
吉	-8.644
英	-8.65153
ペ	-8.65154
史	-8.65354
巻	-8.65527
al	-8.65712
製	-8.65724
楽	-8.65784
ただし	-8.6587
員	-8.6607
電	-8.66316
運動	-8.66336
これ	-8.6635
"")	-8.6636
リング	-8.66408
店	-8.6644
機能	-8.66527
後の	-8.66737
スター	-8.66913
品	-8.66919
または	-8.67321
なかった	-8.67343
記録	-8.6789
民	-8.68031
広	-8.68105
母	-8.68157
死	-8.683
類	-8.68339
クラブ	-8.68754
攻撃	-8.68891
ベル	-8.68894
Y	-8.69071
u	-8.69221
～	-8.69507
翌	-8.69591
km	-8.69693
とされる	-8.69726
a	-8.69884
っ	-8.699
構造	-8.69983
ホ	-8.70169
足	-8.7031
販売	-8.70344
ジャ	-8.70402
経済	-8.70484
を受け	-8.70588
半	-8.70632
岩	-8.70765
同じ	-8.70897
られる	-8.70962
0	-8.71313
器	-8.71345
黒	-8.71351
生活	-8.71371
発売	-8.71416
ように	-8.71494
状態	-8.71761
日から	-8.71776
ファ	-8.7179
八	-8.71868
字	-8.72135
カル	-8.72356
動	-8.72624
ほど	-8.72629
連	-8.72638
とした	-8.72699
ニー	-8.72704
ね	-8.72706
以降	-8.72844
したが	-8.72846
時に	-8.73088
企業	-8.73172
達	-8.73213
ほか	-8.73228
反	-8.73347
他	-8.73356
波	-8.7357
ぎ	-8.73616
五	-8.73617
のため	-8.73728
親	-8.73776
er	-8.73805
夫	-8.73817
全国	-8.73932
f	-8.7397
管理	-8.74053
説	-8.74055
沢	-8.74065
円	-8.74188
ことが	-8.74507
団	-8.74607
弾	-8.74662
士	-8.74742
食	-8.74981
〜	-8.75163
港	-8.75391
群	-8.75669
シャ	-8.75797
日の	-8.75974
今	-8.75976
エル	-8.76227
良	-8.76257
センター	-8.76274
'	-8.76783
だけ	-8.76882
▁歴史	-8.77354
場合	-8.77396
機関	-8.77462
米	-8.77519
ヌ	-8.7758
津	-8.7776
デビュー	-8.78002
こう	-8.78053
オー	-8.78342
表	-8.78365
ゲ	-8.78395
キャラクター	-8.78405
ではなく	-8.78519
▁B	-8.78572
▁この	-8.78595
させる	-8.78877
大阪	-8.79026
ファン	-8.79146
ヴィ	-8.7921
父	-8.79472
雄	-8.79529
協会	-8.79808
葉	-8.80007
職	-8.80231
根	-8.80256
御	-8.80501
ライ	-8.8086
以上	-8.80909
を経て	-8.81207
宗	-8.81233
岡	-8.81362
彼は	-8.814
シングル	-8.81487
基	-8.81593
させた	-8.81638
太	-8.81717
委員会	-8.818
出場	-8.81824
側	-8.81833
利	-8.81972
命	-8.8215
聖	-8.82183
ビル	-8.82225
砲	-8.82272
大きな	-8.82469
on	-8.82567
ながら	-8.82614
ハイ	-8.82807
部隊	-8.82847
ること	-8.8291
林	-8.83005
へと	-8.83259
道路	-8.83366
ために	-8.83408
政府	-8.83428
火	-8.8367
エン	-8.83679
リア	-8.83706
られ	-8.83709
角	-8.83748
en	-8.83766
ルー	-8.83792
タイ	-8.83794
理	-8.83816
エンジン	-8.84086
師	-8.84329
in	-8.84368
アー	-8.84392
よ	-8.84444
来	-8.8468
のために	-8.84686
株式会社	-8.85057
ものの	-8.85265
一般	-8.85405
志	-8.8546
女子	-8.85558
▁C	-8.85595
年まで	-8.85653
製造	-8.85775
高等学校	-8.85872
国家	-8.85908
▁A	-8.85919
守	-8.85934
質	-8.8596
路	-8.86611
||	-8.86649
春	-8.86903
藩	-8.87097
ヘ	-8.87107
よう	-8.87328
のうち	-8.87502
レイ	-8.87524
千	-8.87531
夜	-8.87534
ヨーロッパ	-8.87567
画	-8.87605
主に	-8.87752
ひ	-8.88033
年度	-8.88048
ヴァ	-8.88071
を行った	-8.88082
せ	-8.88126
カン	-8.88128
感	-8.88291
パー	-8.88307
高校	-8.88331
生産	-8.88633
再	-8.8868
鉄	-8.88805
k	-8.89043
▁「	-8.89065
フィ	-8.89084
生まれ	-8.89098
優勝	-8.8927
政治	-8.89346
▁なお	-8.8939
c	-8.89425
のような	-8.89495
敵	-8.89911
出演	-8.90075
されており	-8.90084
関	-8.9019
進	-8.90191
ものである	-8.90331
海軍	-8.90509
の一部	-8.90612
小学校	-8.90652
永	-8.90661
独立	-8.90666
製作	-8.90715
在	-8.90811
里	-8.9083
増	-8.90913
サービス	-8.90962
け	-8.91226
人が	-8.9134
ing	-8.91511
素	-8.91538
最初の	-8.91594
赤	-8.91595
ホーム	-8.91669
非	-8.9167
▁P	-8.91686
60	-8.92012
中に	-8.92031
を受けた	-8.92071
アメリカ合衆国	-8.92083
使用	-8.92137
調査	-8.92407
ロン	-8.92473
ことで	-8.92551
ar	-8.92634
び	-8.92721
あるいは	-8.92973
よりも	-8.93005
)」	-8.9308
▁M	-8.93103
列車	-8.93105
界	-8.93201
利用	-8.93252
バンド	-8.93289
付	-8.93292
団体	-8.93424
伝	-8.93649
航空	-8.93708
ロシア	-8.93862
b	-8.93875
たち	-8.93877
ガー	-8.93897
させ	-8.94003
第一	-8.94296
経	-8.94449
an	-8.9451
堂	-8.94534
図	-8.94734
球	-8.94735
ジョン	-8.94823
or	-8.9488
であったが	-8.95024
湖	-8.95167
月には	-8.95194
ゼ	-8.95212
環境	-8.9528
されて	-8.95524
公開	-8.95557
森	-8.95683
忠	-8.95769
強	-8.95782
そう	-8.95809
北海道	-8.9587
産	-8.96106
マル	-8.9627
段	-8.96334
メンバー	-8.96389
レース	-8.96415
カード	-8.96503
ビー	-8.96541
を含む	-8.96581
スポーツ	-8.96596
一部	-8.96788
においては	-8.96908
建設	-8.96958
変	-8.97068
フェ	-8.97134
戦闘	-8.97476
評価	-8.97574
Z	-8.97579
右	-8.97622
草	-8.97745
選	-8.97864
取り	-8.97933
デザイン	-8.98079
モン	-8.98215
落	-8.98219
中学校	-8.98336
越	-8.98433
さん	-8.986
病	-8.98603
左	-8.988
ブル	-8.9888
▁F	-8.98915
人間	-8.99185
▁経歴	-8.99323
l	-8.99442
現在	-8.99548
値	-8.99568
副	-8.99652
タイトル	-8.99799
族	-8.99806
タン	-8.9981
徳	-8.99821
彼の	-8.99921
年代	-9.00029
編成	-9.00049
ような	-9.00087
神社	-9.0012
ジュ	-9.00128
になっている	-9.00183
現在は	-9.00222
文字	-9.00223
いて	-9.0023
場所	-9.00342
結果	-9.00478
戸	-9.00593
のように	-9.00634
レー	-9.00635
契約	-9.00644
六	-9.00901
異	-9.0091
ランド	-9.00934
ふ	-9.00938
工業	-9.00946
都	-9.00947
方法	-9.00958
これらの	-9.01019
熱	-9.01121
調	-9.01238
を務めた	-9.01243
テン	-9.01258
ラジオ	-9.01357
京都	-9.01464
走	-9.01497
アニメ	-9.01582
日には	-9.01644
悪	-9.017
ジェ	-9.01709
様々な	-9.01815
再び	-9.01815
られている	-9.01857
教会	-9.01884
公園	-9.01886
未	-9.01944
そのため	-9.01975
以来	-9.01982
キー	-9.02038
チャ	-9.0213
部分	-9.02135
状況	-9.02257
開催	-9.02279
内容	-9.02375
自動車	-9.02474
主義	-9.02679
ところ	-9.02753
アイ	-9.02782
mm	-9.02818
経営	-9.02832
たい	-9.02852
街	-9.02909
運営	-9.02919
ユ	-9.03022
80	-9.0305
人口	-9.03054
加	-9.03095
なく	-9.03101
交通	-9.03219
&	-9.03269
取	-9.03271
r	-9.03289
cm	-9.03402
之	-9.03615
ぶ	-9.03672
設計	-9.03686
夏	-9.03774
変更	-9.03798
▁4	-9.03811
層	-9.03823
一方	-9.03883
ご	-9.03918
自然	-9.03989
ガン	-9.04002
紙	-9.04027
崎	-9.04043
総合	-9.04049
特別	-9.04079
制度	-9.04145
観	-9.04147
関連	-9.04164
運転	-9.04201
しない	-9.04232
保	-9.04298
参加	-9.04396
残	-9.04491
誌	-9.0452
開始	-9.0454
ると	-9.04653
ど	-9.04667
運行	-9.04737
節	-9.04753
言	-9.04925
諸	-9.04997
計	-9.05019
声	-9.05152
CD	-9.05364
作戦	-9.05423
などが	-9.05437
小説	-9.05465
破	-9.05495
にあった	-9.05563
世紀	-9.05598
ヴ	-9.05623
それぞれ	-9.05715
内の	-9.05721
の中で	-9.0574
形式	-9.06051
能力	-9.06202
特	-9.06213
羽	-9.0635
速	-9.06359
率	-9.0646
前に	-9.06518
設置	-9.06524
属	-9.06688
配	-9.06716
渡	-9.0675
周辺	-9.06957
園	-9.07108
輸送	-9.07162
大正	-9.0723
豊	-9.07346
会議	-9.07346
ーン	-9.07468
サー	-9.07723
スーパー	-9.07895
蔵	-9.08077
横	-9.08158
超	-9.08221
藤	-9.08352
企画	-9.08479
低	-9.08486
設定	-9.08502
ぐ	-9.08506
好	-9.0861
英語	-9.08616
is	-9.08762
シン	-9.08795
などで	-9.08829
薬	-9.0886
司	-9.08896
銀行	-9.08918
産業	-9.08919
解	-9.09143
上の	-9.09239
満	-9.09252
▁来歴	-9.09261
ザー	-9.09306
イタリア	-9.09339
河	-9.09379
韓国	-9.09382
京	-9.09757
便	-9.09777
最高	-9.09811
章	-9.09847
になり	-9.09868
運用	-9.10101
データ	-9.10208
七	-9.10225
登録	-9.10252
造	-9.10281
板	-9.10373
p	-9.10461
共	-9.10514
大統領	-9.10538
差	-9.10548
転	-9.10762
x	-9.10967
名は	-9.10983
打	-9.1119
帝国	-9.11264
近	-9.11272
よく	-9.11403
妻	-9.11447
パン	-9.11447
何	-9.11793
のある	-9.11861
最	-9.11917
乗	-9.12019
ライン	-9.12178
FC	-9.12239
フリー	-9.12315
帯	-9.12349
装置	-9.12395
決定	-9.12422
▁第	-9.12577
ハン	-9.12612
最も	-9.12656
人気	-9.1271
区間	-9.12724
00	-9.12786
インド	-9.12965
向	-9.13068
中の	-9.13092
陽	-9.13169
以下	-9.13231
引	-9.13256
言語	-9.13296
坂	-9.13312
構成	-9.134
張	-9.13455
トリ	-9.13515
ではない	-9.13663
ニュー	-9.13844
を中心に	-9.13864
el	-9.13997
祭	-9.14072
70	-9.1411
ハー	-9.14124
敗	-9.14218
バン	-9.14238
急	-9.1434
コー	-9.14443
通信	-9.14478
国民	-9.14513
工	-9.14552
漫画	-9.14599
階	-9.14606
▁of	-9.14663
宇宙	-9.1494
跡	-9.15011
選挙	-9.15059
東京都	-9.15083
輪	-9.15104
ライブ	-9.15221
ドラマ	-9.15252
スタ	-9.15271
格	-9.15318
展開	-9.15425
佐	-9.15468
”	-9.15834
d	-9.15882
あり	-9.1602
ノー	-9.16108
方式	-9.1618
十	-9.1627
日まで	-9.16403
そ	-9.16597
これを	-9.16624
からは	-9.16687
製品	-9.16718
初の	-9.1676
などを	-9.16849
等の	-9.16868
建	-9.1695
事故	-9.16982
しか	-9.1703
演奏	-9.17056
▁H	-9.17104
枠	-9.17225
陸軍	-9.17246
サイ	-9.17288
当初は	-9.1745
▁W	-9.17519
ドル	-9.17631
庁	-9.17647
高い	-9.17776
試験	-9.17816
工場	-9.17849
議会	-9.17878
表記	-9.18043
連続	-9.18081
90	-9.18129
常	-9.18141
経験	-9.18154
us	-9.18154
新しい	-9.18255
200	-9.18265
案	-9.18272
th	-9.18292
入り	-9.18306
行動	-9.18315
修	-9.18464
JR	-9.18498
ックス	-9.18532
イベント	-9.1855
青	-9.18594
バル	-9.18743
表現	-9.18875
レス	-9.18878
物語	-9.18973
デン	-9.18999
勝利	-9.1901
対応	-9.19078
に位置する	-9.19082
私	-9.19175
香	-9.1923
指定	-9.19236
込み	-9.19345
太郎	-9.19577
35	-9.19586
w	-9.19666
客	-9.19705
郷	-9.1973
-1	-9.19814
選手権	-9.19906
ローマ	-9.19948
紀	-9.20011
スペイン	-9.20017
クラス	-9.20211
かった	-9.20217
発表	-9.20434
家の	-9.20598
源	-9.2066
ロック	-9.20694
報	-9.20774
g	-9.20822
端	-9.209
トラ	-9.21024
担当	-9.21033
に伴い	-9.21251
血	-9.21268
学者	-9.21328
出版	-9.21478
周	-9.21571
居	-9.21587
の一つ	-9.21703
政権	-9.21732
z	-9.21837
編	-9.21839
45	-9.21892
個人	-9.21902
ろ	-9.21905
を行い	-9.21913
500	-9.21949
とし	-9.21966
ネット	-9.22163
交	-9.22169
者の	-9.22182
条件	-9.22237
at	-9.22267
+	-9.22353
効果	-9.226
▁L	-9.22614
>	-9.22671
浜	-9.22738
▁G	-9.2275
玉	-9.2277
男性	-9.22866
秋	-9.2312
部門	-9.23162
終了	-9.23258
上で	-9.2331
極	-9.2332
月から	-9.23393
保護	-9.23503
ダム	-9.23582
時代の	-9.23616
市立	-9.23643
ワン	-9.23665
竹	-9.2376
宿	-9.2382
政策	-9.23861
像	-9.23942
布	-9.23947
撮影	-9.24045
断	-9.24125
2000	-9.24182
勢	-9.24253
技	-9.24256
表示	-9.2426
ch	-9.24296
戦で	-9.24342
遠	-9.24408
秀	-9.24415
としている	-9.2446
予定	-9.24501
できない	-9.24512
方面	-9.24699
が多い	-9.24704
起	-9.24735
であるが	-9.24763
科学	-9.24764
商	-9.24892
病院	-9.24934
府	-9.24968
全体	-9.2504
個	-9.2508
アジア	-9.25178
どう	-9.25247
支援	-9.25291
初代	-9.25327
キャ	-9.25379
首	-9.25382
訳	-9.2539
裏	-9.25429
ウィ	-9.25505
味	-9.25523
状	-9.25621
学生	-9.25652
最大	-9.25789
に対し	-9.25855
以後	-9.25933
視	-9.26089
行政	-9.26139
ダイ	-9.26184
比	-9.26315
骨	-9.26345
初期	-9.26445
以上の	-9.26468
席	-9.265
警察	-9.26537
オリンピック	-9.26569
樹	-9.26594
末	-9.26598
教授	-9.26677
収録	-9.26738
拡大	-9.26848
以下の	-9.26881
ッツ	-9.26939
」、「	-9.26993
(""	-9.27152
雑誌	-9.2717
et	-9.27189
▁2010	-9.27232
動物	-9.27244
クロ	-9.27253
天皇	-9.27331
パリ	-9.27395
せん	-9.2758
▁T	-9.2758
なる	-9.27615
管	-9.27616
時の	-9.27656
流れ	-9.27662
カップ	-9.2777
地球	-9.27784
税	-9.2783
かつて	-9.27944
列	-9.27969
とき	-9.27996
野球	-9.28012
直接	-9.28025
若	-9.28265
望	-9.28294
re	-9.28338
龍	-9.28384
系統	-9.28411
例えば	-9.28447
宝	-9.28558
退	-9.28605
子供	-9.28608
国道	-9.28717
片	-9.28753
提供	-9.28893
批判	-9.28951
売	-9.28983
作曲	-9.29029
▁D	-9.29044
絵	-9.29096
幸	-9.29116
洋	-9.29236
ブラ	-9.29313
フル	-9.29356
廃止	-9.29442
写真	-9.29469
チェ	-9.2947
名称	-9.29481
自由	-9.29494
帝	-9.29641
九	-9.29749
殺	-9.29829
市の	-9.29834
によれば	-9.29928
付け	-9.30006
仏	-9.3023
クス	-9.30509
遊	-9.30537
ジョ	-9.30551
ニア	-9.30555
映像	-9.30591
作家	-9.30616
ール	-9.30641
最終	-9.3068
能	-9.30694
と同じ	-9.30709
舞台	-9.30758
軽	-9.30973
艦隊	-9.30986
le	-9.30997
rep	-9.31037
参	-9.31053
▁2009	-9.31064
代目	-9.31106
毛	-9.31113
ッド	-9.31325
家族	-9.31472
幅	-9.31479
工事	-9.31609
出身の	-9.3163
向け	-9.31632
陣	-9.31671
によると	-9.31672
考え	-9.31677
歴史	-9.31749
“	-9.31787
住民	-9.31899
48	-9.31975
移動	-9.32026
軍事	-9.3206
協力	-9.32217
浦	-9.32266
だったが	-9.32368
北部	-9.32408
最後の	-9.32855
▁E	-9.32871
が多く	-9.32985
ガス	-9.33028
目的	-9.33062
必要	-9.33087
ダン	-9.33158
ヴェ	-9.33184
メーカー	-9.33211
オリジナル	-9.33494
積	-9.3352
▁2008	-9.33735
将軍	-9.3377
南部	-9.33834
こともある	-9.33932
務	-9.34149
料	-9.34225
にかけて	-9.34297
廃	-9.34352
頃	-9.34361
内で	-9.34373
意	-9.34407
条約	-9.34569
採用	-9.34646
飛行	-9.34657
縁	-9.34665
▁xx	-9.34733
興	-9.34885
▁その後	-9.34914
休	-9.34931
するために	-9.3495
者が	-9.35076
するため	-9.35126
Q	-9.35129
為	-9.35251
防	-9.3528
頼	-9.35285
NHK	-9.35302
程度	-9.35479
用の	-9.35596
助	-9.35622
順	-9.35669
会長	-9.35705
示	-9.3573
秒	-9.35804
ic	-9.35871
数は	-9.36069
メートル	-9.36093
していたが	-9.36134
ウス	-9.36136
少年	-9.36216
受	-9.36249
おり	-9.36343
難	-9.36345
発行	-9.36367
切	-9.36388
建築	-9.3643
st	-9.36514
第二	-9.36527
彦	-9.36541
チャー	-9.36564
完成	-9.36586
距離	-9.36596
雲	-9.36598
が行われた	-9.36618
大型	-9.36683
ことがある	-9.36703
トップ	-9.36802
かい	-9.36807
酸	-9.3681
服	-9.36812
ジー	-9.36881
2008	-9.36944
減	-9.36977
劇場	-9.37025
植物	-9.37068
華	-9.37072
枚	-9.37096
元年	-9.37195
国内	-9.37236
百	-9.37338
鳥	-9.37369
異なる	-9.37375
ほぼ	-9.37376
隻	-9.37428
2007	-9.3747
32	-9.37514
▁2007	-9.37567
キン	-9.37581
以外の	-9.37646
任	-9.3774
分野	-9.37876
2009	-9.37934
使	-9.3794
バック	-9.37982
▁R	-9.38006
規定	-9.3802
たが	-9.38057
▁2017	-9.38152
台湾	-9.38194
装	-9.38196
霊	-9.38245
業務	-9.38357
孫	-9.38359
賀	-9.38374
ベン	-9.38386
卒業	-9.38403
塩	-9.38425
メディア	-9.38432
細胞	-9.3848
者は	-9.38485
革命	-9.38494
べ	-9.38504
コース	-9.3858
福	-9.38602
バイ	-9.38628
兼	-9.38682
銀	-9.38749
てきた	-9.3876
持ち	-9.38817
共同	-9.38862
→	-9.38911
市民	-9.38955
登場	-9.39087
圧	-9.392
ステ	-9.39254
出し	-9.39366
セル	-9.39431
市場	-9.39457
もあり	-9.3946
存在	-9.39556
入れ	-9.39567
本作	-9.39619
ディー	-9.39631
現代	-9.39689
雪	-9.39732
内に	-9.39769
壁	-9.39956
までの	-9.40018
せず	-9.40085
ロンドン	-9.40195
位置	-9.40238
店舗	-9.40367
ed	-9.40507
単	-9.40527
空港	-9.40671
▁2016	-9.4068
IC	-9.40702
電子	-9.40739
んで	-9.40819
共和国	-9.40869
池	-9.40894
キング	-9.40987
行われた	-9.41067
雨	-9.41107
はない	-9.41158
ヨ	-9.41158
自ら	-9.41188
にあたる	-9.41233
商品	-9.41242
新聞	-9.41265
大臣	-9.41285
そのまま	-9.413
初めて	-9.41344
アップ	-9.41368
泉	-9.41396
ゆ	-9.41534
番号	-9.41536
ていない	-9.41538
弁	-9.41545
トゥ	-9.41562
茶	-9.41589
額	-9.41624
形態	-9.41626
応	-9.41808
ホー	-9.41837
標準	-9.41852
分類	-9.42053
自身の	-9.42077
文学	-9.42168
発見	-9.42201
仁	-9.42269
勢力	-9.42298
研究所	-9.42383
隆	-9.4244
▁2011	-9.4245
従	-9.42518
九州	-9.42529
36	-9.42535
重要な	-9.42627
細	-9.42778
プレイ	-9.42828
平均	-9.42869
ベスト	-9.429
ことは	-9.42934
軍の	-9.43013
引き	-9.4303
38	-9.43085
乱	-9.43104
油	-9.43143
顔	-9.43143
兄	-9.43151
いずれも	-9.4318
倉	-9.4322
の戦い	-9.43237
設立	-9.43298
ようになった	-9.43312
営業	-9.43445
かつ	-9.43466
土地	-9.43604
密	-9.43642
行為	-9.43643
全て	-9.43756
漢	-9.43773
核	-9.43781
55	-9.43804
記念	-9.4387
結	-9.43882
整備	-9.43901
事務所	-9.4398
したため	-9.43997
ニューヨーク	-9.44075
俳優	-9.44095
されていない	-9.44096
基本	-9.44141
民族	-9.44141
ホール	-9.44167
h	-9.44195
失	-9.44198
ニュース	-9.44219
反応	-9.44253
▁しかし	-9.44264
はこの	-9.44282
マイ	-9.44284
江戸時代	-9.44351
理由	-9.4437
とされている	-9.44439
要	-9.44466
富	-9.44623
場合は	-9.44656
ヴァー	-9.44803
リスト	-9.44868
ステージ	-9.4488
理論	-9.44913
ことができる	-9.44966
搭載	-9.45131
ur	-9.45173
を受けて	-9.45181
2006	-9.45259
オン	-9.45269
合併	-9.45283
接	-9.45337
軸	-9.45346
れば	-9.45427
盤	-9.4544
防衛	-9.45487
はその	-9.45545
延	-9.45643
ていたが	-9.45685
農	-9.45788
定義	-9.45802
深	-9.45848
サッカー	-9.45919
具	-9.45928
の間	-9.45976
セン	-9.45995
岸	-9.45999
後は	-9.46017
するなど	-9.46043
冠	-9.46052
主人公	-9.46094
300	-9.46103
様	-9.46174
芸術	-9.46238
歩	-9.46245
発生	-9.46291
江戸	-9.46338
変化	-9.46403
公演	-9.46448
術	-9.46449
でもある	-9.46452
メン	-9.46546
のための	-9.46653
令	-9.46666
it	-9.46703
問	-9.46792
そこで	-9.46955
優	-9.46994
万人	-9.47045
反対	-9.47156
対象	-9.47166
割	-9.47194
スキー	-9.47254
▁2012	-9.47343
制御	-9.47379
域	-9.47455
トー	-9.47488
電気	-9.47533
離	-9.47629
37	-9.47685
ピー	-9.4775
連載	-9.47811
競技	-9.47853
幕	-9.47861
プラ	-9.47861
33	-9.47872
ント	-9.47883
王国	-9.47981
甲	-9.47995
処理	-9.482
建物	-9.48419
議	-9.48437
送	-9.48459
げ	-9.48472
統一	-9.48498
同時に	-9.48534
典	-9.48538
湾	-9.48549
シャー	-9.48551
▁2013	-9.48553
精	-9.48638
詩	-9.48837
散	-9.48866
-2	-9.48875
弘	-9.48884
シェ	-9.48918
ミー	-9.4892
郎	-9.49025
▁2015	-9.49043
瀬	-9.49182
自分	-9.4922
酒	-9.49223
2010	-9.49235
▁2006	-9.49283
を見	-9.49312
学部	-9.49347
専門	-9.49425
ビデオ	-9.49555
を持ち	-9.49564
自分の	-9.49578
系の	-9.49602
とう	-9.49663
トル	-9.49726
海外	-9.49733
ブランド	-9.49747
なら	-9.49848
時期	-9.49854
同盟	-9.50042
配信	-9.50102
景	-9.50144
ボン	-9.50195
倒	-9.50304
期間	-9.50333
メイン	-9.50467
圏	-9.50494
スタジオ	-9.50495
内閣	-9.50525
テーマ	-9.50565
持	-9.50585
プレー	-9.5072
II	-9.50954
ツアー	-9.51081
しい	-9.51082
セット	-9.51089
実験	-9.51108
を行っている	-9.51159
などに	-9.51211
ポイント	-9.5128
魚	-9.51313
作業	-9.5136
指揮	-9.51404
オス	-9.51425
実施	-9.51706
結婚	-9.51803
介	-9.51804
人は	-9.51855
放	-9.51865
要素	-9.51866
グラ	-9.51873
行き	-9.51875
沼	-9.51904
営	-9.51917
スク	-9.51965
博	-9.5202
▁K	-9.52072
称	-9.52224
症	-9.52238
図書館	-9.52253
マーク	-9.5244
かん	-9.52449
費	-9.52549
なり	-9.52566
日本語	-9.52625
恵	-9.52633
▁the	-9.52638
夢	-9.52751
しょう	-9.52779
万円	-9.52797
34	-9.52854
留	-9.52885
飛	-9.52913
健	-9.53002
名古屋	-9.53058
un	-9.5311
ライト	-9.53118
前の	-9.53167
線の	-9.53216
過	-9.53282
ドゥ	-9.53434
ほ	-9.5353
オブ	-9.53541
指	-9.5355
一方で	-9.53568
カナダ	-9.53723
am	-9.53868
際	-9.53896
広く	-9.54029
タイム	-9.54042
機構	-9.54093
ティー	-9.54137
▁2014	-9.5418
を取り	-9.54364
翌年	-9.54403
横浜	-9.54445
グリ	-9.54521
国の	-9.54527
フォ	-9.54607
ol	-9.54631
戦後	-9.54701
の大	-9.54701
略	-9.54736
特徴	-9.54876
歌手	-9.54912
逆	-9.5494
娘	-9.54944
化学	-9.54987
単位	-9.55028
拠点	-9.55038
このため	-9.55116
それを	-9.55158
DVD	-9.5517
倍	-9.55231
剣	-9.55278
得点	-9.55361
モー	-9.55408
男子	-9.55427
収	-9.55469
題	-9.55471
奥	-9.55548
集団	-9.55584
影響	-9.55635
を受ける	-9.55662
早	-9.55663
楽曲	-9.55802
形で	-9.5581
伊	-9.55974
▁地理	-9.56001
ップ	-9.56069
時には	-9.56098
ミニ	-9.56209
方向	-9.56255
レコード	-9.56263
▁日本	-9.56333
リリース	-9.56342
グル	-9.56374
観光	-9.56387
備	-9.56452
制限	-9.56509
える	-9.56557
ショー	-9.56625
学園	-9.56636
サイト	-9.56645
これら	-9.56711
議員	-9.56715
2005	-9.56725
冬	-9.56729
CM	-9.56755
本部	-9.56841
帰	-9.56847
温泉	-9.56877
コーナー	-9.56923
にとって	-9.56946
終	-9.57055
新たな	-9.57057
体制	-9.57103
が存在する	-9.57213
米国	-9.57218
の一	-9.57222
準	-9.57258
共通	-9.57298
基地	-9.57316
ペン	-9.57416
国立	-9.57429
項	-9.57441
39	-9.57493
報道	-9.57623
せい	-9.57635
善	-9.57696
改革	-9.5772
としても	-9.57726
コンピュータ	-9.57729
報告	-9.5773
このような	-9.57761
ーズ	-9.579
したり	-9.57938
料理	-9.57951
次の	-9.58
ロス	-9.58045
するが	-9.58049
医療	-9.58079
傷	-9.58103
一部の	-9.5813
紹介	-9.58172
となって	-9.58253
通称	-9.58256
矢	-9.58266
ra	-9.58267
ホテル	-9.58397
候補	-9.58493
オランダ	-9.5853
辺	-9.58585
上に	-9.58613
印	-9.58684
The	-9.58691
連盟	-9.58706
ざ	-9.5871
TV	-9.58776
女優	-9.58825
していない	-9.58844
喜	-9.58845
仕様	-9.5888
▁※	-9.58896
切り	-9.58918
降	-9.58936
することで	-9.58943
毎年	-9.59133
友	-9.59278
肉	-9.59281
統合	-9.59291
護	-9.59311
獲得	-9.5936
アメリカの	-9.59374
覚	-9.59379
追	-9.59413
老	-9.59425
ブリ	-9.59441
ソフト	-9.59459
年より	-9.59495
ジャン	-9.59507
君	-9.59533
基準	-9.59623
銃	-9.59641
姓	-9.59688
減少	-9.59742
立ち	-9.59805
装備	-9.59815
名前	-9.59829
弱	-9.59831
▁O	-9.59837
多く	-9.59867
ぼ	-9.59883
速度	-9.599
失敗	-9.5997
記事	-9.60052
』『	-9.60054
ゾ	-9.60124
ラス	-9.60163
シティ	-9.60169
を結ぶ	-9.60232
堀	-9.60262
宗教	-9.6032
ッシュ	-9.60344
エネルギー	-9.60372
コード	-9.60399
クラ	-9.6043
オープン	-9.60446
AT	-9.60448
人々	-9.6045
件	-9.60455
連邦	-9.60469
勝ち	-9.60476
ことが多い	-9.60525
旅	-9.60595
2011	-9.60699
公式	-9.6079
康	-9.60812
これが	-9.60866
法律	-9.6091
っており	-9.6094
イー	-9.61022
筆	-9.61047
成長	-9.61099
兄弟	-9.61108
専用	-9.61157
委員	-9.61166
オーストラリア	-9.61179
竜	-9.61199
la	-9.612
プロジェクト	-9.61345
戻	-9.61347
ソ連	-9.61442
劇	-9.61481
一人	-9.61522
44	-9.61609
発展	-9.6168
スタイル	-9.61683
犬	-9.61694
置	-9.61709
付き	-9.6172
フォン	-9.61764
主演	-9.61831
柄	-9.61894
化した	-9.62093
原作	-9.62174
中心	-9.62216
を指す	-9.62299
il	-9.62303
美術	-9.62307
と呼ぶ	-9.62504
ケン	-9.62526
受け	-9.62572
▁2005	-9.62677
ッチ	-9.6268
レベル	-9.6272
けん	-9.6273
空間	-9.62755
ミン	-9.62796
開業	-9.62831
出した	-9.62832
を参照	-9.62853
予選	-9.62885
になって	-9.6297
やま	-9.62971
br	-9.63087
支配	-9.63106
kg	-9.63209
ri	-9.63225
養	-9.63326
読	-9.6337
投票	-9.63437
に入	-9.63555
テル	-9.6362
可能性	-9.6364
ヴァン	-9.63651
te	-9.63688
es	-9.63689
クリ	-9.63711
の間に	-9.6373
アス	-9.63737
富士	-9.63759
ミュージック	-9.63761
観測	-9.63786
被	-9.63816
内部	-9.6392
連合	-9.63942
説明	-9.64078
復帰	-9.64218
の娘	-9.64342
栄	-9.64364
生徒	-9.64465
関西	-9.64503
交換	-9.64504
最大の	-9.64521
弟	-9.64559
がいる	-9.64613
筋	-9.64634
社長	-9.6467
改造	-9.64694
種類	-9.64767
住	-9.6479
間の	-9.64956
47	-9.64969
まず	-9.64978
西部	-9.65061
ation	-9.65114
関東	-9.65178
ます	-9.65251
読み	-9.65292
陸	-9.65297
自治体	-9.65301
46	-9.65363
もう	-9.65363
湯	-9.65369
しばしば	-9.65377
アナ	-9.65403
禁止	-9.65419
障害	-9.65426
タル	-9.65484
▁N	-9.65551
非常に	-9.65647
の第	-9.65686
網	-9.6578
ルート	-9.65802
智	-9.65826
容	-9.65841
全ての	-9.6585
機械	-9.65879
とその	-9.65923
なか	-9.65952
▁略歴	-9.65977
側の	-9.6598
緑	-9.66075
れる	-9.66076
機体	-9.6609
魔	-9.66092
まれ	-9.66094
脱	-9.66127
宇	-9.66152
境	-9.66166
死去	-9.66187
▁m	-9.6636
▁人物	-9.66426
新たに	-9.66492
となっていた	-9.66504
限定	-9.66523
普通	-9.66553
医	-9.6658
リス	-9.66625
OS	-9.66633
首相	-9.66682
ポーランド	-9.66685
諸島	-9.66766
エイ	-9.66902
イングランド	-9.66903
デル	-9.66912
操作	-9.67013
余	-9.67107
可能	-9.67109
j	-9.6713
児	-9.67173
丁目	-9.67191
短	-9.67212
貞	-9.67285
命令	-9.67326
柳	-9.67331
引退	-9.67334
更に	-9.67362
シーン	-9.67406
複数の	-9.67417
コル	-9.67488
慶	-9.67509
名を	-9.67517
指導	-9.6752
亜	-9.6752
牛	-9.67592
まる	-9.67618
プログラム	-9.67626
_	-9.67645
訓練	-9.67731
ドン	-9.67749
多数	-9.67805
競走	-9.67892
太陽	-9.67907
ユニット	-9.67948
精神	-9.67984
車体	-9.67999
通常	-9.68013
メイ	-9.68042
強い	-9.68043
日本人	-9.68119
返	-9.68214
ウェイ	-9.68225
配置	-9.68256
400	-9.68315
シア	-9.68427
罪	-9.68535
ジャー	-9.68596
中継	-9.68728
少女	-9.68769
ナン	-9.68912
闘	-9.68956
前後	-9.68997
だい	-9.69004
を示す	-9.69026
もしくは	-9.69227
トロ	-9.69256
54	-9.69277
v	-9.69288
記載	-9.69299
投手	-9.69356
クル	-9.69401
ヴォ	-9.69468
盛	-9.6952
綱	-9.69645
すべて	-9.69653
月まで	-9.69785
▁I	-9.69855
独	-9.69874
原因	-9.69894
ボー	-9.69896
世の	-9.69931
書き	-9.69979
剤	-9.6999
ポー	-9.70008
貴	-9.70032
ノン	-9.70059
機器	-9.70198
折	-9.70228
もので	-9.70242
皇帝	-9.7025
李	-9.70328
決	-9.70374
軌道	-9.70443
成績	-9.70449
2012	-9.70457
相手	-9.70477
静	-9.70521
材	-9.70593
42	-9.7062
要求	-9.70683
2013	-9.70742
ia	-9.70803
アフリカ	-9.70811
朝鮮	-9.70883
あった	-9.70885
地下	-9.70894
の名前	-9.70903
師団	-9.70941
殿	-9.70951
宣言	-9.7101
ケー	-9.71015
唐	-9.7105
会員	-9.71201
を務める	-9.71226
になると	-9.71244
塚	-9.7127
誕生	-9.71292
58	-9.71296
農業	-9.71326
れた	-9.71336
ad	-9.71396
ドー	-9.71445
大きく	-9.71498
イギリスの	-9.71499
のこと	-9.71499
ソー	-9.71505
商業	-9.71562
射	-9.7159
の場合	-9.71633
主な	-9.71639
2016	-9.71717
彼女	-9.71725
言葉	-9.71741
文書	-9.71744
情	-9.71752
運	-9.72009
as	-9.72112
絶	-9.72125
ロード	-9.72141
エー	-9.72214
一覧	-9.72289
対策	-9.7234
を意味する	-9.72379
続く	-9.72379
いわゆる	-9.72401
イル	-9.72415
落ち	-9.72441
生物	-9.72459
祖	-9.72502
延長	-9.72544
労働	-9.72566
全日本	-9.72577
資料	-9.72625
消	-9.72663
大陸	-9.72741
出す	-9.72798
以降は	-9.72846
の研究	-9.72917
43	-9.72935
地元	-9.72941
同じく	-9.72955
▁V	-9.72964
編集	-9.73044
可	-9.73052
可能な	-9.73068
ウル	-9.73076
2004	-9.73144
われ	-9.73149
炎	-9.73216
博物館	-9.73221
にあり	-9.73246
任務	-9.73298
ジン	-9.73328
が行われ	-9.73375
がない	-9.7344
チン	-9.73454
性能	-9.73461
海岸	-9.73466
補	-9.73468
ルド	-9.73469
されたが	-9.73496
ハウス	-9.73567
したもの	-9.73569
ことになる	-9.73586
掲載	-9.73623
かわ	-9.73634
ボール	-9.73635
リオ	-9.73698
ザン	-9.73918
桜	-9.73982
だと	-9.73982
派の	-9.73995
違い	-9.73998
途中	-9.74011
害	-9.74022
高速	-9.74023
床	-9.74055
しん	-9.74063
麻	-9.74075
第三	-9.74149
の名称	-9.74184
スタン	-9.74313
週	-9.74322
連絡	-9.74331
打ち	-9.74371
重要	-9.7445
除	-9.74493
振	-9.74508
ぶり	-9.74568
塔	-9.74569
厚	-9.74627
分け	-9.74663
MA	-9.74677
クー	-9.74692
と考えられている	-9.74703
のもの	-9.7472
トラック	-9.74724
翼	-9.74756
投	-9.74802
ブルー	-9.74819
譲	-9.74905
カラ	-9.7493
古代	-9.7497
保存	-9.75015
までは	-9.75084
レッド	-9.75223
ワー	-9.75292
子の	-9.75293
時点で	-9.7536
算	-9.75386
ro	-9.75413
を獲得した	-9.75468
ガル	-9.75534
自己	-9.75549
オル	-9.75552
計算	-9.75585
ユー	-9.75594
登	-9.75679
×	-9.75683
寄	-9.75694
東部	-9.75758
価	-9.75761
当初	-9.75832
演	-9.75834
領域	-9.75844
氏の	-9.75908
父親	-9.75963
被害	-9.75978
広島	-9.76011
別の	-9.76025
時代に	-9.76093
砂	-9.76101
デュ	-9.76113
支持	-9.76128
提案	-9.7616
脳	-9.76249
してきた	-9.76471
ヘル	-9.7656
治療	-9.76568
に近い	-9.76617
増加	-9.76652
思	-9.76725
初期の	-9.76747
小型	-9.76764
分離	-9.76776
をもって	-9.76797
PC	-9.76822
ゲン	-9.76851
給	-9.76929
思想	-9.76933
バラ	-9.76958
ワールド	-9.77059
ゴール	-9.77161
わずか	-9.77194
近く	-9.77231
41	-9.77276
中で	-9.77328
アンド	-9.77334
2017	-9.77355
分布	-9.77386
いくつかの	-9.77435
導入	-9.7745
茂	-9.77486
房	-9.77512
供給	-9.77536
黄	-9.77569
モード	-9.7757
仲	-9.77573
込む	-9.77573
においても	-9.77586
成功	-9.77596
1974	-9.77627
通算	-9.77705
つく	-9.77745
市内	-9.77786
接続	-9.77786
冷	-9.77799
プレ	-9.77802
かり	-9.7782
li	-9.77822
を通じて	-9.77822
クレ	-9.77831
チュ	-9.77832
ピアノ	-9.77864
カール	-9.7787
亀	-9.77881
しく	-9.7789
声優	-9.77931
日本では	-9.77979
紀元前	-9.78013
タイプ	-9.78046
歳で	-9.78065
停止	-9.78117
伯	-9.78145
つか	-9.78202
まま	-9.78223
レギュラー	-9.78227
改良	-9.7823
意見	-9.78262
成立	-9.78314
で行われた	-9.78326
▁2018	-9.78326
ゴー	-9.78357
似	-9.78368
を開始した	-9.78426
電力	-9.78485
1969	-9.78571
ファー	-9.78628
選択	-9.78631
ir	-9.78633
IN	-9.7865
強化	-9.78658
オーストリア	-9.78686
阿	-9.78883
1971	-9.78938
彼	-9.78991
2015	-9.78996
適	-9.78999
ヶ月	-9.79035
にして	-9.79046
勇	-9.79122
1968	-9.79147
1000	-9.79213
二人	-9.79245
、2007	-9.79269
かな	-9.79289
由	-9.79317
系列	-9.79317
バージョン	-9.79354
舞	-9.79387
いない	-9.79396
本人	-9.79438
資格	-9.79481
没	-9.79482
デジタル	-9.7949
得	-9.7952
意識	-9.79533
軍は	-9.79546
インターネット	-9.79595
合い	-9.79676
策	-9.79711
神戸	-9.79773
カラー	-9.79776
本線	-9.79777
俊	-9.79801
少	-9.79832
礼	-9.79854
狭	-9.79891
ベース	-9.7992
▁18	-9.79981
地震	-9.8003
対立	-9.80095
らず	-9.8023
、2008	-9.80241
しなかった	-9.80247
したこと	-9.80265
56	-9.80276
ことに	-9.80295
スタッフ	-9.80323
することができる	-9.8034
これに	-9.80346
知事	-9.8035
パス	-9.80361
改正	-9.80398
設備	-9.8042
リュ	-9.80434
純	-9.80439
小さな	-9.80475
遺	-9.80483
2014	-9.80488
BS	-9.80538
荒	-9.80561
ネス	-9.80562
ろう	-9.80566
背景	-9.80579
名が	-9.80587
ストーリー	-9.80593
ただ	-9.80596
、2009	-9.80664
エス	-9.80672
立て	-9.80673
プリ	-9.80698
本社	-9.80723
憲法	-9.80725
これにより	-9.80771
これまで	-9.80781
復	-9.80794
、2010	-9.80805
部屋	-9.80822
プレイヤー	-9.80841
資金	-9.80846
』、『	-9.80898
後期	-9.80925
価格	-9.80933
かれ	-9.8098
49	-9.8099
こうした	-9.81026
進出	-9.8104
▁km	-9.81063
杯	-9.81114
本塁打	-9.81126
大阪府	-9.81184
ベイ	-9.81264
実行	-9.81328
昌	-9.81384
住宅	-9.81392
ごとに	-9.8142
腕	-9.81428
ラム	-9.81474
ブー	-9.8148
習	-9.81506
の歴史	-9.81516
カメラ	-9.81528
出力	-9.81531
一度	-9.8164
目標	-9.8169
鎮	-9.81698
追加	-9.81735
談	-9.81777
エア	-9.81782
あまり	-9.81788
解散	-9.81788
抗	-9.81792
の名	-9.81836
マス	-9.81856
欧州	-9.81879
ィ	-9.8188
この時	-9.81915
発売された	-9.81937
将	-9.81944
設立された	-9.82079
すれば	-9.82114
指摘	-9.82157
行った	-9.82168
丘	-9.82177
扱い	-9.8236
でき	-9.82367
億	-9.82453
ほとんど	-9.82468
回転	-9.82495
GP	-9.82504
に属する	-9.82531
きた	-9.82607
アメリカ合衆国の	-9.8261
評	-9.82686
則	-9.82704
デイ	-9.82751
たちは	-9.82766
型の	-9.83035
安全	-9.83037
▁2004	-9.83043
息子	-9.83198
だけで	-9.83229
-3	-9.8331
57	-9.83349
ティング	-9.83396
生き	-9.835
伝統	-9.83551
するという	-9.83622
カイ	-9.83708
ent	-9.83762
孝	-9.83776
貨物	-9.83798
ヶ	-9.83816
65	-9.8386
長い	-9.83869
ter	-9.83905
意味	-9.83923
それは	-9.84032
フォー	-9.84075
法人	-9.84088
券	-9.84118
部の	-9.84193
たり	-9.84208
指導者	-9.8422
すなわち	-9.84238
オール	-9.84302
歯	-9.84304
許	-9.84353
温	-9.84412
記述	-9.84473
認定	-9.84483
その他	-9.84491
敬	-9.84494
パーク	-9.84514
主張	-9.84531
振り	-9.84553
フレ	-9.84681
▁その他	-9.847
ッカー	-9.8472
主催	-9.84742
実現	-9.84755
!」	-9.84756
劉	-9.84769
らない	-9.84783
だけでなく	-9.84819
試	-9.84859
なし	-9.84887
いち	-9.84894
物質	-9.85027
59	-9.85078
証	-9.85145
週間	-9.85152
伝説	-9.85157
一時	-9.85187
課	-9.85204
ほう	-9.85241
潮	-9.85244
その他の	-9.85254
交流	-9.85264
自治	-9.85276
アナウンサー	-9.85295
PS	-9.85446
破壊	-9.85486
実際に	-9.85524
まだ	-9.85533
ブラジル	-9.8554
確認	-9.85542
地上	-9.85559
導	-9.85562
禁	-9.85666
込んだ	-9.85687
ごう	-9.85754
上げ	-9.85758
ランキング	-9.85793
タウン	-9.85796
プロデューサー	-9.85825
近代	-9.85837
のち	-9.8585
活躍	-9.85868
仕	-9.85882
検	-9.85898
作詞	-9.85898
期待	-9.85906
メキシコ	-9.85922
プル	-9.85936
現在では	-9.86036
皇	-9.86041
ジョージ	-9.86045
1967	-9.8607
ともに	-9.86127
ことも	-9.86128
柱	-9.86389
、2006	-9.86409
金属	-9.8642
1964	-9.86424
なくなった	-9.86501
窓	-9.86536
民間	-9.867
際に	-9.86749
ゲル	-9.8675
ソフトウェア	-9.86766
フラ	-9.8677
um	-9.86771
▁()	-9.86782
博士	-9.86791
める	-9.86824
民主党	-9.86886
クロス	-9.86962
の中心	-9.86966
穴	-9.86976
ート	-9.86979
id	-9.87038
脚	-9.87152
▁生涯	-9.87187
焼	-9.87241
ここで	-9.87265
75	-9.87308
輝	-9.8731
区別	-9.87317
展示	-9.87318
多数の	-9.87379
51	-9.8739
球団	-9.87429
復活	-9.87503
交渉	-9.87515
虫	-9.87553
眼	-9.87624
ポート	-9.87639
...	-9.87675
64	-9.87748
完全に	-9.87852
ケース	-9.87874
の一人	-9.87891
2003	-9.8792
ブレ	-9.87935
電話	-9.87937
乳	-9.8795
安定	-9.87996
ちゃん	-9.88036
王座	-9.88085
推進	-9.88141
奏	-9.88142
の開発	-9.8817
!』	-9.88207
たか	-9.8823
世代	-9.88277
ネットワーク	-9.88313
唯一の	-9.88344
国鉄	-9.88356
の影響	-9.8836
と言う	-9.88367
結局	-9.88373
著	-9.88405
枝	-9.88445
形状	-9.88508
いい	-9.88539
を果たした	-9.88598
史上	-9.8869
羅	-9.88707
フランスの	-9.88747
した後	-9.88753
についても	-9.8878
鶴	-9.88795
東北	-9.8883
サイド	-9.88865
180	-9.88941
ポン	-9.88968
児童	-9.88977
完全	-9.88986
継承	-9.89005
保険	-9.89053
もあった	-9.89141
ジャパン	-9.89211
方針	-9.89215
ラル	-9.89282
その後も	-9.89325
に入り	-9.8936
同社	-9.89362
TO	-9.89414
パラ	-9.89499
中止	-9.89506
菌	-9.89523
1944	-9.89536
オフ	-9.89552
旅行	-9.89572
澤	-9.8958
刊行	-9.89598
TBS	-9.89617
に変更	-9.89677
デー	-9.89686
武器	-9.89719
じょう	-9.89803
メル	-9.89812
今日	-9.89812
採	-9.89833
就任	-9.89868
名の	-9.89902
となっており	-9.89962
姿	-9.90069
一般に	-9.90086
鬼	-9.90139
創設	-9.90165
因	-9.90234
姫	-9.90234
塁	-9.90307
固定	-9.90364
浅	-9.90522
ときに	-9.90549
をはじめ	-9.906
アラ	-9.90664
からなる	-9.90671
ビン	-9.90696
也	-9.90706
平和	-9.90716
共に	-9.90729
年にかけて	-9.9077
ルール	-9.90827
果	-9.90839
邦	-9.90919
トレ	-9.90939
旅客	-9.90956
戦い	-9.90968
することを	-9.91038
用語	-9.91114
高等	-9.91118
のほか	-9.91169
ものが	-9.91194
ドイツの	-9.91197
続	-9.91241
の中	-9.91266
53	-9.91294
受賞	-9.9131
2002	-9.91319
フォード	-9.91465
衣	-9.91468
1965	-9.91481
合計	-9.91528
よし	-9.91531
医学	-9.91531
▁J	-9.91552
ポール	-9.9157
低い	-9.91571
独自の	-9.9159
衛	-9.91617
統治	-9.91675
当時は	-9.91755
ものであった	-9.91841
皮	-9.91843
を用いて	-9.91851
念	-9.91858
陰	-9.91867
施行	-9.91878
付近	-9.91919
半島	-9.91959
ie	-9.91997
などがある	-9.92053
連隊	-9.92059
更新	-9.92088
できた	-9.92168
ボル	-9.92194
刊	-9.92204
トンネル	-9.92223
いう	-9.92247
貴族	-9.92275
ード	-9.92282
与	-9.92349
発言	-9.92435
ぬ	-9.92439
率いる	-9.92488
芸	-9.92495
衆	-9.92502
杉	-9.92542
太平洋	-9.92575
52	-9.92599
程	-9.92604
アク	-9.92604
SS	-9.92677
ヒル	-9.92697
臣	-9.92712
の後	-9.92764
派遣	-9.92767
ウィン	-9.92781
欠	-9.92785
ジュニア	-9.92805
スウェーデン	-9.92806
合成	-9.92872
稲	-9.92912
ていく	-9.92953
製の	-9.92955
チュー	-9.92964
1995	-9.92974
練習	-9.93032
信号	-9.93034
ワイ	-9.93047
1966	-9.9305
レット	-9.93091
カリ	-9.93103
旗	-9.93104
テレビドラマ	-9.93104
快	-9.93155
腹	-9.93255
自動	-9.93324
と同様に	-9.93351
参戦	-9.93361
を有する	-9.93363
航	-9.93371
に出	-9.93374
ダンス	-9.93408
従来の	-9.93424
不足	-9.9343
裁判	-9.93487
ようになる	-9.93494
クト	-9.93504
鋼	-9.93561
1990	-9.93563
戦車	-9.93569
▁2000	-9.93572
ナイ	-9.93586
それら	-9.93613
ブラック	-9.93619
移	-9.93731
影	-9.93751
2001	-9.93795
AR	-9.93847
準備	-9.93872
チョ	-9.93932
経緯	-9.93971
埼玉県	-9.93983
セイ	-9.93988
スタート	-9.94007
ヒット	-9.94059
処分	-9.94089
厳	-9.94116
進行	-9.94121
スカ	-9.94177
刀	-9.94208
アイドル	-9.94209
ダル	-9.94222
階級	-9.94232
▁h	-9.94241
いている	-9.94307
政治家	-9.94326
ペル	-9.94342
サル	-9.94374
諸国	-9.94385
を得た	-9.94386
と同	-9.94389
尚	-9.94425
ST	-9.94461
次郎	-9.94509
ディア	-9.94509
のちに	-9.94599
現象	-9.9461
憲	-9.9462
間に	-9.94642
限	-9.9465
ということ	-9.94685
州の	-9.94689
デス	-9.94723
エリア	-9.94759
部長	-9.94822
こともあり	-9.94836
ゴン	-9.94859
閉	-9.94876
ドラ	-9.94883
化された	-9.94919
se	-9.94924
テスト	-9.94968
ものは	-9.95008
1940	-9.95083
各種	-9.95105
ストラ	-9.95123
1945	-9.95177
願	-9.95189
市出身	-9.95238
までに	-9.953
航空機	-9.95302
規制	-9.95308
やがて	-9.95318
使用された	-9.95338
関数	-9.95342
パル	-9.95424
解放	-9.95497
前作	-9.95503
崩壊	-9.95507
CA	-9.95552
ポリ	-9.95556
市長	-9.95567
を使って	-9.95626
年代に	-9.95645
疑	-9.9569
拡張	-9.95697
<	-9.95706
力を	-9.95718
規模	-9.95767
ソロ	-9.95806
すでに	-9.9582
囲	-9.95853
区域	-9.95853
の子	-9.9587
MS	-9.95965
エピソード	-9.95972
東海	-9.96006
良い	-9.96021
執行	-9.96053
世は	-9.96073
作成	-9.96076
ut	-9.96112
シル	-9.96145
対戦	-9.96158
演出	-9.9619
刑	-9.96226
卵	-9.96323
作られた	-9.96328
購入	-9.96348
とされた	-9.9638
一郎	-9.96451
組合	-9.96479
を務め	-9.96501
通過	-9.96529
イメージ	-9.96538
日より	-9.96558
愛知県	-9.96564
会場	-9.96606
号線	-9.96615
解説	-9.96647
回復	-9.96651
奈	-9.96686
らが	-9.96686
乗り	-9.96748
のメンバー	-9.96801
事実	-9.9682
始め	-9.9682
暦	-9.96841
のひとつ	-9.96891
第二次世界大戦	-9.96927
改	-9.96932
が可能	-9.96945
駆逐艦	-9.9695
サイズ	-9.96967
納	-9.97012
注	-9.9704
司令官	-9.9716
カス	-9.97201
主要	-9.97241
場合もある	-9.9728
を得る	-9.97284
沖縄	-9.97286
植民地	-9.97298
?	-9.97301
行う	-9.97308
しながら	-9.97352
始めた	-9.97358
1963	-9.97465
認識	-9.97469
彼ら	-9.97545
田中	-9.97591
自身	-9.97602
1994	-9.97608
沖	-9.97648
他に	-9.97788
妹	-9.97842
改善	-9.97871
ブロック	-9.97888
日本で	-9.97897
されていたが	-9.9792
占領	-9.9793
燃料	-9.97959
学科	-9.97977
ずつ	-9.98002
検査	-9.9811
col	-9.98141
▁2003	-9.9817
アウト	-9.9818
政党	-9.98192
比較的	-9.98217
手法	-9.98228
後半	-9.98245
寿	-9.98246
)4	-9.98268
神奈川県	-9.98285
と同時に	-9.9833
爆	-9.98344
雑	-9.98363
継続	-9.98368
性格	-9.9837
取引	-9.98401
仙台	-9.98486
キリスト教	-9.98538
結成	-9.98558
僧	-9.98565
宣	-9.98576
行われ	-9.98597
は約	-9.98625
とされ	-9.98667
ミス	-9.98672
and	-9.98687
理解	-9.98705
ことにより	-9.98721
仲間	-9.98722
なども	-9.98727
使われる	-9.98769
空軍	-9.98826
判	-9.98918
鹿	-9.98932
ウィリアム	-9.98942
滅	-9.98986
分析	-9.99032
ウェ	-9.99039
を発表	-9.99068
本名	-9.99078
ニング	-9.99105
アクセス	-9.99139
マリア	-9.99175
られていた	-9.99208
側に	-9.99287
めた	-9.9934
るため	-9.99379
結合	-9.99417
大学の	-9.99432
-0	-9.99453
1930	-9.99454
、2005	-9.99552
鈴木	-9.99597
イオン	-9.99602
楽器	-9.99608
遺跡	-9.99626
墓	-9.99672
SA	-9.99733
家庭	-9.99751
マッ	-9.99757
ケイ	-9.99888
照	-9.99941
伊勢	-9.99959
恋	-9.9996
維持	-9.99986
加入	-10.0015
であるため	-10.0016
歴	-10.0018
聴	-10.0025
かけ	-10.0028
ショ	-10.0034
に関しては	-10.0037
なっている	-10.0039
セント	-10.0039
os	-10.0041
臨	-10.0044
1962	-10.0048
選出	-10.0053
すべての	-10.0054
早く	-10.0064
最初に	-10.0066
強く	-10.0073
低下	-10.0073
つき	-10.008
フィールド	-10.0081
挙	-10.0085
1960	-10.0088
グランプリ	-10.0095
600	-10.0095
有名	-10.0097
に登場する	-10.0107
ルイ	-10.0109
規格	-10.0109
時は	-10.0113
に参加	-10.0114
です	-10.0116
グリーン	-10.0116
コーチ	-10.0117
ベルリン	-10.0118
TA	-10.0121
てしまう	-10.0122
放送された	-10.0125
んでいた	-10.0132
しま	-10.0133
貿易	-10.0135
責任	-10.0136
分割	-10.0139
歩兵	-10.014
ビア	-10.0141
99	-10.0143
衛星	-10.0146
オーバー	-10.0149
複数	-10.0154
三郎	-10.0155
を除く	-10.0157
代わりに	-10.0157
千葉県	-10.0158
梅	-10.0158
に入る	-10.0161
ネー	-10.0162
飯	-10.017
1993	-10.0171
議論	-10.0171
暗	-10.0174
テレ	-10.0175
地帯	-10.0177
つまり	-10.0178
抵抗	-10.0183
の存在	-10.0183
思い	-10.0184
の結果	-10.0185
健康	-10.0186
ドア	-10.0192
録音	-10.02
ション	-10.02
ha	-10.0204
に加え	-10.0207
1992	-10.021
庄	-10.0212
。2010	-10.0213
友人	-10.0214
底	-10.0215
専	-10.0221
の元	-10.0222
RA	-10.0224
が必要	-10.0228
河川	-10.0229
人民	-10.0234
戦略	-10.0234
滝	-10.0234
おお	-10.0236
!!	-10.0237
在籍	-10.0238
スペシャル	-10.0238
死亡	-10.024
ヴェル	-10.0242
隠	-10.0248
ソング	-10.0249
遅れ	-10.025
ディング	-10.0252
▁de	-10.0252
ER	-10.0254
使用される	-10.0255
マリ	-10.0256
1943	-10.0268
に由来する	-10.0278
香港	-10.0284
ころ	-10.0285
泰	-10.0289
コール	-10.0291
創	-10.0293
組み	-10.0294
学会	-10.0295
1947	-10.0299
当選	-10.0301
翻訳	-10.0303
中村	-10.0308
ゲスト	-10.0308
電車	-10.0309
ay	-10.0309
仕事	-10.0317
行われる	-10.0317
しゃ	-10.0318
1961	-10.0321
仮	-10.0325
福岡	-10.0326
アーティスト	-10.0327
紅	-10.0329
辞	-10.0329
を果たす	-10.0332
▁#	-10.0335
段階	-10.0341
指名	-10.0342
コス	-10.0355
名誉	-10.0358
コンサート	-10.0362
特殊	-10.0362
ウォー	-10.0367
1975	-10.0368
移転	-10.0371
に入った	-10.0371
去	-10.0371
ちょう	-10.0372
1941	-10.0376
それまで	-10.0378
の中に	-10.0379
発射	-10.0379
ファイル	-10.0384
雅	-10.0385
▁本	-10.0386
街道	-10.0388
畑	-10.0388
身長	-10.0394
冊	-10.0396
SP	-10.0397
さい	-10.0402
1980	-10.0403
中世	-10.0412
開催された	-10.0413
神経	-10.042
ンズ	-10.0421
することが	-10.0423
調整	-10.0426
呉	-10.0427
論文	-10.0427
犯罪	-10.0427
露	-10.0432
有効	-10.0434
▁U	-10.0434
後も	-10.0436
するための	-10.0438
決勝	-10.0444
労働者	-10.0446
ページ	-10.0447
向上	-10.0452
特急	-10.0452
AN	-10.0453
移籍	-10.0455
兵庫県	-10.0459
分子	-10.046
1942	-10.0463
イヤー	-10.0465
環	-10.0467
広告	-10.0469
既に	-10.047
-6	-10.0476
動き	-10.048
に至る	-10.0488
混	-10.0488
益	-10.049
装甲	-10.0493
ナイト	-10.0495
目の	-10.0496
後述	-10.0497
告	-10.0502
生成	-10.0505
すぐに	-10.0508
危機	-10.0508
フィー	-10.0509
していく	-10.0509
中間	-10.0509
co	-10.0511
替え	-10.0512
うち	-10.0513
きょう	-10.0515
それぞれの	-10.0522
テー	-10.0523
ごろ	-10.0525
著作	-10.0527
奇	-10.0528
まり	-10.0551
沈	-10.0553
我	-10.0553
晴	-10.0554
価値	-10.0556
マシン	-10.0556
支	-10.0561
▁and	-10.0563
関係者	-10.057
判断	-10.0575
シュー	-10.0581
完	-10.0585
ギター	-10.0586
ギリシャ	-10.0592
▁17	-10.0592
兵器	-10.0593
町の	-10.0602
度目の	-10.0602
、2011	-10.0604
1973	-10.0604
サポート	-10.0606
1958	-10.0607
1978	-10.0608
んでいる	-10.061
作用	-10.0611
信仰	-10.0612
山口	-10.0613
功	-10.0616
おか	-10.0616
東西	-10.062
マク	-10.0621
ミル	-10.0623
夕	-10.0624
カバー	-10.0626
なければ	-10.0632
職員	-10.0636
依頼	-10.0639
幕府	-10.0639
吉田	-10.0641
氷	-10.0641
むら	-10.0641
のまま	-10.0645
末期	-10.0646
固	-10.0647
/	-10.0651
人を	-10.0652
の手	-10.0653
糸	-10.0655
にわたって	-10.0655
普及	-10.0655
隣	-10.0667
メント	-10.0671
1991	-10.0672
カット	-10.0672
全米	-10.0677
1948	-10.0677
誠	-10.0681
なった	-10.0681
も多い	-10.0682
同一	-10.0683
ベルク	-10.0684
アム	-10.0688
協	-10.0688
録	-10.0691
スペース	-10.0691
lo	-10.0692
王者	-10.0693
de	-10.0695
有名な	-10.0699
左右	-10.0704
度の	-10.0714
すべき	-10.0715
潜水艦	-10.0718
判決	-10.0721
SC	-10.0721
のか	-10.0724
長崎	-10.0726
集合	-10.0729
されること	-10.0732
を引き	-10.0733
▁s	-10.0734
浪	-10.0736
通常の	-10.0745
1959	-10.0746
競馬	-10.0747
NA	-10.0748
トム	-10.075
脚本	-10.0754
藤原	-10.0758
庫	-10.0758
ジョー	-10.076
タレント	-10.0762
作曲家	-10.0765
ワールドカップ	-10.0767
op	-10.0767
を始め	-10.0768
長く	-10.0775
川の	-10.0779
-4	-10.078
学院	-10.0781
医師	-10.0783
貫	-10.0784
現地	-10.0791
ティン	-10.0792
表面	-10.0793
に出演	-10.0793
およそ	-10.0794
漁	-10.0794
母親	-10.08
展	-10.0817
年齢	-10.0822
スクール	-10.0825
800	-10.0825
それが	-10.0826
適用	-10.0826
由来	-10.0829
部に	-10.0831
画家	-10.0832
だろう	-10.0836
彼らは	-10.0838
公開された	-10.0838
最終的に	-10.084
浮	-10.084
的には	-10.0843
とも呼ばれる	-10.0846
リック	-10.0848
千葉	-10.0852
ma	-10.0853
の間で	-10.0853
アイルランド	-10.0855
ばかり	-10.0861
2018	-10.0866
襲	-10.0866
築	-10.0867
ピン	-10.087
と呼ばれ	-10.0874
食品	-10.0879
初め	-10.0882
至	-10.0883
1946	-10.0884
西側	-10.0885
日間	-10.0888
飛び	-10.0891
リュー	-10.0893
輸入	-10.0898
に位置し	-10.0899
傾向	-10.0904
パワー	-10.0905
SE	-10.091
止め	-10.0918
逃げ	-10.0918
)3	-10.0918
の際に	-10.0918
CO	-10.0921
阪神	-10.0923
当たり	-10.0925
尊	-10.0927
上昇	-10.0931
からも	-10.094
1976	-10.0944
解決	-10.0945
MO	-10.095
▁あらすじ	-10.0955
幾	-10.0956
予	-10.0959
ハル	-10.0959
の作品	-10.0961
逆に	-10.0965
分の	-10.0979
チャンピオン	-10.0979
鳴	-10.098
巡	-10.0982
走行	-10.0985
ハンガリー	-10.0986
アリ	-10.0987
形成	-10.0988
。2009	-10.0988
負傷	-10.0988
に移籍	-10.0989
管轄	-10.0993
たちの	-10.0995
の一つである	-10.0997
動作	-10.1003
歴代	-10.1003
さまざまな	-10.1005
昇	-10.1008
画面	-10.1009
プロレス	-10.1011
長官	-10.1015
▁大	-10.102
1949	-10.1022
嘉	-10.1024
ツィ	-10.1027
押し	-10.1028
ベルト	-10.1029
大学院	-10.1029
空気	-10.103
地に	-10.1031
年以降	-10.1033
で開催された	-10.1037
助け	-10.1038
1989	-10.1042
式の	-10.1042
1955	-10.1042
艇	-10.1055
過去	-10.1056
ベー	-10.1061
封	-10.1063
範囲	-10.107
裕	-10.107
を用いた	-10.107
刺	-10.1071
RO	-10.1074
ナル	-10.1075
RE	-10.1077
▁2002	-10.1081
1920	-10.1082
豪	-10.1083
ロケット	-10.1084
1956	-10.1085
▁in	-10.1085
えき	-10.1086
肥	-10.1086
財政	-10.1088
誤	-10.1089
投資	-10.109
しても	-10.1095
と考えられる	-10.1098
1999	-10.1098
に基づく	-10.1105
脇	-10.1105
弟子	-10.1108
規則	-10.1108
向き	-10.111
をする	-10.1116
。2008	-10.1117
月より	-10.112
が行われる	-10.1123
佐藤	-10.1126
弥	-10.1132
性質	-10.1134
英国	-10.1137
承認	-10.1137
許可	-10.1137
札	-10.1138
ine	-10.1139
続いて	-10.1141
ワシントン	-10.1151
箱	-10.1159
月号	-10.1164
する事	-10.1167
ケル	-10.1172
グレ	-10.1173
公共	-10.1179
中学	-10.1179
に終わった	-10.1181
銅	-10.1182
向けの	-10.1183
交差点	-10.1185
寺院	-10.1186
注目	-10.1187
せる	-10.1189
就	-10.1193
効	-10.1194
よい	-10.1196
審	-10.1196
国王	-10.1197
シャン	-10.1203
長期	-10.1205
であること	-10.1206
億円	-10.1206
撤退	-10.1206
作り	-10.121
US	-10.1212
。2007	-10.1215
150	-10.1218
側面	-10.1218
するもの	-10.1221
サラ	-10.1222
コミック	-10.1222
結び	-10.1223
ネル	-10.1224
の息子	-10.1225
頃に	-10.1226
ブレーキ	-10.1227
雷	-10.1227
執筆	-10.1233
一族	-10.1233
の場合は	-10.1235
使い	-10.1237
スは	-10.124
兵士	-10.1241
上位	-10.1241
らい	-10.1241
惑星	-10.1241
いく	-10.1241
その後は	-10.1244
づ	-10.1244
プラン	-10.1245
玄	-10.1247
のみで	-10.1252
来た	-10.1252
事務	-10.1255
膜	-10.126
灯	-10.1261
、2000	-10.1262
、2012	-10.1263
工学	-10.1263
特定の	-10.1263
スル	-10.1266
エジプト	-10.1268
るようになった	-10.1268
持つ	-10.1272
文庫	-10.1273
べき	-10.1278
ell	-10.1279
ポルトガル	-10.1281
BC	-10.1281
AC	-10.1282
と対戦し	-10.1283
えた	-10.1284
統計	-10.1289
侵攻	-10.1291
担	-10.1299
このとき	-10.13
ビット	-10.13
レーベル	-10.1301
毒	-10.1304
新潟	-10.1306
1952	-10.1309
株	-10.131
彼女は	-10.1312
現在も	-10.1318
髪	-10.1318
継	-10.1321
om	-10.1324
ミサイル	-10.1324
ポル	-10.1333
EN	-10.1334
との関係	-10.1337
解釈	-10.1338
é	-10.1339
縦	-10.134
ことになった	-10.134
ni	-10.1341
背	-10.1343
発表された	-10.1343
守備	-10.1349
リンク	-10.1355
1977	-10.1366
発足	-10.1368
込まれ	-10.1371
再建	-10.1378
チャンネル	-10.138
幼	-10.1384
薄	-10.1385
KO	-10.1387
裁判所	-10.1387
機の	-10.1392
事態	-10.1392
アクション	-10.1392
大規模な	-10.1393
並	-10.1395
たちが	-10.1396
セー	-10.1396
回り	-10.1398
、2013	-10.1398
こそ	-10.1402
ドリ	-10.1403
福岡県	-10.1405
一番	-10.1407
たもの	-10.1407
想	-10.1409
に就任	-10.1412
キュ	-10.1425
スイス	-10.1426
場合には	-10.1427
知識	-10.1427
FM	-10.143
閉鎖	-10.1433
執	-10.1437
に関して	-10.1438
聞	-10.144
開幕	-10.1443
1954	-10.1447
取得	-10.1449
裁	-10.1457
奉	-10.1457
ion	-10.1464
レル	-10.1466
世界選手権	-10.1467
年現在	-10.1468
業界	-10.147
76	-10.1473
、2004	-10.1476
昭	-10.1479
ゆう	-10.1479
武装	-10.148
たため	-10.1483
下げ	-10.1485
5%	-10.1488
特定	-10.1494
臨時	-10.1501
ものを	-10.1505
ほどの	-10.1507
か月	-10.1507
偽	-10.1508
▁2001	-10.1512
スコ	-10.1513
span	-10.1513
を表す	-10.1515
中部	-10.1516
スタジアム	-10.1519
の世界	-10.152
▁主な	-10.1522
哲学	-10.1522
地点	-10.1526
注意	-10.1526
丹	-10.1528
性を	-10.1528
ガイ	-10.1528
駒	-10.153
迫	-10.1534
63	-10.1535
活動を	-10.1535
軍人	-10.1535
比較	-10.1536
箇所	-10.1539
62	-10.1542
ユダヤ人	-10.1542
ポジションは	-10.1545
ウェル	-10.1548
残り	-10.155
かなり	-10.1554
主要な	-10.1562
を用いる	-10.1566
沿岸	-10.1567
姉妹	-10.1568
山本	-10.157
無料	-10.157
マッチ	-10.1578
を発表した	-10.1582
寄り	-10.1582
ME	-10.1586
芳	-10.1592
させて	-10.1593
1970	-10.1593
手段	-10.1595
山田	-10.1601
植	-10.1606
寝	-10.1609
以前の	-10.1609
▁(""	-10.161
大和	-10.1612
苦	-10.1615
営業所	-10.1618
社の	-10.1619
けい	-10.1619
敷	-10.162
三菱	-10.1622
同様に	-10.1624
と思われる	-10.1626
当駅	-10.1627
川崎	-10.163
吹	-10.1633
に就任した	-10.1636
次第に	-10.1638
育成	-10.1641
粉	-10.1642
包	-10.1645
寛	-10.1647
衝突	-10.1655
ごと	-10.1657
青年	-10.1657
プロ野球	-10.1658
続き	-10.1664
ヌス	-10.1664
の各	-10.1665
▁formula	-10.1667
UN	-10.1674
正式に	-10.1675
賢	-10.1677
呼称	-10.1678
静岡県	-10.1682
やすい	-10.1683
市にある	-10.1688
1957	-10.1689
学習	-10.1692
78	-10.1694
はほとんど	-10.1696
人に	-10.1698
古い	-10.17
nd	-10.1705
祝	-10.1709
ファイ	-10.1712
痛	-10.1717
77	-10.1718
急行	-10.1718
常に	-10.1719
も多く	-10.1719
1988	-10.1721
抜け	-10.1722
の特徴	-10.1723
付けられた	-10.1728
1953	-10.173
)12	-10.173
を使用する	-10.1732
承	-10.1736
起源	-10.1741
あい	-10.1743
性の	-10.1751
議長	-10.1752
双	-10.1754
故	-10.1757
救	-10.1758
にもかかわらず	-10.1761
個体	-10.1762
国境	-10.1762
ング	-10.1767
争い	-10.1768
賞を受賞	-10.1769
一般的に	-10.1775
斉	-10.1776
捕	-10.1778
na	-10.178
ce	-10.1783
票	-10.1784
っていない	-10.1786
フェン	-10.1792
85	-10.1797
合わせ	-10.1801
獣	-10.1801
掛け	-10.1804
レオ	-10.1806
鏡	-10.1807
言い	-10.1808
つけ	-10.1811
テロ	-10.1816
著書	-10.1818
自らの	-10.1819
ユーザー	-10.1823
定期	-10.1824
構想	-10.1824
戦隊	-10.1824
業者	-10.1826
深夜	-10.1831
ものであり	-10.1836
、2016	-10.1842
ビジネス	-10.1846
荘	-10.1846
概念	-10.1847
ne	-10.1851
多い	-10.1853
機会	-10.1859
マイル	-10.186
再生	-10.1861
万ドル	-10.1864
以前は	-10.1871
類似	-10.1873
傘下	-10.1877
仏教	-10.1885
藩主	-10.1885
all	-10.1886
負	-10.1886
話題	-10.1887
われた	-10.1889
ーション	-10.1889
ac	-10.1896
練	-10.1896
ジャック	-10.1898
丁	-10.19
ギャ	-10.1904
従来	-10.1906
アカデミー	-10.1912
の下	-10.1912
検討	-10.1912
一般的な	-10.1914
財	-10.1917
ag	-10.1919
フジテレビ	-10.1919
グロ	-10.1922
かつては	-10.1925
地名	-10.1927
松本	-10.1932
生命	-10.1934
不明	-10.1935
教師	-10.1937
ノル	-10.1939
負け	-10.194
姉	-10.1941
プロダクション	-10.1942
あたり	-10.1945
るが	-10.1947
恩	-10.195
IS	-10.1952
笑	-10.1952
再開	-10.1957
を獲得	-10.1959
改修	-10.196
開発された	-10.1961
様子	-10.1963
仙	-10.1963
ard	-10.1963
▁0	-10.1965
700	-10.1969
上記の	-10.1972
発見された	-10.1972
様式	-10.1973
シート	-10.1973
美術館	-10.1975
もっとも	-10.1978
AS	-10.1982
集落	-10.1985
全く	-10.199
各国	-10.1992
項目	-10.1993
使用する	-10.1996
面積	-10.1998
66	-10.2003
1939	-10.2005
済	-10.2006
秘	-10.2006
撃	-10.2013
妙	-10.2016
栽培	-10.2017
陳	-10.2021
使用されている	-10.2021
ホル	-10.2025
1951	-10.2028
患者	-10.203
現実	-10.203
。2006	-10.2031
当て	-10.2035
込んで	-10.2037
つつ	-10.2042
ブロ	-10.2043
現場	-10.2044
縮	-10.2046
盗	-10.2051
を超える	-10.2051
述	-10.2053
峠	-10.2062
写	-10.2062
ていった	-10.2062
86	-10.2063
BA	-10.2063
駅舎	-10.2063
キャリア	-10.2064
子は	-10.2065
料金	-10.2067
Windows	-10.2067
数が	-10.2069
ヤン	-10.208
ニン	-10.2083
反乱	-10.2087
au	-10.209
酸化	-10.2094
建造	-10.2096
cc	-10.2101
肩	-10.2102
ゲイ	-10.2102
チームの	-10.2108
重量	-10.2109
免許	-10.2111
ダウン	-10.2111
警	-10.2111
致	-10.2113
88	-10.2117
滑	-10.2118
主力	-10.2118
コンビ	-10.212
共演	-10.2121
眠	-10.2121
インター	-10.2122
披露	-10.2123
標高	-10.2125
創立	-10.2126
棒	-10.2128
1998	-10.213
–	-10.2132
世紀の	-10.2136
確立	-10.2138
FA	-10.2141
についての	-10.2142
死去した	-10.2145
養子	-10.2149
長野県	-10.215
to	-10.2151
軍団	-10.2152
1987	-10.216
OR	-10.2162
フラン	-10.2166
昇格	-10.2166
im	-10.2169
うえ	-10.217
否定	-10.2171
ようになり	-10.2172
息	-10.2176
を得て	-10.2182
ることができる	-10.2186
徐々に	-10.2187
サム	-10.2188
暴	-10.2197
参照	-10.2198
formula	-10.2206
牧	-10.2206
やり	-10.2207
▁St	-10.2214
ニック	-10.222
労	-10.222
引き続き	-10.2229
位の	-10.2235
消防	-10.2236
年からは	-10.2237
架	-10.2247
状の	-10.2248
寒	-10.225
深い	-10.2254
メール	-10.2256
贈	-10.2258
札幌	-10.2258
AL	-10.2259
捜査	-10.2263
61	-10.2265
▁c	-10.2265
ヴァル	-10.2266
要請	-10.2267
以前	-10.2269
微	-10.2269
誘	-10.2272
戦線	-10.2274
金融	-10.2274
協定	-10.2279
人と	-10.2279
変換	-10.2283
栗	-10.2284
進む	-10.2286
歌詞	-10.2286
島の	-10.2289
駅前	-10.2289
単行本	-10.229
首都	-10.229
テレビアニメ	-10.2291
輸出	-10.2296
爆発	-10.2305
弁護士	-10.2306
95	-10.2309
リアン	-10.2314
IT	-10.2316
即位	-10.2317
伸び	-10.2318
なん	-10.2321
新宿	-10.2322
消費	-10.2328
古典	-10.233
ON	-10.2332
織	-10.2334
フィン	-10.2341
モスクワ	-10.2342
はなく	-10.2345
を設け	-10.2347
という意味	-10.235
トルコ	-10.2353
権を	-10.2358
ハード	-10.2358
駅間	-10.2365
前述の	-10.2366
期の	-10.2367
たる	-10.2367
買	-10.2371
オリ	-10.2376
耳	-10.238
、2014	-10.2382
民主	-10.2385
自身が	-10.2387
キャラ	-10.2388
を記録した	-10.2388
両者	-10.2388
色の	-10.2391
それに	-10.2393
書籍	-10.2396
天正	-10.24
チャン	-10.24
勤務	-10.2401
相当	-10.2402
律	-10.2403
委員長	-10.2404
ロール	-10.2405
突	-10.2405
ge	-10.2406
ひろ	-10.2411
ヴィン	-10.2413
知られている	-10.2416
と呼ばれた	-10.2417
魔法	-10.2418
地下鉄	-10.2418
]	-10.2419
胸	-10.2429
劇団	-10.243
居住	-10.2434
1986	-10.2435
最多	-10.2438
指示	-10.2441
すぐ	-10.2443
待	-10.2443
が担当	-10.2445
演劇	-10.2448
将来	-10.2448
庭	-10.2449
、2015	-10.2449
打率	-10.2452
になっていた	-10.2453
舎	-10.2453
戦では	-10.2454
ate	-10.2456
他にも	-10.2459
ッター	-10.2462
リーダー	-10.2472
事情	-10.2473
即	-10.2474
緒	-10.2476
随	-10.2482
エリ	-10.2484
混乱	-10.2498
頃から	-10.25
外国	-10.2502
種の	-10.2507
気候	-10.2508
卒	-10.251
彩	-10.2513
棟	-10.2513
ものと	-10.2514
峰	-10.252
AM	-10.2522
いていた	-10.2525
事業者	-10.2529
高橋	-10.2533
子会社	-10.2533
67	-10.254
ロサンゼルス	-10.2542
入学	-10.2543
穂	-10.2544
1937	-10.2548
98	-10.2551
のない	-10.2552
を作る	-10.2557
ヌー	-10.2558
ながらも	-10.2563
役割	-10.2568
売り	-10.2571
補助	-10.2572
嫌	-10.2582
ンド	-10.2582
命名	-10.2584
確保	-10.2587
、1990	-10.2589
外国人	-10.2589
1985	-10.2589
届	-10.2589
同様	-10.2596
入団	-10.2596
が出	-10.2596
RI	-10.2599
68	-10.2603
証明	-10.2604
機種	-10.2604
me	-10.2604
地域の	-10.2605
と同じく	-10.2607
加盟	-10.2612
いたが	-10.2616
前年	-10.2617
強制	-10.2619
投入	-10.2621
ニコ	-10.2623
権利	-10.2623
ly	-10.2624
使われている	-10.2631
伊藤	-10.2637
BO	-10.264
文献	-10.2641
義務	-10.2641
句	-10.2642
転換	-10.2643
が高い	-10.2649
できなかった	-10.265
俗	-10.2652
那	-10.2658
ディスク	-10.2664
世紀に	-10.2668
マスター	-10.267
に参加した	-10.2673
ゲー	-10.2673
清水	-10.2674
オペラ	-10.2678
されない	-10.2682
劣	-10.2687
垣	-10.2689
限り	-10.269
場面	-10.2692
繋	-10.2692
ゼン	-10.2692
駐	-10.2696
メジャー	-10.2697
ul	-10.2697
☆	-10.2701
に取り	-10.2708
かず	-10.2725
存在する	-10.2727
そのもの	-10.2731
極めて	-10.2738
を使う	-10.2738
虎	-10.2739
あと	-10.274
ヘン	-10.2741
趣味	-10.2745
モノ	-10.2751
1997	-10.2754
合わせて	-10.2755
卒業後	-10.2755
兵衛	-10.2756
制定	-10.2756
新人	-10.2759
大学で	-10.2764
フィルム	-10.2765
まち	-10.2767
同時	-10.2775
集中	-10.2776
ョ	-10.2784
毎週	-10.2787
コロ	-10.2788
、2003	-10.2788
ここ	-10.2788
1950	-10.2789
モンゴル	-10.279
濃	-10.2794
離脱	-10.2802
新幹線	-10.2802
は以下の通り	-10.2805
のことである	-10.2806
モル	-10.2806
須	-10.2809
わない	-10.281
リリースされた	-10.2811
処	-10.2811
合格	-10.2814
桂	-10.2815
婚	-10.2816
の使用	-10.2816
ウム	-10.2818
耐	-10.282
ight	-10.2821
父の	-10.2821
攻め	-10.2822
取締役	-10.2822
ウン	-10.2822
1938	-10.2825
好き	-10.2828
討	-10.2829
外交	-10.2833
以降の	-10.2835
作目	-10.2837
EC	-10.2839
無線	-10.2839
激	-10.2839
山脈	-10.2841
東側	-10.2842
の末	-10.2843
これらは	-10.2845
DE	-10.2849
区分	-10.285
と述べている	-10.2851
ース	-10.2851
守護	-10.2852
を通して	-10.2858
イス	-10.2863
vi	-10.2865
休止	-10.2867
子が	-10.2867
彼女の	-10.2873
GA	-10.2875
登場する	-10.2878
リズム	-10.2879
修正	-10.2881
堅	-10.2882
帰国	-10.2884
フー	-10.2884
発達	-10.2885
を求める	-10.2888
潜	-10.2888
敗北	-10.2891
ブルク	-10.2896
この頃	-10.2903
ヘッド	-10.2908
ロング	-10.291
1936	-10.2914
洲	-10.2917
軒	-10.2922
開通	-10.2922
動画	-10.2928
▁1990	-10.293
立場	-10.2932
1996	-10.2935
敏	-10.2939
上映	-10.2941
バーン	-10.2944
扉	-10.2945
犯	-10.2949
提出	-10.2953
整	-10.2953
実際には	-10.2956
be	-10.2958
模様	-10.296
に入学	-10.2963
自宅	-10.2964
浩	-10.2968
イスラエル	-10.2968
発着	-10.297
解体	-10.2972
刑事	-10.2973
ツァ	-10.2974
困難	-10.2975
1984	-10.298
合意	-10.2986
そのような	-10.2986
ラク	-10.2991
相互	-10.2991
資本	-10.2993
。2005	-10.2993
未来	-10.2995
護衛	-10.3
ot	-10.3011
流行	-10.3012
フィル	-10.3012
希	-10.3016
を果たし	-10.302
しかしながら	-10.3023
体験	-10.3023
画像	-10.3025
することになった	-10.3026
岐	-10.3027
として活動	-10.3036
テイ	-10.3045
LE	-10.3048
用途	-10.3048
一致	-10.305
硬	-10.3052
旨	-10.3052
にまで	-10.3053
希望	-10.3053
幹	-10.3055
やや	-10.3056
利益	-10.3058
の下で	-10.3062
競馬場	-10.3066
〈	-10.3067
〉	-10.3068
ターン	-10.3069
伴	-10.3069
、2017	-10.3069
権力	-10.3077
を描いた	-10.3083
状態で	-10.3084
スキ	-10.3086
課程	-10.3094
台車	-10.3098
祖父	-10.3103
をしている	-10.3104
アイテム	-10.311
ウクライナ	-10.3112
包囲	-10.3113
身体	-10.3115
彼が	-10.3117
シス	-10.3118
効率	-10.3121
若い	-10.3124
を中心とした	-10.3125
されなかった	-10.3128
個の	-10.3129
ーナ	-10.3131
基礎	-10.3136
AV	-10.3136
試み	-10.3141
ネタ	-10.3141
をリリース	-10.3146
なければならない	-10.3147
登板	-10.3152
記憶	-10.3152
活	-10.3152
進化	-10.3153
描写	-10.3153
od	-10.3154
たこと	-10.3159
るなど	-10.3161
提携	-10.3162
審査	-10.3164
予算	-10.3166
陵	-10.3167
man	-10.3168
ーク	-10.317
ロバート	-10.3176
揚	-10.318
奴隷	-10.3181
主体	-10.3185
戦闘機	-10.3185
理事	-10.3186
させること	-10.3186
芝	-10.3187
投げ	-10.3192
していった	-10.3192
アド	-10.3198
ステークス	-10.3198
ミュ	-10.3202
)10	-10.3203
実際の	-10.3204
北側	-10.3212
もともと	-10.3213
で最も	-10.3214
を持っている	-10.322
ついた	-10.322
郵便局	-10.322
伸	-10.3222
略称	-10.3223
終了後	-10.3227
かかる	-10.3228
96	-10.3228
モーター	-10.3228
ロイ	-10.3229
サブ	-10.3231
を始めた	-10.3231
の女性	-10.3233
;	-10.3234
遠征	-10.3235
追い	-10.3235
次元	-10.3236
組み合わせ	-10.3237
ill	-10.3237
小林	-10.3239
判定	-10.3241
液	-10.3246
ant	-10.3247
などから	-10.3256
できず	-10.3257
付属	-10.3258
数学	-10.3258
を出	-10.3259
ッタ	-10.3268
用いられる	-10.3269
DS	-10.3271
加藤	-10.3271
創刊	-10.3272
偏	-10.3274
交代	-10.3276
との間に	-10.3278
買い	-10.3278
SF	-10.3281
してしまう	-10.3286
しょ	-10.329
ホワイト	-10.329
を行っていた	-10.3291
人工	-10.3292
名で	-10.3293
恐れ	-10.3294
材料	-10.3301
日発売	-10.3303
吸	-10.3304
89	-10.3307
不可能	-10.3308
体重	-10.3311
ても	-10.3311
巻き	-10.3314
に入って	-10.3314
監督の	-10.3314
であれば	-10.3316
外部	-10.3317
敷地	-10.3317
続けた	-10.3318
に進出	-10.3318
そこに	-10.332
測定	-10.3321
高度	-10.3322
トーク	-10.3326
スティ	-10.3329
の高い	-10.3331
mo	-10.3336
貸	-10.3343
はじめ	-10.3344
do	-10.3348
上げた	-10.3351
ジェイ	-10.3352
io	-10.3356
に相当する	-10.336
途	-10.3368
者に	-10.3371
クロー	-10.3376
79	-10.3379
ta	-10.3381
、1980	-10.3384
韓	-10.3385
鹿児島	-10.3388
を取得	-10.3388
られて	-10.3389
▁1999	-10.3391
に当たる	-10.3391
ノイ	-10.3393
シリア	-10.3393
紫	-10.3394
態	-10.34
ment	-10.3401
侍	-10.3402
抜	-10.3404
ンス	-10.3405
が増え	-10.3405
予想	-10.3409
場合がある	-10.3411
の建設	-10.3411
が行われている	-10.3412
単に	-10.3414
狂	-10.3414
ジム	-10.3417
終了した	-10.3417
アメリカン	-10.3418
そこ	-10.342
シリーズの	-10.3425
壊	-10.3425
廃止された	-10.3428
パート	-10.3429
▁ア	-10.343
ペイ	-10.343
下の	-10.3431
政府は	-10.3432
費用	-10.3432
したという	-10.3432
MI	-10.3433
半分	-10.3434
を作り	-10.3435
アニメーション	-10.3441
が見られる	-10.3443
▁10	-10.3446
巣	-10.3447
広場	-10.3452
レッ	-10.3455
に伴う	-10.3455
先発	-10.3455
手がけ	-10.3459
対抗	-10.3459
案内	-10.3462
性が	-10.3463
われる	-10.3464
しているが	-10.3465
-5	-10.3465
捨て	-10.3468
プロデュース	-10.3471
研究者	-10.3475
フェル	-10.3477
登場した	-10.3478
の意味	-10.3479
市街地	-10.3479
講師	-10.3481
月場所	-10.3481
家督	-10.3482
アート	-10.3482
ケット	-10.3484
ラブ	-10.3484
訴訟	-10.3485
入れた	-10.3485
年代後半	-10.3489
沙	-10.3492
人で	-10.3494
姿勢	-10.3495
呼び	-10.3497
四国	-10.3501
ヴィー	-10.3502
大幅に	-10.3503
洞	-10.3504
▁一方	-10.3506
原子	-10.351
ドライバー	-10.3516
形の	-10.3518
古墳	-10.352
を下	-10.352
帳	-10.352
ブラン	-10.3525
岳	-10.3528
するまで	-10.3528
ネイ	-10.3531
コピー	-10.3536
月末	-10.3541
晋	-10.3542
を与え	-10.3547
れて	-10.3548
北京	-10.355
職業	-10.3551
に応じて	-10.3551
夫人	-10.3553
軍が	-10.3554
ける	-10.3554
1933	-10.3557
高さ	-10.3559
午後	-10.3563
襲撃	-10.3571
寄せ	-10.3574
染	-10.3574
の一種	-10.3574
パイロット	-10.3574
斎	-10.3579
LA	-10.358
ロボット	-10.3581
東洋	-10.3583
リエ	-10.3584
そんな	-10.3589
▁ストーリー	-10.3589
1983	-10.3591
概要	-10.3591
浄	-10.3592
監	-10.3593
キャスト	-10.3595
ドロ	-10.3596
も存在する	-10.3597
。2011	-10.3598
の戦いで	-10.36
儀	-10.3602
知られ	-10.3605
行われている	-10.3607
中国の	-10.3609
単独	-10.3609
ry	-10.3612
目に	-10.3615
数字	-10.3617
▁Co	-10.3617
温度	-10.3618
を実施	-10.3619
岐阜県	-10.3619
側は	-10.362
ロウ	-10.362
ジャンル	-10.3621
ビッグ	-10.3628
であったため	-10.3631
その結果	-10.3631
上海	-10.3631
大きい	-10.3632
覆	-10.3641
の際	-10.3643
モス	-10.3643
されたもの	-10.3644
資源	-10.3645
両親	-10.3645
秘密	-10.3647
▁Re	-10.3649
は主に	-10.365
巨	-10.3652
ow	-10.3652
音声	-10.3657
資	-10.3661
石油	-10.3661
暗殺	-10.3661
連結	-10.3662
献	-10.3668
印刷	-10.3668
日本代表	-10.3669
政治的	-10.367
したのは	-10.3671
公認	-10.3671
短い	-10.3672
87	-10.3673
熊本	-10.3675
スパイ	-10.3675
見える	-10.3676
ive	-10.3678
を結成	-10.3679
ソウル	-10.3681
危険	-10.3685
メー	-10.3686
先に	-10.3689
といわれる	-10.3693
1982	-10.3695
流通	-10.3696
激しい	-10.3701
使われ	-10.3704
世帯	-10.3708
をもつ	-10.371
序	-10.371
されると	-10.3712
駅から	-10.3713
1972	-10.3714
自体	-10.3719
もない	-10.3721
インターチェンジ	-10.3722
▁現在	-10.3722
るために	-10.3726
ガラス	-10.3726
、2002	-10.3731
加工	-10.3742
定着	-10.3743
公表	-10.3748
観客	-10.3751
笠	-10.3752
ファッション	-10.3752
WA	-10.3754
甘	-10.3755
。2013	-10.3756
を開催	-10.3757
ヒト	-10.3757
に生まれる	-10.3758
キュー	-10.3761
ap	-10.3762
)11	-10.3763
があるが	-10.3766
ステーション	-10.3772
インディアン	-10.3774
を担当	-10.3775
措置	-10.3775
裂	-10.3776
▁〜	-10.3777
行く	-10.3778
カトリック	-10.3778
わず	-10.3779
打撃	-10.3779
領土	-10.3781
呼	-10.3781
洗	-10.3782
ph	-10.3786
しばらく	-10.3787
復興	-10.3789
関心	-10.3792
自転車	-10.3801
たとえば	-10.3803
秋田	-10.3804
押	-10.3805
1932	-10.3808
ドーム	-10.381
しようと	-10.3813
作品の	-10.3814
分岐	-10.3819
プライ	-10.382
der	-10.3822
コスト	-10.3825
年代の	-10.3826
160	-10.3826
社会主義	-10.3829
地元の	-10.3829
スポンサー	-10.3831
部品	-10.3831
暮らし	-10.3834
起用	-10.3834
最優秀	-10.3842
でもあった	-10.3842
第一次世界大戦	-10.3843
統	-10.3848
の地位	-10.3848
遺伝子	-10.385
ムー	-10.385
留学	-10.3851
操縦	-10.3852
梁	-10.3855
の関係	-10.3856
に基づいて	-10.3856
年頃	-10.3856
ッキー	-10.3857
パイ	-10.3859
TE	-10.3864
バスケットボール	-10.3864
ストン	-10.3869
を目指す	-10.387
ヘンリー	-10.387
張り	-10.3873
分裂	-10.3876
防止	-10.3877
岡山	-10.3879
週刊	-10.388
現役	-10.388
少ない	-10.3884
者として	-10.3884
充	-10.3888
ぞ	-10.3889
最後	-10.3893
近い	-10.3893
ミュージシャン	-10.3895
と同様	-10.3895
生涯	-10.3896
でない	-10.3899
1934	-10.39
ig	-10.39
過ぎ	-10.39
で初めて	-10.3903
人である	-10.391
離れた	-10.3912
国会	-10.3919
再度	-10.3921
ーム	-10.3922
通行	-10.3926
線が	-10.3927
降伏	-10.3929
如	-10.393
小さい	-10.3938
署	-10.394
ab	-10.3942
ho	-10.3945
感じ	-10.3945
こく	-10.3947
掃	-10.3948
1935	-10.395
払	-10.3954
放送局	-10.3956
童	-10.3957
テニス	-10.3958
イラスト	-10.3964
を持った	-10.3965
III	-10.3969
メモリ	-10.397
74	-10.397
葬	-10.3971
キロ	-10.3971
父は	-10.3973
保守	-10.3977
男女	-10.3979
HO	-10.3981
負担	-10.3981
種類の	-10.3985
勤	-10.3985
97	-10.3987
クラシック	-10.399
福島	-10.3994
順位	-10.3999
1979	-10.4001
殺害	-10.4002
所在地	-10.4003
記号	-10.4005
スピ	-10.4006
NE	-10.4012
長さ	-10.4019
籍	-10.4019
育	-10.402
69	-10.4021
進められ	-10.4023
者である	-10.4027
下り	-10.4029
。2012	-10.403
大字	-10.4031
伝承	-10.4035
est	-10.4036
チャート	-10.4037
最初	-10.404
帰還	-10.4041
明らかに	-10.4052
体系	-10.4052
北朝鮮	-10.4052
日本軍	-10.4052
no	-10.4056
ベルギー	-10.4057
率は	-10.4058
本作の	-10.4065
事を	-10.4067
援助	-10.4067
全長	-10.4067
勲	-10.4068
カリフォルニア州	-10.4069
フランス語	-10.4071
池田	-10.4071
作者	-10.4073
。2016	-10.4074
化し	-10.4076
ミング	-10.4082
宅	-10.4083
の問題	-10.4083
県道	-10.4085
手紙	-10.4088
南側	-10.409
の乱	-10.4091
こともあった	-10.4094
クション	-10.4096
原則	-10.4097
者を	-10.4097
ごく	-10.4097
ジャンプ	-10.4099
年生	-10.4099
閣	-10.4101
切れ	-10.4108
ガンダム	-10.4109
は大	-10.4109
之助	-10.411
登場人物	-10.4113
わり	-10.4115
祐	-10.4117
本の	-10.412
に出場	-10.4122
来日	-10.4124
pe	-10.4128
功績	-10.4129
先行	-10.4136
ウィーン	-10.4136
みられる	-10.4138
ちなみに	-10.4142
インタビュー	-10.4143
直線	-10.4146
鑑	-10.4149
中期	-10.4149
付けた	-10.4149
リード	-10.415
全員	-10.4152
含まれ	-10.4154
)7	-10.4155
ウッド	-10.4156
幹部	-10.4157
ess	-10.4162
症状	-10.4163
季	-10.4163
申請	-10.4164
同様の	-10.4165
取材	-10.4167
攻	-10.4168
に際して	-10.417
パーソナリティ	-10.4171
漢字	-10.4172
悪化	-10.4174
広島県	-10.4175
は日本の	-10.4176
海上	-10.4176
をしていた	-10.4178
ブック	-10.4179
なもの	-10.418
南西	-10.418
IP	-10.4185
申	-10.4185
フィリピン	-10.4186
怪	-10.4188
講	-10.4188
政府の	-10.4188
出て	-10.4189
バトル	-10.4192
刻	-10.4195
専攻	-10.4195
する場合	-10.4198
操	-10.4199
故障	-10.42
大手	-10.42
恒	-10.4201
曹	-10.421
予備	-10.4211
議席	-10.4216
NS	-10.4221
記者	-10.4222
ティス	-10.4223
所有	-10.4224
彼らの	-10.4225
採用された	-10.4226
コア	-10.4226
積極的に	-10.4226
シカゴ	-10.4227
120	-10.4229
映	-10.4232
継ぎ	-10.4234
モリ	-10.4234
蘭	-10.4236
優先	-10.4238
1928	-10.4239
少し	-10.4241
司法	-10.4243
ルス	-10.4246
に向けて	-10.4246
チームは	-10.425
ベトナム	-10.4253
公立	-10.4253
ヨー	-10.4255
シェル	-10.4258
朱	-10.4261
ストリート	-10.4262
送り	-10.4264
中山	-10.4265
一切	-10.4269
しき	-10.4269
隣接する	-10.4272
新設	-10.4272
程度の	-10.4274
ワード	-10.4274
ニス	-10.4276
バーグ	-10.4276
逮捕	-10.4283
ボス	-10.4287
井上	-10.4288
戦艦	-10.4289
1931	-10.4292
はず	-10.4294
がわ	-10.4295
差し	-10.4297
ならば	-10.4301
として知られる	-10.4302
少将	-10.4303
共産党	-10.4304
イラン	-10.4304
意図	-10.4305
芸能	-10.4312
きっかけ	-10.4313
ワイン	-10.4314
バッハ	-10.4321
が挙げられる	-10.4322
per	-10.4326
推定	-10.4326
ボディ	-10.4326
した場合	-10.4327
愛称	-10.4329
自社	-10.4331
ヤー	-10.4335
同期	-10.4335
又は	-10.4336
てい	-10.4337
束	-10.4337
上野	-10.4339
化する	-10.4342
オート	-10.435
アッ	-10.4351
らの	-10.4352
ランク	-10.4352
ラウ	-10.4352
PA	-10.4354
を得	-10.4357
始まり	-10.4358
が異なる	-10.4359
することは	-10.436
経過	-10.4361
ラント	-10.4361
AP	-10.4363
王子	-10.4368
書かれた	-10.437
摩	-10.4371
新規	-10.4371
推薦	-10.4374
絵画	-10.4374
顧問	-10.4375
線路	-10.4377
面で	-10.4379
ギー	-10.438
天皇の	-10.4384
アメリカ軍	-10.4386
わった	-10.439
-7	-10.4396
例として	-10.4397
神話	-10.44
を与える	-10.44
ローカル	-10.4403
バイパス	-10.4404
に敗れ	-10.4406
5000	-10.4406
免	-10.4407
ジャズ	-10.4407
柔道	-10.441
DA	-10.4412
言う	-10.4415
1981	-10.4422
▁1998	-10.4423
病気	-10.4423
蓮	-10.4424
争	-10.4426
なくなる	-10.4427
ゆき	-10.4432
詳細は	-10.4433
奈良	-10.4443
挑戦	-10.4443
体の	-10.4447
ライフ	-10.4448
1929	-10.4453
枚目のシングル	-10.4456
と言われている	-10.4457
リウス	-10.4458
72	-10.4458
茨城県	-10.4463
手術	-10.4467
猫	-10.4471
合う	-10.4474
有力	-10.4475
東日本	-10.4475
▁16	-10.4476
を卒業	-10.4479
ジェット	-10.4484
育て	-10.4485
ナショナル	-10.4487
誘導	-10.4487
屋根	-10.449
ers	-10.4491
振興	-10.4499
ロゴ	-10.45
▁1980	-10.45
、2001	-10.4503
番目の	-10.4503
編曲	-10.4503
長男	-10.4505
退団	-10.4507
月刊	-10.4509
慶長	-10.451
詰め	-10.451
を置く	-10.451
▁8	-10.4511
上陸	-10.4515
コメント	-10.4517
版の	-10.4518
大阪市	-10.4519
生息	-10.4521
邸	-10.4522
桃	-10.4522
バート	-10.4526
連携	-10.4526
するようになった	-10.453
及	-10.453
age	-10.4531
各地	-10.4531
コンセプト	-10.4533
リオン	-10.4533
ライセンス	-10.4534
ソニー	-10.4535
郊外	-10.454
買収	-10.4541
まれた	-10.4545
侯	-10.4546
少数	-10.4548
ないため	-10.4551
°	-10.4551
家臣	-10.4551
宋	-10.4552
。2004	-10.4552
スコットランド	-10.4555
苦し	-10.4556
の多くは	-10.4559
コムーネ	-10.456
出された	-10.456
推	-10.456
辞任	-10.4561
に転	-10.4567
。2015	-10.4572
高く	-10.4573
らは	-10.4575
イェ	-10.4576
近年	-10.4576
トリー	-10.4583
▁f	-10.4584
デンマーク	-10.4586
翌日	-10.4587
ゼル	-10.4588
ショップ	-10.4588
出発	-10.4589
過ごし	-10.4592
カム	-10.4595
針	-10.4601
桑	-10.4601
ワイド	-10.4601
前半	-10.4602
するも	-10.4607
弦	-10.4612
追放	-10.4612
中には	-10.4613
ボクシング	-10.4615
-8	-10.4617
球場	-10.4619
確定	-10.462
GO	-10.4624
巨人	-10.4626
てしまった	-10.4627
かつての	-10.4632
豆	-10.4635
クリア	-10.4635
作品を	-10.4636
需要	-10.4637
マイケル	-10.4637
直前	-10.464
教え	-10.464
を使った	-10.4642
▁<	-10.4644
ってきた	-10.4645
を設立	-10.4647
込め	-10.4648
先端	-10.4652
いった	-10.4653
残る	-10.4653
供	-10.4656
実績	-10.4663
によるもの	-10.4664
開催される	-10.4666
現在でも	-10.4666
売却	-10.4669
を最後に	-10.4669
存	-10.4672
隔	-10.4673
エレ	-10.4677
▁交通	-10.4679
飲	-10.4679
アマチュア	-10.4681
突き	-10.4682
本拠地	-10.4685
屋敷	-10.4685
▁p	-10.4686
を見せ	-10.4693
構築	-10.4699
碑	-10.4701
com	-10.4702
シーズンは	-10.4704
マリー	-10.4704
時点	-10.4704
ub	-10.4706
深く	-10.4708
双方	-10.471
どこ	-10.471
人生	-10.471
利用者	-10.4712
然	-10.4713
ッサ	-10.4713
いずれ	-10.4715
込	-10.4716
は非常に	-10.4717
、1970	-10.4717
のみならず	-10.472
:""	-10.4722
ラップ	-10.4722
ハイム	-10.4724
請	-10.4727
災害	-10.4727
移民	-10.4728
合同	-10.473
収容	-10.4738
サウンド	-10.4741
魂	-10.4742
後方	-10.4742
松平	-10.4742
入手	-10.4743
に所属	-10.4743
渡辺	-10.4747
デモ	-10.4747
トゥー	-10.4747
ヴァイ	-10.4748
ポスト	-10.475
周辺の	-10.4752
しゅ	-10.4755
過去の	-10.4763
ツー	-10.4765
に対応	-10.4771
ないし	-10.4773
両編成	-10.4774
は全て	-10.4775
菅	-10.4775
大賞	-10.4777
修道院	-10.4778
▁X	-10.4779
悟	-10.4779
編入	-10.478
ドイツ語	-10.4781
専門学校	-10.4795
王朝	-10.4797
のに対し	-10.4805
ES	-10.4806
郭	-10.4806
上演	-10.4806
モール	-10.481
良く	-10.4815
認め	-10.4824
桁	-10.4825
新潟県	-10.4826
スコット	-10.4827
成分	-10.4828
水素	-10.483
を始める	-10.4831
が設置され	-10.4831
騎兵	-10.4832
。2014	-10.4833
1927	-10.4834
続け	-10.4834
載	-10.4838
元々	-10.4838
白い	-10.4839
きゅう	-10.484
小惑星	-10.4842
全体の	-10.4844
一つ	-10.4849
したものである	-10.485
宏	-10.4853
したものの	-10.4854
号は	-10.4855
線を	-10.4857
頭部	-10.4858
絶対	-10.4862
へ移籍	-10.4862
物を	-10.4864
のもと	-10.4864
の他	-10.4866
グラン	-10.4867
と言われる	-10.487
活用	-10.4872
石川	-10.488
固有	-10.488
接触	-10.488
過去に	-10.4883
などと	-10.4887
》	-10.4888
であろう	-10.4888
《	-10.489
DO	-10.489
用に	-10.489
73	-10.4898
始まった	-10.49
エース	-10.49
さえ	-10.4911
和田	-10.4914
再編	-10.4914
興行	-10.4915
がなく	-10.4916
の中でも	-10.4916
大な	-10.4916
スピード	-10.4916
近郊	-10.4917
)8	-10.4919
ビュー	-10.4919
部は	-10.492
人類	-10.4922
1924	-10.4924
ピア	-10.4925
繁殖	-10.493
使われた	-10.493
脱出	-10.4931
son	-10.4934
開設	-10.4941
ムス	-10.4944
位に	-10.4944
当該	-10.4944
最低	-10.4945
方言	-10.4945
レコーディング	-10.4947
軌	-10.4951
で優勝	-10.4953
周年	-10.4953
かく	-10.4953
時計	-10.4954
世が	-10.4956
毎	-10.4956
人間の	-10.4957
焼き	-10.4959
キャンパス	-10.4961
ex	-10.4962
煙	-10.4965
の違い	-10.4965
セレ	-10.497
皆	-10.4973
支払	-10.4973
アウ	-10.4975
ドラフト	-10.4977
で放送された	-10.4978
上部	-10.4979
株式	-10.4983
気象	-10.4986
複合	-10.4989
マラ	-10.499
ものがある	-10.4991
過程	-10.4991
上がり	-10.4997
ニュ	-10.4998
いわ	-10.4998
おう	-10.5
銀河	-10.5003
登場し	-10.5005
電鉄	-10.5005
250	-10.5007
直後に	-10.5008
別名	-10.501
No	-10.5012
違う	-10.5012
収入	-10.5012
づけ	-10.5013
下で	-10.5013
コミュニティ	-10.5016
袋	-10.5016
言及	-10.5017
南北	-10.5018
を開始	-10.502
ti	-10.5022
相撲	-10.5026
駆動	-10.5026
フィンランド	-10.5027
震	-10.5027
塾	-10.5028
を担当した	-10.5028
▁日本では	-10.503
いだ	-10.503
徳川	-10.503
年目	-10.5031
ラグビー	-10.5031
)9	-10.5032
無い	-10.5033
平日	-10.5036
ぜ	-10.5041
マルチ	-10.5046
相談	-10.5046
▁小	-10.5047
県の	-10.5053
咲	-10.5056
総督	-10.5058
攻略	-10.5061
整理	-10.5063
▁1997	-10.5066
嶋	-10.5069
寧	-10.5071
求	-10.5074
下に	-10.5076
ハム	-10.5078
緊急	-10.5079
放送時間	-10.5079
されるようになった	-10.5079
猛	-10.508
の位置	-10.508
加えて	-10.5085
▁沿革	-10.5086
印象	-10.5088
LI	-10.5093
軍を	-10.5094
プロイセン	-10.5101
逃れ	-10.5103
紋	-10.5104
ローズ	-10.5105
キャン	-10.5108
の中には	-10.5112
競争	-10.5115
MP	-10.5117
詳細	-10.5119
坊	-10.5122
拒否	-10.5124
インチ	-10.5124
損	-10.5126
べく	-10.5127
事実上	-10.5127
ソル	-10.5129
山城	-10.513
柏	-10.5131
例外	-10.5132
にいた	-10.5134
%	-10.5134
晩年	-10.5134
に基づき	-10.5135
なかったため	-10.5137
鷹	-10.5138
の放送	-10.5138
短編	-10.5138
拳	-10.5139
ところが	-10.5139
ワーク	-10.5139
入力	-10.514
MC	-10.5141
を重ね	-10.5142
撤去	-10.5143
ボード	-10.5144
1918	-10.5145
▁特徴	-10.5145
決め	-10.5145
ゾン	-10.5146
一軍	-10.515
ドール	-10.515
ッカ	-10.5151
自殺	-10.5151
証拠	-10.5157
続編	-10.5157
。2017	-10.5157
このように	-10.5157
北西	-10.5157
SU	-10.5159
ゴルフ	-10.516
ラウンド	-10.516
西日本	-10.5161
分解	-10.5162
詞	-10.5163
1925	-10.5165
-10	-10.5168
上下	-10.5169
基本的に	-10.5171
の対象	-10.5173
一連の	-10.5176
収集	-10.5177
フライ	-10.5181
替	-10.5185
働き	-10.5185
保持	-10.5186
年代から	-10.5187
立候補	-10.519
フロント	-10.5192
を感じ	-10.5194
創業	-10.5194
到達	-10.5194
したがって	-10.5195
昔	-10.5196
NO	-10.5199
司教	-10.52
らしい	-10.5201
タス	-10.5202
防御	-10.5206
▁新	-10.5207
このうち	-10.5209
女王	-10.5211
▁12	-10.5213
選挙区	-10.5215
日付	-10.5216
ユース	-10.5217
一体	-10.5217
菊	-10.5218
ロイド	-10.5219
附属	-10.5221
ヒュー	-10.5222
竣工	-10.5227
の一覧	-10.5233
一定の	-10.5234
司会	-10.5234
炭	-10.5238
支部	-10.5238
車の	-10.524
溝	-10.5242
脱退	-10.5243
司令部	-10.5252
施	-10.5253
解消	-10.5255
任命	-10.5255
警備	-10.526
あらゆる	-10.5263
それらの	-10.5264
art	-10.5265
ヨン	-10.5266
授与	-10.5269
携帯電話	-10.527
公式戦	-10.5271
大会で	-10.5271
干	-10.5271
賞を受賞した	-10.5274
時代から	-10.5276
優れた	-10.5276
の方が	-10.5277
敗退	-10.5283
年後の	-10.5283
すぎ	-10.5284
を挙げた	-10.5285
歴史的	-10.5285
貨	-10.5286
一帯	-10.5289
▁The	-10.5292
差別	-10.5292
3000	-10.5293
ウイルス	-10.5298
知られる	-10.5299
資産	-10.5299
特性	-10.5301
歳以上	-10.5302
ホン	-10.5305
社員	-10.5306
独立した	-10.5307
上げる	-10.5308
座席	-10.5308
西武	-10.5312
リウム	-10.5316
簡	-10.5316
熟	-10.532
長野	-10.5322
広い	-10.5323
死刑	-10.5323
わか	-10.5324
道具	-10.5325
メガ	-10.5325
事例	-10.5326
主導	-10.5326
福島県	-10.5326
驚	-10.5328
と考え	-10.5329
現れる	-10.5332
監視	-10.5335
チャールズ	-10.5335
時代には	-10.5336
軍隊	-10.5338
端末	-10.5342
1923	-10.5345
事が	-10.5348
に参加し	-10.5348
ジェームズ	-10.535
フランク	-10.5353
経路	-10.5353
阪	-10.5356
らと	-10.5357
が大きく	-10.5357
この時期	-10.536
譜	-10.5362
▁to	-10.5364
宮城県	-10.5364
今後	-10.5366
誰	-10.5374
CH	-10.5374
毎日	-10.5379
選抜	-10.538
は日本	-10.5382
モア	-10.5384
ッグ	-10.5387
実装	-10.5389
学術	-10.5389
を率いて	-10.5389
ッパー	-10.539
以前に	-10.539
を迎え	-10.5392
まった	-10.5398
一定	-10.5399
甲板	-10.5401
ないこと	-10.5402
SD	-10.5404
コレクション	-10.5404
となったが	-10.5406
軍に	-10.5407
IA	-10.5408
応用	-10.5408
ハッ	-10.5408
使う	-10.5411
起きた	-10.5412
らせ	-10.5412
広がり	-10.5413
を見て	-10.5413
するよう	-10.5413
CS	-10.5414
ity	-10.5419
▁1996	-10.5422
しさ	-10.5425
要因	-10.5428
KA	-10.5429
謎	-10.543
扱われ	-10.5433
必要がある	-10.5433
セミ	-10.5436
掛	-10.544
朝の	-10.5441
天文	-10.5442
自民党	-10.5444
を起こし	-10.5444
くる	-10.5445
往復	-10.5447
てん	-10.5448
の死	-10.5448
熊	-10.5449
魏	-10.5455
地形	-10.5457
の父	-10.5463
懐	-10.5463
見解	-10.5464
に属し	-10.5465
ができる	-10.5466
ゴールド	-10.5466
ることになった	-10.5467
発電所	-10.5467
体育	-10.5469
回目の	-10.5469
締結	-10.5472
語で	-10.5475
在学中	-10.5476
可能である	-10.5479
1919	-10.5479
を変え	-10.5479
内容は	-10.5483
を代表する	-10.5484
らなかった	-10.5485
を利用して	-10.5485
用いられた	-10.5486
歳の	-10.5486
近隣	-10.5487
繰り	-10.5489
ヴィル	-10.5491
修理	-10.5494
可能性がある	-10.5494
本体	-10.5496
圧力	-10.5496
丈	-10.5497
在住	-10.5497
に貢献した	-10.5498
弓	-10.5499
イズ	-10.55
ことができ	-10.5501
大将	-10.5501
ヘイ	-10.5503
金沢	-10.5504
スティー	-10.5505
子ども	-10.5505
私立	-10.5507
ではなかった	-10.5509
に分類される	-10.5515
かどうか	-10.5517
征	-10.5517
リティ	-10.5521
中将	-10.5522
氏は	-10.5523
作品は	-10.5529
解析	-10.5531
スー	-10.5532
防御率	-10.5532
卿	-10.5533
パートナー	-10.5535
連れ	-10.5537
ウォ	-10.5538
ゼロ	-10.5544
枚目	-10.5544
北東	-10.5545
発音	-10.5546
リップ	-10.5547
自動車道	-10.5547
見る	-10.5548
蒲	-10.5551
ブーム	-10.5552
感染	-10.5552
ものもある	-10.5552
西洋	-10.5552
どの	-10.5553
黄色	-10.5553
明らか	-10.5555
享年	-10.556
始まる	-10.5561
為に	-10.5562
駆	-10.5563
84	-10.5565
終わる	-10.5565
退職	-10.5568
消滅	-10.5568
発明	-10.5569
根拠	-10.557
に分かれ	-10.557
辰	-10.5572
るように	-10.5574
平野	-10.5579
右衛門	-10.558
前期	-10.5582
83	-10.5582
椎	-10.5582
公式サイト	-10.5583
観察	-10.5585
AD	-10.5585
動力	-10.5586
リーグの	-10.5589
備え	-10.559
間で	-10.5591
フォル	-10.5592
粒子	-10.5593
主題歌	-10.5593
に成功	-10.5593
リーグ戦	-10.5596
トーナメント	-10.5597
を迎えた	-10.5598
住居	-10.5598
紛争	-10.5601
舟	-10.5601
森林	-10.5604
一家	-10.5605
拠	-10.5605
抜き	-10.5605
宣伝	-10.5606
選手として	-10.5607
セルビア	-10.5613
瑞	-10.5614
さない	-10.5617
タンク	-10.5619
コメディ	-10.562
特許	-10.5621
ナンバー	-10.5623
地方の	-10.5624
やす	-10.5624
察	-10.5626
書記	-10.5627
まつ	-10.5627
ass	-10.5628
共有	-10.5629
射撃	-10.5629
雇用	-10.5632
パソコン	-10.5634
取った	-10.5636
委託	-10.5636
すら	-10.5637
▁解説	-10.5639
、1999	-10.5639
社名	-10.564
代替	-10.564
スカイ	-10.5641
終わり	-10.5642
▁In	-10.5645
区の	-10.5647
士官	-10.5647
複	-10.5647
ひとつ	-10.5653
時代は	-10.5653
族の	-10.5655
司馬	-10.5657
を持っていた	-10.5661
決勝で	-10.5662
中華人民共和国	-10.5662
ou	-10.5663
爆弾	-10.5664
年の第	-10.5665
日常	-10.5665
飾	-10.5665
出来事	-10.5665
この地	-10.5666
ハート	-10.5666
であっても	-10.5668
の音楽	-10.5669
が中心	-10.5672
ディス	-10.5672
競	-10.5672
文明	-10.5675
ほとんどの	-10.5677
によっては	-10.5679
出して	-10.5679
京都府	-10.5679
を除き	-10.568
大佐	-10.5681
EX	-10.5682
時から	-10.5683
かない	-10.5691
として活躍	-10.5692
に変更された	-10.5697
コート	-10.5698
の死後	-10.5698
本来	-10.5698
壇	-10.5701
後者	-10.5702
迷	-10.5703
唯一	-10.5704
異常	-10.5704
改め	-10.5705
標	-10.5706
。2000	-10.5708
離婚	-10.5709
建設された	-10.5709
上記	-10.571
最後に	-10.571
da	-10.5713
るという	-10.5713
拓	-10.5714
鎌倉	-10.5715
年シーズン	-10.5718
em	-10.5721
麦	-10.5723
五郎	-10.5727
Co	-10.5727
1926	-10.573
捕虜	-10.573
武田	-10.5733
出馬	-10.5735
全域	-10.5735
概	-10.5737
浴	-10.5739
に選出された	-10.574
えて	-10.5742
が開始された	-10.5743
家に	-10.5743
ED	-10.5745
運航	-10.5745
機関車	-10.5746
三重県	-10.5747
成果	-10.5749
と改称	-10.5749
いつ	-10.575
ud	-10.5751
イラク	-10.5752
福祉	-10.5752
盾	-10.5754
1922	-10.5755
アブ	-10.5756
に加入	-10.5756
そのうち	-10.5757
▁1995	-10.5758
▁a	-10.5762
鼻	-10.5762
▁b	-10.5762
に次ぐ	-10.5763
フレーム	-10.5764
日に行われた	-10.5765
線と	-10.5765
祭り	-10.5765
を打ち	-10.5768
タール	-10.5769
を持って	-10.577
パターン	-10.5773
に合わせて	-10.5776
規	-10.5776
東映	-10.5778
ライダー	-10.5779
死亡した	-10.578
会社の	-10.5783
食べ	-10.5784
国際空港	-10.5785
ゴールデン	-10.5789
武蔵	-10.5789
試合で	-10.5791
ore	-10.5797
剛	-10.58
ver	-10.5803
騎	-10.5805
火山	-10.5806
が始まった	-10.5806
見た	-10.5808
に乗り	-10.5808
ブラウン	-10.5811
情報を	-10.5812
火災	-10.5813
応援	-10.5816
最新	-10.5818
跡地	-10.5819
アルゼンチン	-10.582
メッセージ	-10.5823
尻	-10.5826
周囲	-10.5827
進んだ	-10.5827
回衆議院議員総選挙	-10.5829
の上に	-10.5832
再現	-10.5834
戦う	-10.5835
泊	-10.5837
に大きな	-10.5838
上流	-10.5838
LO	-10.5838
ff	-10.5838
伝え	-10.5842
イタリアの	-10.5843
八幡	-10.585
陸上競技	-10.5854
ならない	-10.5857
譲渡	-10.5859
キャンプ	-10.5862
直後	-10.5863
を示した	-10.5866
市町村	-10.5867
▁Ch	-10.587
ジャケット	-10.5871
少なく	-10.5871
を集め	-10.5874
騎手	-10.5878
盛り	-10.5878
打ち上げ	-10.5878
権限	-10.5879
レーション	-10.5879
月現在	-10.5882
送信	-10.5884
天然	-10.5884
奪	-10.5888
世界の	-10.589
号機	-10.5891
昼	-10.5893
うる	-10.5894
安打	-10.5894
に加えて	-10.5895
っと	-10.5897
〜』	-10.5898
の姿	-10.5899
の長男	-10.5899
無かった	-10.59
北米	-10.5901
)6	-10.5902
約束	-10.5902
募集	-10.5905
求められ	-10.5906
始	-10.5906
ずに	-10.5909
れている	-10.5911
)、『	-10.5913
こうして	-10.5913
腰	-10.5914
の中では	-10.5914
カレッジ	-10.5914
初回	-10.5915
離れ	-10.5918
トラン	-10.592
家は	-10.5923
ふく	-10.5927
に移転	-10.5928
されず	-10.5928
ユニ	-10.5935
答え	-10.5938
顕	-10.5939
出来る	-10.594
放射	-10.5941
グランド	-10.5944
170	-10.5946
)5	-10.5947
ボックス	-10.5948
範	-10.5951
ターミナル	-10.5953
陸上	-10.5956
しゅう	-10.5957
を図る	-10.596
代理	-10.5962
抗議	-10.5962
要塞	-10.5964
ノルウェー	-10.5965
高速道路	-10.5965
記述する	-10.5966
開拓	-10.5967
に向かう	-10.5968
基盤	-10.597
ボタン	-10.5974
バリ	-10.5975
海峡	-10.5975
授業	-10.5977
ていて	-10.5978
向けに	-10.5979
を形成し	-10.598
、2018	-10.5981
ニャ	-10.5987
必ず	-10.5987
禅	-10.5989
えん	-10.5989
ビス	-10.5991
リチャード	-10.5991
せた	-10.5995
代表的な	-10.5996
銭	-10.5997
名義	-10.6
海洋	-10.6001
という言葉	-10.6001
高級	-10.6006
磨	-10.6007
磁	-10.6008
吾	-10.6008
とおり	-10.6008
当初の	-10.6009
に向かって	-10.6009
研	-10.601
シップ	-10.6011
our	-10.6011
を使用した	-10.6011
モンスター	-10.6012
象徴	-10.6013
ロマン	-10.6014
""(	-10.6014
クイズ	-10.6014
沖縄県	-10.6015
全面	-10.6015
促進	-10.6015
放映	-10.6016
中央部	-10.6019
銘	-10.6022
大使	-10.6029
ベラ	-10.6034
下部	-10.6039
同社の	-10.6043
ノース	-10.6047
が高く	-10.6048
ラリー	-10.6051
が存在し	-10.6053
に入ると	-10.6053
公国	-10.6054
突然	-10.6054
静岡	-10.6058
チェン	-10.6058
砦	-10.6058
UEFA	-10.6059
すこと	-10.6061
屈	-10.6064
メス	-10.6069
を認め	-10.607
まん	-10.6074
れない	-10.6076
ian	-10.6077
鋭	-10.6078
婦	-10.6078
誕生した	-10.6079
訓	-10.608
ファミリー	-10.608
ものだった	-10.608
大隊	-10.6081
移住	-10.6082
木村	-10.6083
高松	-10.6083
ist	-10.6084
とり	-10.6085
に入社	-10.6086
一本	-10.6086
SO	-10.6089
反発	-10.6091
と呼ばれている	-10.6091
必要な	-10.6095
内には	-10.6095
じゅう	-10.6101
あら	-10.6101
を含め	-10.6101
生態	-10.6101
の記録	-10.6102
期に	-10.6104
難しい	-10.6107
じん	-10.6108
大名	-10.611
フィリップ	-10.6111
に選ばれた	-10.6111
を立て	-10.6112
bo	-10.6113
都道府県	-10.6113
プス	-10.6114
ではあるが	-10.6115
いで	-10.6115
まい	-10.6118
94	-10.6118
付ける	-10.6119
旅団	-10.612
革	-10.612
ついに	-10.612
回戦	-10.6122
る事	-10.6124
かれる	-10.6125
コム	-10.6125
ろうと	-10.6128
中心部	-10.6128
と語っている	-10.6129
をはじめとする	-10.613
ノス	-10.6134
早稲田大学	-10.6134
こととなった	-10.6136
大橋	-10.6136
少なくとも	-10.6137
訴	-10.6139
郵便	-10.614
亭	-10.6141
受信	-10.6141
吸収	-10.6144
詩人	-10.6146
二つの	-10.6146
出た	-10.6147
ていなかった	-10.6148
局長	-10.6148
から発売された	-10.6153
相手に	-10.6154
業績	-10.6154
92	-10.6155
多摩	-10.6157
斬	-10.6159
日本テレビ	-10.6159
hi	-10.616
打点	-10.6161
ヤング	-10.6161
パッケージ	-10.6162
罰	-10.6163
伏	-10.6164
菜	-10.6164
回路	-10.6165
フロ	-10.6165
演技	-10.6165
人形	-10.6165
課題	-10.6166
塗装	-10.6168
岡山県	-10.6174
シナリオ	-10.6176
藩の	-10.6178
託	-10.6179
ウイ	-10.6182
見られる	-10.6182
が発生し	-10.6183
河内	-10.6184
神宮	-10.6185
回数	-10.619
航路	-10.6191
水道	-10.6191
賞受賞	-10.6191
選定	-10.6192
頂	-10.6194
以外	-10.6194
アレ	-10.6195
が設置されている	-10.6197
用いられている	-10.62
1917	-10.62
催	-10.62
正式	-10.6201
本編	-10.6205
群馬県	-10.621
描	-10.621
の意	-10.6212
ポップ	-10.6213
-9	-10.6214
威	-10.6214
La	-10.6215
カッ	-10.6216
空襲	-10.6216
船団	-10.6216
GI	-10.6218
存続	-10.6221
レール	-10.6221
ヴェー	-10.6223
勘	-10.6223
篇	-10.6223
ツール	-10.6224
の仕事	-10.6224
けた	-10.6225
機動	-10.6226
飼育	-10.6232
読者	-10.6235
ことはなかった	-10.624
地区の	-10.624
ナム	-10.624
亡命	-10.6241
かに	-10.6243
錦	-10.6244
エフ	-10.6244
嵐	-10.6249
スミス	-10.6249
コマ	-10.625
ウェー	-10.625
81	-10.6252
一丁目	-10.6252
場で	-10.6253
シオ	-10.6254
始める	-10.6254
年以上	-10.6255
終結	-10.6256
くなる	-10.6262
鉱山	-10.6262
啓	-10.6265
1914	-10.6266
降り	-10.627
排	-10.6273
方が	-10.6274
アプリケーション	-10.6276
したことで	-10.6278
巨大な	-10.628
原題	-10.6281
解除	-10.6283
sh	-10.6283
徹	-10.6283
マガジン	-10.6286
ているが	-10.6287
打者	-10.6288
時間帯	-10.6288
訪問	-10.6292
は全	-10.6293
ペア	-10.6293
冒険	-10.6298
かける	-10.63
原理	-10.63
いろ	-10.6303
哲	-10.6303
を進め	-10.6303
見られ	-10.6305
経歴	-10.6305
He	-10.6306
one	-10.631
ボーカル	-10.6313
意思	-10.6313
スリー	-10.6315
勃発	-10.6316
語り	-10.6318
リャ	-10.632
he	-10.6322
AI	-10.6323
戦前	-10.6324
ベリー	-10.6329
市に	-10.6332
主題	-10.6332
。2003	-10.6335
の内容	-10.6335
ナス	-10.6335
荷	-10.6336
テレビ番組	-10.6338
巡洋艦	-10.6339
ak	-10.634
それでも	-10.6342
僕	-10.6346
湿	-10.6346
行事	-10.6349
ci	-10.6353
証言	-10.6356
周波数	-10.6357
乃	-10.6358
乗り入れ	-10.6359
本土	-10.6359
連勝	-10.6359
、1998	-10.636
葛	-10.636
のみが	-10.636
に所属していた	-10.6364
落語	-10.6364
近鉄	-10.6368
プール	-10.6369
を達成	-10.6374
商人	-10.6376
到着	-10.6377
遣	-10.6377
の大半	-10.638
発生した	-10.6381
太田	-10.6382
を占め	-10.6382
を描く	-10.6383
があったが	-10.6384
してしまった	-10.6385
呂	-10.6388
見え	-10.6391
参加した	-10.6391
乾	-10.6392
▁1970	-10.6393
機が	-10.6394
ピーター	-10.6395
ハワイ	-10.6397
北方	-10.6398
に所属する	-10.6399
みな	-10.6399
斗	-10.6401
町にある	-10.6402
なので	-10.6402
アニ	-10.6402
と考えられ	-10.6403
山地	-10.6404
に帰	-10.6404
寮	-10.6407
ヴォル	-10.641
初出場	-10.641
若干	-10.6411
おく	-10.6411
THE	-10.6411
カナ	-10.6412
非難	-10.6414
空母	-10.6415
校舎	-10.6416
ボーイ	-10.6421
溶	-10.6423
設	-10.6425
ることで	-10.6425
しりつ	-10.6427
を離れ	-10.6427
損傷	-10.6429
奉行	-10.643
招	-10.6435
古くから	-10.6438
南東	-10.6439
リニューアル	-10.6439
ディズニー	-10.6439
数多く	-10.644
OP	-10.6444
用意	-10.6444
航海	-10.6445
ブログ	-10.6445
併	-10.6447
明け	-10.6448
1921	-10.6448
夏の	-10.6448
腸	-10.6449
は第	-10.6452
されてきた	-10.6453
ack	-10.6453
君主	-10.6453
ポンド	-10.6454
積み	-10.6455
えない	-10.6455
投稿	-10.6459
ファイナル	-10.6461
辛	-10.6462
増え	-10.6463
ID	-10.6463
レンズ	-10.6465
いくつか	-10.6466
po	-10.6467
秦	-10.6468
TS	-10.647
建立	-10.6471
聞き	-10.6473
崇	-10.6476
叙	-10.6477
マグ	-10.6478
正規	-10.648
故郷	-10.6483
受験	-10.6483
に比べて	-10.6488
ドライブ	-10.6489
向かい	-10.6489
▁&	-10.6489
出来	-10.6492
に入団	-10.6492
わる	-10.6492
ライバル	-10.6495
同士	-10.6497
に復帰	-10.65
請求	-10.6501
を構成する	-10.6501
教員	-10.6502
者たち	-10.6502
をつけ	-10.6504
出演者	-10.6506
キア	-10.6506
はなかった	-10.651
ディン	-10.6518
なくなり	-10.6518
還	-10.6522
かね	-10.6523
を出した	-10.6523
▁明治	-10.6529
01	-10.653
パフォーマンス	-10.6532
レーダー	-10.6532
を探	-10.6534
松山	-10.6536
人口は	-10.6538
フェリー	-10.6543
ッティ	-10.6544
不満	-10.6546
が多かった	-10.6549
なかったが	-10.6552
糖	-10.6553
スペ	-10.6553
に師事	-10.6555
聖書	-10.6557
シナ	-10.6557
ようになっている	-10.6557
人たち	-10.6558
位置づけ	-10.6558
ロフ	-10.6564
粘	-10.6564
リク	-10.6565
▁d	-10.6566
が多数	-10.6569
召	-10.6569
先頭	-10.657
一旦	-10.657
であることを	-10.6572
会館	-10.6573
大学教授	-10.6574
団地	-10.6574
あき	-10.6575
ここでは	-10.6578
のアルバム	-10.6583
イト	-10.6585
ニョ	-10.6587
登山	-10.6588
不動産	-10.659
悲	-10.659
うた	-10.659
ドラゴン	-10.6591
警察署	-10.6591
もあって	-10.6592
ミリ	-10.6593
を元に	-10.6594
際には	-10.6596
実施された	-10.6597
上り	-10.6597
田村	-10.6599
ウー	-10.66
93	-10.6602
埋め	-10.6603
地位	-10.6605
若手	-10.6606
ティア	-10.6606
出走	-10.6608
ーヌ	-10.661
ip	-10.661
接近	-10.6613
▁1994	-10.6614
を決めた	-10.6615
は不明	-10.6617
KI	-10.6617
、1997	-10.6618
を失った	-10.6625
の妻	-10.6626
疾患	-10.6628
作品である	-10.663
も可能	-10.6632
幻	-10.6632
一つの	-10.6636
旋	-10.6637
同日	-10.664
年ぶりに	-10.664
を抱え	-10.6642
前身	-10.6642
の前に	-10.6643
並ぶ	-10.6645
太平洋戦争	-10.6645
補給	-10.6649
蓋	-10.6649
1912	-10.665
魚雷	-10.665
収録されている	-10.6651
とは異なり	-10.6652
ロシアの	-10.6653
土曜	-10.6659
ミッション	-10.666
達成	-10.6661
が特徴	-10.6665
数多くの	-10.6666
グループの	-10.6667
オンライン	-10.6667
この作品	-10.6668
普	-10.667
ルイス	-10.6671
指揮官	-10.6674
_1	-10.6674
テープ	-10.6674
当局	-10.6675
1900	-10.6676
の中から	-10.6677
ギル	-10.6678
収録された	-10.6679
忍	-10.668
初演	-10.6681
ボウ	-10.6685
ec	-10.6686
した際に	-10.6687
点で	-10.6689
弟の	-10.669
バッ	-10.6691
さま	-10.6691
のお	-10.6697
することとなった	-10.6699
艦長	-10.67
ソビエト連邦	-10.6701
握	-10.6701
に移行	-10.6701
借	-10.6702
借り	-10.6703
バレーボール	-10.6704
数え	-10.6708
コロンビア	-10.6712
渋谷	-10.6714
史料	-10.6719
相続	-10.6721
繁	-10.6721
アント	-10.6721
養成	-10.6724
係	-10.6726
かれた	-10.6726
まさ	-10.6728
に進学	-10.6728
躍	-10.673
ロッ	-10.673
の間の	-10.6731
遺産	-10.6731
を用い	-10.6732
保有	-10.6733
制覇	-10.6733
▁株式会社	-10.6734
中野	-10.6737
厳しい	-10.6737
を行うこと	-10.6739
卓	-10.6743
満州	-10.6748
輔	-10.6748
発電	-10.6749
の設計	-10.6751
レストラン	-10.6752
素材	-10.6753
ことになり	-10.6757
▁東京	-10.6761
この地域	-10.6762
調べ	-10.6762
ang	-10.6764
ティック	-10.6764
部分は	-10.6765
ウィル	-10.6765
フリードリヒ	-10.6766
ルン	-10.677
反映	-10.6773
自主	-10.6774
申し	-10.6774
教皇	-10.6778
拝	-10.6779
鍵	-10.6779
が決定	-10.678
ca	-10.6782
ダブル	-10.6785
GT	-10.6785
合流	-10.6788
を除いて	-10.6789
徒	-10.6791
ちゃ	-10.6791
部族	-10.6794
ビール	-10.6794
いけ	-10.6799
開業した	-10.68
ナチス	-10.68
ここに	-10.6802
方向に	-10.6802
地域で	-10.6804
依	-10.6804
似ている	-10.6806
mi	-10.6807
ヒトラー	-10.6808
エンド	-10.6811
タイヤ	-10.6811
電波	-10.6812
ッジ	-10.6814
王位	-10.6815
ーニ	-10.682
ようと	-10.6821
小さく	-10.6826
上杉	-10.6826
の攻撃	-10.6826
ペット	-10.6829
になっており	-10.6831
オープニング	-10.6831
支店	-10.6842
バイエルン	-10.6845
等で	-10.6845
モチーフ	-10.6847
エド	-10.6848
を実現	-10.6851
の前身	-10.6853
出資	-10.6853
▁ゲーム	-10.6857
Ca	-10.6859
夜間	-10.6859
に至った	-10.6859
ラスト	-10.686
に対しては	-10.6861
茎	-10.6864
あなた	-10.6865
旭	-10.6868
を務めていた	-10.687
と結婚	-10.6872
脈	-10.6872
船舶	-10.6873
討ち	-10.6873
、1960	-10.6874
ボストン	-10.6878
を取る	-10.688
の再	-10.688
理事長	-10.688
オーディション	-10.6881
けんどう	-10.6884
ファースト	-10.6884
関与	-10.6885
チル	-10.689
はすべて	-10.6893
リスク	-10.6894
、1996	-10.6895
地図	-10.6897
欧米	-10.6899
化され	-10.69
創作	-10.6901
鹿児島県	-10.6901
▁駅構造	-10.6903
に改称	-10.6904
られない	-10.6904
が登場する	-10.6906
英雄	-10.6906
室内	-10.6906
力が	-10.6906
農民	-10.6907
ドイツ軍	-10.6907
降格	-10.6909
佳	-10.691
目的で	-10.6911
DI	-10.6912
伯爵	-10.6913
移植	-10.6913
起点	-10.6914
RC	-10.6918
残った	-10.6919
泥	-10.692
ING	-10.6923
LD	-10.6925
論理	-10.6929
もり	-10.6932
の調査	-10.6933
fe	-10.6933
怪我	-10.6934
に含まれる	-10.6934
そこから	-10.6944
キシ	-10.695
がん	-10.6952
代藩主	-10.6954
とある	-10.6956
桐	-10.6957
自分が	-10.6958
陥落	-10.6958
配備	-10.6959
やすく	-10.6963
ブス	-10.6963
の指導	-10.6965
▁for	-10.6966
確率	-10.6968
SH	-10.6969
だという	-10.6972
脂	-10.6972
オフィス	-10.6972
賞金	-10.6978
気筒	-10.6982
するか	-10.6982
気温	-10.6985
の生産	-10.6988
サス	-10.6991
質量	-10.6991
フォーク	-10.6993
抱	-10.7001
グラム	-10.7001
社が	-10.7001
▁同年	-10.7002
助教授	-10.7003
以下に	-10.7004
本来の	-10.7006
ネン	-10.7009
クタ	-10.701
ストーン	-10.701
國	-10.7011
既	-10.7011
姿を	-10.7013
シンガポール	-10.7014
霧	-10.7014
の製造	-10.7017
赤い	-10.7018
落とし	-10.7018
ヒーロー	-10.7019
マイクロ	-10.702
に戻り	-10.7021
に従って	-10.7023
官僚	-10.7026
ボート	-10.7026
ローン	-10.7027
ーゼ	-10.7028
1910	-10.7029
SI	-10.7034
ちゅう	-10.7036
日記	-10.7037
割合	-10.7038
グラフィック	-10.7039
82	-10.7039
平安時代	-10.7039
、1995	-10.704
Ch	-10.7042
ノール	-10.7042
に従事	-10.7042
年代には	-10.7042
大西洋	-10.7044
伝統的な	-10.7046
トロン	-10.7047
ロケ	-10.7049
の神	-10.7049
認められ	-10.7051
ネオ	-10.7052
局の	-10.7052
宇都宮	-10.7052
疑問	-10.7055
んじ	-10.7057
にわたり	-10.7057
SM	-10.7057
削減	-10.7059
まって	-10.706
縮小	-10.7061
ヒー	-10.7061
社会的	-10.7063
デザイナー	-10.7069
の高さ	-10.707
宮崎	-10.7072
欲	-10.7073
筑	-10.7075
入社	-10.7076
妃	-10.7077
を記録	-10.7077
朗	-10.7078
以外に	-10.7081
の影響で	-10.7081
優勝した	-10.7083
停留所	-10.7084
熊本県	-10.7084
快速	-10.7085
RS	-10.7085
象	-10.7085
動員	-10.7086
で知られる	-10.7086
を続け	-10.7087
ミュージカル	-10.7087
二重	-10.709
哨戒	-10.7092
意味で	-10.7094
、1994	-10.7094
財産	-10.7094
感情	-10.7095
孔	-10.7099
連合軍	-10.7099
に成功した	-10.7099
危	-10.71
それまでの	-10.7102
数々の	-10.7103
虚	-10.7106
左衛門	-10.7106
に生まれた	-10.7107
の声	-10.7109
カート	-10.7111
珠	-10.7113
ヴェン	-10.7117
900	-10.7122
の変化	-10.7122
ue	-10.7125
トス	-10.7126
殻	-10.7126
サウス	-10.7126
世に	-10.7129
を展開し	-10.713
した際	-10.7132
シュタイン	-10.7135
派生	-10.7136
CT	-10.7137
戦国時代	-10.7139
選挙で	-10.7139
を理由に	-10.7139
されているが	-10.7139
診断	-10.714
手を	-10.714
レンジャー	-10.7141
チェル	-10.7143
の発展	-10.7143
▁Me	-10.7143
大学大学院	-10.7146
。2002	-10.7146
修了	-10.7148
に戻る	-10.7153
移行	-10.7153
▁1992	-10.7154
量産	-10.7155
を受けている	-10.7156
最近	-10.7159
するように	-10.7159
記されている	-10.716
酷	-10.7163
乗車	-10.7164
鮮	-10.7167
プロモーション	-10.7167
あくまで	-10.7168
プレス	-10.7169
運賃	-10.717
邪	-10.7171
に戻った	-10.7173
強力な	-10.7175
払い	-10.7176
町名	-10.7177
に存在する	-10.7181
71	-10.7182
短縮	-10.7185
著名な	-10.7186
キック	-10.7186
られており	-10.7186
オリンピックの	-10.7187
ものとして	-10.719
腫	-10.719
癌	-10.7191
トレーニング	-10.7192
貝	-10.7192
筒	-10.7193
涼	-10.7194
専用の	-10.7194
換	-10.7195
金を	-10.7195
都市圏	-10.7199
エンディング	-10.72
立地	-10.72
ウェスト	-10.72
キロメートル	-10.7205
メダル	-10.7205
[	-10.7205
ツェ	-10.7206
新田	-10.7208
貢献	-10.7214
敗戦	-10.7214
プロセス	-10.7215
徳島	-10.7215
衰退	-10.7218
めて	-10.7219
未満	-10.7225
誓	-10.7225
タワー	-10.723
クライ	-10.7231
▁15	-10.7231
将棋	-10.7231
酵素	-10.7232
戦力	-10.7232
殺人	-10.7233
国内で	-10.7233
と述べた	-10.7233
滞在	-10.7233
廃車	-10.7236
芸人	-10.7236
蒸気	-10.7239
ディレクター	-10.7242
の大きさ	-10.7245
国勢調査	-10.7245
るもの	-10.7246
国籍	-10.7246
宮殿	-10.7249
を与えた	-10.7249
わけではない	-10.7251
IV	-10.7252
ゴル	-10.7254
挑	-10.7255
途中で	-10.7256
出版社	-10.7256
こちら	-10.7257
班	-10.7257
▁1993	-10.726
アカ	-10.726
控え	-10.7262
と契約	-10.7266
乗客	-10.7266
富山	-10.7266
JA	-10.7267
楊	-10.7267
告げ	-10.7271
署名	-10.7271
ガード	-10.7273
会計	-10.7273
通じ	-10.7275
売上	-10.728
惑	-10.7281
流れる	-10.7281
高原	-10.7283
ゲート	-10.7284
オーケストラ	-10.7285
選手権大会	-10.7286
ることとなった	-10.7288
に参戦	-10.7289
ナウ	-10.7291
pp	-10.7293
戦士	-10.7294
であるという	-10.7295
東京都出身	-10.7298
連覇	-10.7299
近畿	-10.7299
をかけ	-10.7302
ダイヤ	-10.7302
遺体	-10.7305
製造された	-10.7307
広域	-10.7307
認知	-10.7308
を繰り返し	-10.7309
教室	-10.7312
篠	-10.7312
OL	-10.7313
検出	-10.7314
岐阜	-10.7316
出土	-10.7317
ファル	-10.7318
ユーロ	-10.7319
ヤード	-10.7321
回避	-10.7322
di	-10.7322
釈	-10.7323
で行われる	-10.7324
循環	-10.7324
灰	-10.7327
ある日	-10.7328
発表した	-10.733
悪い	-10.7333
ギン	-10.7334
日に発売された	-10.7334
したい	-10.7338
貯	-10.7341
次に	-10.7343
の楽曲	-10.7345
暫定	-10.7347
を出す	-10.7348
描き	-10.7348
導入された	-10.7349
▁De	-10.7349
自体は	-10.7352
夷	-10.7353
容量	-10.7355
退任	-10.7355
逸	-10.7356
に沿って	-10.7361
探	-10.7362
継ぐ	-10.7364
ロイヤル	-10.7366
エク	-10.7368
来る	-10.7369
祀	-10.737
勧め	-10.7376
を挙げ	-10.7376
青森県	-10.7377
密度	-10.7386
線は	-10.7394
論争	-10.7397
は以下の	-10.7398
恋愛	-10.7399
の原因	-10.7403
の成績	-10.7403
決議	-10.7403
綿	-10.7404
数値	-10.7405
曲を	-10.7408
を機に	-10.7408
日本国内	-10.7412
堺	-10.7412
褐色	-10.7413
母は	-10.7413
キル	-10.7414
ock	-10.7415
放送されていた	-10.7418
、1992	-10.7419
、1993	-10.7421
化合物	-10.7421
この曲	-10.7423
目を	-10.7423
開館	-10.7426
日付で	-10.7428
売り上げ	-10.743
を求め	-10.7432
総裁	-10.7433
親王	-10.7433
鉱	-10.7435
コフ	-10.7435
年度の	-10.7437
自身も	-10.7438
自身は	-10.7439
回収	-10.7439
削	-10.7441
唱	-10.7443
NBA	-10.7449
絡	-10.7449
ドラム	-10.745
測	-10.745
にあたって	-10.7454
装飾	-10.7455
ポジション	-10.7456
▁1991	-10.7457
方の	-10.746
奏者	-10.7461
通貨	-10.7462
甲子園	-10.7463
トランス	-10.7465
ストロ	-10.7465
を利用する	-10.7466
埋葬	-10.7466
経済学	-10.7467
絞	-10.7467
続ける	-10.747
低く	-10.7475
内では	-10.7477
いなかった	-10.7483
独特の	-10.7486
完了	-10.7489
大規模	-10.7489
評論家	-10.749
美しい	-10.7495
指揮者	-10.7496
郡の	-10.7497
の他に	-10.7497
位で	-10.7497
夫婦	-10.7497
停車	-10.7498
運河	-10.75
もなく	-10.7501
出版された	-10.7501
の時代	-10.7502
潤	-10.7503
を利用した	-10.7505
DF	-10.7511
前田	-10.7512
チームが	-10.7519
踏	-10.752
終盤	-10.752
ワル	-10.752
みや	-10.7523
東方	-10.7523
急速に	-10.7526
ソース	-10.7526
ェ	-10.7526
ast	-10.7528
籠	-10.7529
ズは	-10.7532
天保	-10.7533
生まれた	-10.7533
フェア	-10.7533
正面	-10.7534
グラス	-10.7535
に本社を置く	-10.7535
対決	-10.7538
の一環として	-10.7539
ダービー	-10.754
菓子	-10.7545
ハウ	-10.7545
出現	-10.7545
の利用	-10.7546
カタ	-10.7554
構	-10.7554
ts	-10.7555
市内の	-10.7555
国連	-10.7555
謀	-10.7555
工作	-10.7559
トレード	-10.756
暴力	-10.7561
用いられ	-10.7561
にあたり	-10.7562
庁舎	-10.7563
所属の	-10.7563
賜	-10.7563
ナポレオン	-10.7565
以外にも	-10.7566
プー	-10.7566
ラジオ番組	-10.7567
ひと	-10.7568
ty	-10.757
甲斐	-10.757
バード	-10.757
、1989	-10.7571
ペー	-10.7573
といえる	-10.7575
DC	-10.7575
CI	-10.7578
に選ばれ	-10.7578
は当初	-10.7579
ステップ	-10.7581
競走馬	-10.7584
人数	-10.7585
HA	-10.7586
▁w	-10.7586
違反	-10.7587
がそれぞれ	-10.7587
アラブ	-10.7587
▁=	-10.7588
沿い	-10.7592
作中	-10.7592
面積は	-10.7595
にとっては	-10.7597
に到着	-10.7597
ませ	-10.76
ライター	-10.76
与えられた	-10.7604
場合に	-10.7606
運輸	-10.7607
▁20	-10.7608
抑え	-10.7609
後ろ	-10.7612
に昇進	-10.7612
民国	-10.7614
行列	-10.7614
長年	-10.7617
1913	-10.7617
sa	-10.7617
Tr	-10.7619
混合	-10.7619
ようやく	-10.7623
尺	-10.7628
完全な	-10.7629
RPG	-10.7631
ies	-10.7631
戒	-10.7634
出会い	-10.7635
91	-10.7636
勝利した	-10.7638
サンタ	-10.7638
インドネシア	-10.7638
1,000	-10.764
兆	-10.764
テレビ朝日	-10.7644
ガラ	-10.7644
で活躍	-10.7644
以外は	-10.7645
得意	-10.7649
タイプの	-10.7649
ide	-10.765
戦場	-10.7651
死者	-10.7652
信頼	-10.7653
を付け	-10.7654
療法	-10.7655
▁1989	-10.7657
事項	-10.7658
コミュニケーション	-10.7661
琴	-10.7665
最終的には	-10.7665
タンパク質	-10.7666
が追加され	-10.7668
レート	-10.7669
管区	-10.7669
さき	-10.7669
慈	-10.767
垂	-10.7671
に対応する	-10.7675
学問	-10.7678
準優勝	-10.7679
逆転	-10.7679
トラブル	-10.7679
リル	-10.7681
テーション	-10.7684
音源	-10.7685
レーン	-10.7686
水戸	-10.7687
着陸	-10.7687
、1991	-10.7689
享	-10.769
=""2""|-||	-10.7692
ときは	-10.7694
Web	-10.7695
書店	-10.7695
グレイ	-10.7695
"",	-10.7696
ひとり	-10.7696
リカ	-10.7701
ルズ	-10.7702
sp	-10.7704
以	-10.7706
衝撃	-10.7711
▁Y	-10.7711
羊	-10.7712
傾	-10.7712
比例	-10.7714
ったり	-10.7716
車線	-10.7717
バンク	-10.7718
gr	-10.7718
ことが出来る	-10.7721
げん	-10.7722
を占める	-10.7722
証券	-10.7726
文化財	-10.7728
種目	-10.7729
歳の時に	-10.7729
としていた	-10.773
のみである	-10.773
の販売	-10.7733
ru	-10.7733
東宝	-10.7734
協議会	-10.7734
えい	-10.7735
排除	-10.7735
ove	-10.7736
挿入	-10.7736
に指定されている	-10.7737
以下のような	-10.7738
併設	-10.7741
かる	-10.7741
活躍した	-10.7743
プレート	-10.7745
武士	-10.7747
PR	-10.7747
と表記	-10.7747
も同様	-10.7747
先の	-10.7747
扇	-10.7747
と言って	-10.775
蘇	-10.775
回戦で	-10.7751
若者	-10.7753
を兼ね	-10.7754
いき	-10.7755
きん	-10.7761
を知る	-10.7761
立った	-10.7763
戦術	-10.7763
ディオ	-10.7765
サイクル	-10.7765
ga	-10.7767
ズム	-10.7767
放送されている	-10.7767
インターナショナル	-10.7768
の都市	-10.7768
山梨県	-10.7769
EL	-10.7774
やはり	-10.7774
場所に	-10.7776
の下に	-10.7777
名の由来	-10.7781
流域	-10.7781
量は	-10.7782
スパ	-10.7783
合戦	-10.7785
ラジ	-10.7786
国防	-10.7786
取る	-10.7787
をとる	-10.7789
定め	-10.7792
有機	-10.7792
のことを	-10.7793
その後の	-10.7797
勤め	-10.7797
現存	-10.7797
大衆	-10.7798
がその	-10.7798
車種	-10.7799
中島	-10.7802
ord	-10.7802
ガール	-10.7803
磯	-10.7804
順に	-10.7804
耕	-10.7804
大分	-10.7808
響	-10.7808
議会議員	-10.7811
終点	-10.7812
開き	-10.7812
α	-10.7813
IG	-10.7814
横須賀	-10.7814
が発表された	-10.7815
答	-10.7817
十二	-10.782
金メダル	-10.7821
ょ	-10.7822
の支配	-10.7823
獄	-10.7824
りょう	-10.7825
黒人	-10.7825
稀	-10.7827
風の	-10.783
?」	-10.7833
変わり	-10.7834
ガイド	-10.7834
合わせた	-10.7835
巨大	-10.7835
ラテン語	-10.7837
山岳	-10.784
がいた	-10.7842
近くの	-10.7842
止	-10.7843
観音	-10.7843
。2001	-10.7844
麗	-10.7844
中華民国	-10.7845
1%	-10.7846
々と	-10.785
たま	-10.785
岡田	-10.785
ニュージーランド	-10.7851
事件の	-10.7851
を担当する	-10.7851
征服	-10.7852
を獲得し	-10.7852
ki	-10.7856
ace	-10.7856
態度	-10.7858
取られ	-10.786
ことである	-10.7866
総選挙	-10.7868
▁各	-10.7873
しようとした	-10.7877
ことができた	-10.7878
参考	-10.7878
変動	-10.7878
示す	-10.7879
1911	-10.7879
されるが	-10.7879
見せ	-10.788
付近に	-10.788
は無い	-10.788
編纂	-10.7882
役員	-10.7883
山口県	-10.7886
進学	-10.7888
を採用した	-10.7888
クレジット	-10.7888
前面	-10.7891
考案	-10.7892
直通	-10.7892
経由	-10.7893
連合国	-10.7894
酸素	-10.7894
▁戦後	-10.7897
むしろ	-10.7897
添	-10.7897
以外で	-10.7902
の活躍	-10.7904
子を	-10.7905
、1987	-10.7906
ve	-10.7906
の弟	-10.7907
ng	-10.7908
天体	-10.791
トーマス	-10.7911
エット	-10.7914
必ずしも	-10.7914
コウ	-10.7916
ぶん	-10.7916
翔	-10.7921
されたため	-10.7921
1915	-10.7923
限界	-10.7925
鉄道の	-10.7925
タッチ	-10.7926
外観	-10.7926
ことによって	-10.7928
が始まり	-10.7929
一般的	-10.793
年ぶりの	-10.7931
黄金	-10.794
方程式	-10.794
近年では	-10.794
プラス	-10.7944
に伴って	-10.7944
認可	-10.7946
衛生	-10.7946
在位	-10.7947
De	-10.7947
、1988	-10.7948
理由で	-10.7948
影響力	-10.7948
駆け	-10.7949
版では	-10.7949
はこれを	-10.7953
大量	-10.7955
亡くなった	-10.7956
損害	-10.7957
重賞	-10.7958
偵察	-10.7959
タッグ	-10.7963
現れた	-10.7963
と呼ばれていた	-10.7968
岩手県	-10.7973
側が	-10.7974
騒動	-10.7975
3%	-10.7975
if	-10.7976
勅	-10.7978
ました	-10.7984
務め	-10.7985
2%	-10.7986
働く	-10.7987
曲が	-10.7987
の役割	-10.7991
だん	-10.7992
ブレー	-10.7993
悪魔	-10.7994
を記録し	-10.7995
取り入れ	-10.7998
わけ	-10.7999
とは異なる	-10.7999
小野	-10.8002
審判	-10.8003
にわたる	-10.8004
上がる	-10.8008
に住む	-10.801
立つ	-10.801
を搭載した	-10.8011
チー	-10.8012
odice	-10.8018
アール	-10.8022
かし	-10.8024
圧縮	-10.8024
逃亡	-10.8025
伝えられ	-10.8025
飛行機	-10.8027
好きな	-10.8028
遇	-10.803
本名は	-10.8033
北陸	-10.8034
徹底	-10.8035
Re	-10.8035
認	-10.8037
占	-10.804
名義で	-10.8042
趙	-10.8043
段階で	-10.8044
侵入	-10.8044
白人	-10.8045
独占	-10.805
考え方	-10.8051
コマンド	-10.8054
かみ	-10.8054
現代の	-10.8054
もまた	-10.8054
ランプ	-10.8058
に選出され	-10.8058
TR	-10.8059
後継	-10.8059
上京	-10.8059
してから	-10.8061
年までに	-10.8062
頻繁に	-10.8067
近くに	-10.8072
に必要な	-10.8076
に敗れた	-10.8077
BE	-10.808
淳	-10.808
意向	-10.808
漫画家	-10.8082
乾燥	-10.8082
代表として	-10.8082
市川	-10.8082
が発生した	-10.8085
中でも	-10.8085
会話	-10.8085
勝負	-10.8087
だから	-10.8087
上級	-10.8091
開かれた	-10.8092
上がった	-10.8099
コントロール	-10.8101
ai	-10.8103
年までは	-10.8108
IL	-10.8109
搭乗	-10.8111
著作権	-10.8112
BL	-10.8112
講談社	-10.8112
開放	-10.8113
を設置し	-10.8113
▁Li	-10.8115
朝日	-10.8117
次々と	-10.8117
東京大学	-10.8118
たら	-10.8124
トヨタ	-10.8125
入った	-10.8125
の小	-10.8126
食事	-10.8126
考	-10.8126
栃木県	-10.8128
大気	-10.813
ET	-10.8133
年春	-10.8135
激しく	-10.8141
はそれぞれ	-10.8142
、1985	-10.8143
かす	-10.8146
第四	-10.8147
ミュー	-10.8148
ガリ	-10.8148
近年は	-10.8149
キャッチ	-10.8149
ase	-10.8151
Al	-10.8151
コンテンツ	-10.8152
ピット	-10.8152
配給	-10.8152
状に	-10.8153
琉球	-10.8153
じゃ	-10.816
フト	-10.816
gh	-10.8164
マラソン	-10.8166
当日	-10.8169
とも呼ばれ	-10.817
彫刻	-10.8171
だったため	-10.8172
栄養	-10.8173
領主	-10.8174
続けている	-10.8175
晩	-10.8175
こともできる	-10.8176
財務	-10.8176
被害者	-10.8178
クルー	-10.8179
結成された	-10.8182
増大	-10.8182
探偵	-10.8183
保安	-10.8183
緩	-10.8188
に移り	-10.8192
に引き	-10.8193
支流	-10.8195
するのは	-10.8196
へ向かう	-10.8196
カウント	-10.8198
キッ	-10.82
が始まる	-10.82
を加えた	-10.82
ハラ	-10.8203
、1986	-10.8203
ショート	-10.8207
まとめ	-10.8207
この場合	-10.8209
を備え	-10.8209
泳	-10.8209
市街	-10.821
列車が	-10.8211
シャル	-10.8212
るべき	-10.8212
周年記念	-10.8214
SL	-10.8215
長距離	-10.8215
ain	-10.8216
達は	-10.8218
第一次	-10.8219
を決め	-10.822
を一	-10.8221
猿	-10.8223
澄	-10.8224
。<	-10.8227
舷	-10.8228
稿	-10.8231
ノフ	-10.8232
タクシー	-10.8235
ka	-10.8239
放出	-10.8239
宝塚	-10.824
込まれた	-10.8247
メタル	-10.8249
変身	-10.8251
引用	-10.8253
学名	-10.8253
ギア	-10.8254
を手に	-10.8254
闘争	-10.8257
日目	-10.8258
みつ	-10.826
た後	-10.826
駐車場	-10.8262
日産	-10.8263
必	-10.8265
みず	-10.8266
学研究科	-10.8267
を指し	-10.8267
マイク	-10.827
av	-10.8275
このほか	-10.8275
駅で	-10.8276
電池	-10.8277
分に	-10.8278
勲章	-10.8278
日本における	-10.8278
通常は	-10.828
避難	-10.8282
吹き	-10.8283
NG	-10.8284
ばら	-10.8285
星の	-10.8287
中断	-10.8287
もし	-10.8288
春日	-10.8289
才能	-10.8289
を歴任	-10.829
フロー	-10.8291
を通る	-10.8291
既存の	-10.8295
ニカ	-10.8296
務めた	-10.8296
ためである	-10.8299
助手	-10.8299
フットボール	-10.8303
枚の	-10.8303
。1990	-10.8304
che	-10.8304
研修	-10.8305
何か	-10.8306
周り	-10.8306
手に	-10.8307
語の	-10.8308
述べる	-10.8308
セラ	-10.8309
がい	-10.831
ton	-10.8312
与えられる	-10.8315
の立場	-10.8315
附	-10.8318
していること	-10.832
の大部分	-10.832
の主要	-10.8321
当地	-10.8321
瓦	-10.8322
横断	-10.8324
発掘	-10.8324
はあまり	-10.8325
でデビュー	-10.8327
国内の	-10.8327
渡り	-10.8328
りゅう	-10.833
突入	-10.833
ャ	-10.8331
▁Mo	-10.8331
▁Ma	-10.8338
示唆	-10.8338
チベット	-10.8339
キス	-10.8341
5,000	-10.8341
南海	-10.8343
予定だった	-10.8343
三井	-10.8344
避	-10.8345
エドワード	-10.8345
融合	-10.8346
克	-10.8349
走り	-10.8349
by	-10.8349
汚	-10.8352
▁11	-10.8353
長に就任	-10.8354
芽	-10.8354
特殊な	-10.8356
支え	-10.8357
書く	-10.8359
進み	-10.836
参加している	-10.8361
劇中	-10.8363
を中心とする	-10.8363
視聴率	-10.8365
ヒン	-10.8367
カリフォルニア	-10.837
物資	-10.837
終戦	-10.8371
レク	-10.8371
現行	-10.8372
テレビ東京	-10.8378
をきっかけに	-10.8378
が発生する	-10.838
黒い	-10.838
することになる	-10.8382
自衛隊	-10.8382
でん	-10.8384
境内	-10.8385
を含めた	-10.8385
アレンジ	-10.8386
はほぼ	-10.8389
直径	-10.839
と対戦	-10.839
会津	-10.8393
しなければならない	-10.8393
忘れ	-10.8393
皇后	-10.8395
黙	-10.8399
基本的な	-10.84
aw	-10.8407
の舞台	-10.8409
くら	-10.8415
複雑な	-10.8419
蛇	-10.8421
王国の	-10.8422
了	-10.8423
雌	-10.8423
大坂	-10.8424
風景	-10.8424
建てられた	-10.8426
消え	-10.8428
両国	-10.8428
更	-10.8429
キャスター	-10.8432
1908	-10.8433
に渡り	-10.8434
クレイ	-10.8436
に用いられる	-10.8437
宮廷	-10.8438
従軍	-10.8439
ライオン	-10.8441
映画監督	-10.8448
提唱	-10.845
午前	-10.8452
を示し	-10.8452
はまだ	-10.8452
犯人	-10.8455
ルカ	-10.8455
▁Ar	-10.8456
謙	-10.8458
を目指し	-10.8458
試作	-10.8459
停	-10.846
アナログ	-10.8461
ァ	-10.8461
の自由	-10.8462
説得	-10.8463
を起こす	-10.8463
を搭載し	-10.8464
触	-10.8466
山頂	-10.8467
互いに	-10.8468
就職	-10.8469
交差	-10.8469
ブルース	-10.8469
淵	-10.8471
モハ	-10.8472
青山	-10.8472
An	-10.8473
当主	-10.8476
くん	-10.8477
バレエ	-10.8477
の境界	-10.8477
ens	-10.8477
コンテスト	-10.848
を採用し	-10.8482
ともいう	-10.8483
しまう	-10.8484
を継いだ	-10.8484
もいる	-10.8485
年間の	-10.8486
なぜ	-10.8486
―	-10.8486
出場した	-10.8488
等を	-10.8489
を見る	-10.8491
戦死	-10.8491
シング	-10.8491
ゾーン	-10.8492
クレー	-10.8493
が強く	-10.8494
バイオ	-10.8497
In	-10.8499
活発	-10.85
go	-10.8502
オスマン帝国	-10.8503
代表作	-10.8504
実力	-10.8505
濃度	-10.8506
模型	-10.8506
狩	-10.8509
に移住	-10.851
キャンペーン	-10.8513
ey	-10.8514
跳	-10.8514
ure	-10.8516
8%	-10.8517
メタ	-10.8518
熱帯	-10.852
周期	-10.852
という名称	-10.852
命名された	-10.8521
徳島県	-10.8522
あげ	-10.8524
ジュー	-10.8526
チェコ	-10.8526
同時期に	-10.8526
三国	-10.8529
ong	-10.853
名詞	-10.853
願い	-10.853
タナ	-10.8531
パック	-10.8533
牽引	-10.8533
と異なり	-10.8534
ba	-10.8534
ウェブ	-10.8536
が発売された	-10.8537
品質	-10.8538
訴え	-10.8538
EP	-10.8539
の森	-10.854
という説	-10.8541
倒れ	-10.8541
テス	-10.8543
オプション	-10.8544
名古屋市	-10.8545
阪急	-10.8546
スコア	-10.8553
前方	-10.8553
隅	-10.8554
捉え	-10.8555
滋賀県	-10.8557
不安	-10.8557
文章	-10.8558
コミックス	-10.856
7%	-10.8562
隊長	-10.8562
この間	-10.8564
は再び	-10.8564
村の	-10.8565
リアル	-10.8567
といい	-10.8569
たちに	-10.857
サンフランシスコ	-10.857
ダブルス	-10.8572
ブルガリア	-10.8575
巧	-10.8577
書いた	-10.8577
止ま	-10.8578
擬	-10.8578
1916	-10.8579
財団	-10.8581
怪獣	-10.8581
あん	-10.8581
成田	-10.8582
配布	-10.8582
騎士	-10.8583
兼任	-10.8584
通勤	-10.8586
努力	-10.8586
高田	-10.8586
限りで	-10.8587
ボーナス	-10.8589
にくい	-10.859
埋	-10.859
Mi	-10.8591
物理学	-10.8592
殺し	-10.8593
入場	-10.8594
南方	-10.8598
ハリ	-10.8599
ヤマ	-10.8599
生じた	-10.86
前線	-10.8601
渡し	-10.8603
確	-10.8604
マルクス	-10.8606
コック	-10.8607
を形成する	-10.8609
1907	-10.8612
クラウ	-10.8613
リーズ	-10.8613
HD	-10.8616
VE	-10.8616
マックス	-10.8617
創造	-10.8618
版が	-10.862
4%	-10.862
tr	-10.8625
大分県	-10.8626
闇	-10.8627
路線バス	-10.863
報告書	-10.8639
保管	-10.8644
怒	-10.8647
くり	-10.8649
噂	-10.8652
塗	-10.8653
を使い	-10.8653
船体	-10.8654
内戦	-10.8654
彼を	-10.8655
の種類	-10.8655
を残した	-10.8655
UR	-10.8658
ルーマニア	-10.866
わせ	-10.8661
1.5	-10.8663
何らかの	-10.8665
堤	-10.8665
鳳	-10.8666
などでは	-10.8669
開校	-10.8669
、1984	-10.867
放送開始	-10.867
インディ	-10.8673
に立ち	-10.8674
総務	-10.8674
講演	-10.8675
しつつ	-10.8676
法案	-10.8677
私は	-10.8677
機を	-10.8677
懸	-10.8678
おそらく	-10.8683
切り替え	-10.8683
に移動	-10.8683
正式な	-10.8684
抑制	-10.8686
定数	-10.8691
修行	-10.8696
嫁	-10.8697
を開始し	-10.87
ボーン	-10.8701
見て	-10.8702
人種	-10.8702
模	-10.8702
石川県	-10.8704
を提供する	-10.8704
特典	-10.8705
呈	-10.8706
水上	-10.8706
▁現在の	-10.8707
四郎	-10.8711
との間で	-10.8715
サッカー選手	-10.8716
初めての	-10.8718
は全く	-10.8718
的で	-10.8718
車は	-10.872
かせ	-10.8722
口径	-10.8722
有料	-10.8724
入口	-10.8724
と言い	-10.8724
158	-10.8725
に参加する	-10.8726
ベリ	-10.8728
▁1988	-10.873
として生まれる	-10.873
ならず	-10.8731
交響曲	-10.8732
符号	-10.8739
米軍	-10.874
に所属し	-10.874
改装	-10.8742
査	-10.8743
処刑	-10.8744
実際	-10.8745
▁ただし	-10.8745
130	-10.8746
夫妻	-10.8748
胡	-10.8749
抗争	-10.8749
が設置された	-10.8753
CR	-10.8755
スカウト	-10.8759
液体	-10.876
修復	-10.8761
解雇	-10.8762
する必要がある	-10.8764
が強い	-10.8766
ction	-10.8766
トライ	-10.8767
間隔	-10.8767
DJ	-10.8767
05	-10.8768
近江	-10.8771
研究会	-10.8772
軟	-10.8773
は通常	-10.8773
生放送	-10.8776
キューバ	-10.8776
シングルス	-10.8778
着用	-10.8778
時刻	-10.8779
学位	-10.878
心理学	-10.878
▁Z	-10.8782
傍	-10.8782
城主	-10.8783
影響を与え	-10.8785
。1999	-10.8786
を見た	-10.8786
アルコール	-10.8786
割り	-10.8787
最上	-10.8793
ないように	-10.8794
楽章	-10.8797
アメリカ海軍	-10.8799
使用され	-10.88
バラエティ番組	-10.8802
救助	-10.8803
予測	-10.8806
クロアチア	-10.8806
▁1960	-10.8808
が無い	-10.8809
製作された	-10.8809
の言葉	-10.8812
下記の	-10.8812
つける	-10.8814
年末	-10.8814
紋章	-10.8814
命中	-10.882
感覚	-10.882
電源	-10.8826
建国	-10.8826
チェーン	-10.8827
容易に	-10.8827
ルーム	-10.8829
は現在	-10.8831
大韓民国	-10.8835
歌う	-10.884
ジャクソン	-10.8841
大野	-10.8843
検索	-10.8843
装着	-10.8844
軍と	-10.8844
空中	-10.8846
大公	-10.8846
昆虫	-10.8846
わら	-10.8849
又	-10.8849
ee	-10.885
司令	-10.8851
村上	-10.8852
タリ	-10.8853
鎖	-10.8855
第二次	-10.8856
朝廷	-10.8857
を達成した	-10.8858
DD	-10.8858
後継者	-10.8859
GM	-10.8859
久保	-10.886
レム	-10.8863
で放送されていた	-10.8863
大会では	-10.8864
だけの	-10.8865
墓地	-10.8866
質問	-10.8866
日本に	-10.8867
視点	-10.8869
ようである	-10.8869
アイランド	-10.887
プレーオフ	-10.8871
奈良県	-10.8872
ブロー	-10.8873
の導入	-10.8875
6%	-10.8876
を呼び	-10.8876
ance	-10.8876
発生する	-10.8876
IR	-10.8878
授	-10.8878
旧制	-10.8879
時台	-10.8881
結ばれ	-10.8882
に渡って	-10.8882
販	-10.8883
綾	-10.8884
衆議院議員	-10.8884
変形	-10.8885
依存	-10.8886
越え	-10.8888
高山	-10.889
飛行場	-10.8892
死後	-10.8892
いん	-10.8894
発売されている	-10.8896
外側	-10.8899
の多い	-10.89
刺激	-10.8901
トイレ	-10.8902
不正	-10.8904
存在し	-10.8904
愛媛県	-10.8905
落選	-10.8905
次のように	-10.8905
主宰	-10.8906
置き	-10.8906
アメリカで	-10.8908
違	-10.8909
時点では	-10.8912
遊び	-10.8915
挙げられ	-10.8917
』(""	-10.8917
敷設	-10.8919
福井	-10.892
作った	-10.8921
但し	-10.8924
日現在	-10.8925
阻止	-10.8925
貧	-10.8927
、1982	-10.8927
ft	-10.8928
▁1987	-10.8928
スン	-10.8929
ぼう	-10.8929
イギリス軍	-10.8929
寛永	-10.893
橋本	-10.8932
ブリッジ	-10.8933
バランス	-10.8933
チャレンジ	-10.8933
ぷ	-10.8935
小説家	-10.8937
登場している	-10.8938
挙げ	-10.8939
を持たない	-10.8939
と言った	-10.8939
つつある	-10.894
技法	-10.8941
かもしれない	-10.8942
任期	-10.8942
山形	-10.8943
田町	-10.8946
改編	-10.8948
ギュ	-10.8948
さと	-10.8949
ヒロイン	-10.8949
ラッ	-10.8949
の後継	-10.895
ーノ	-10.895
遷	-10.8951
大宮	-10.8952
看護	-10.8953
グレード	-10.8959
簡易	-10.896
、1983	-10.8961
単純	-10.8961
騎乗	-10.8962
人権	-10.8962
ってくる	-10.8969
定める	-10.8971
相対	-10.8972
交易	-10.8972
庵	-10.8972
丘陵	-10.8977
が盛ん	-10.8977
中継局	-10.8978
選考	-10.8979
存在した	-10.8979
パッ	-10.8983
を抑え	-10.8983
形を	-10.8989
招待	-10.8991
後任	-10.8991
MF	-10.8991
【	-10.8992
▁旧	-10.8993
視聴者	-10.8997
出席	-10.8999
サイン	-10.8999
を挙げる	-10.9001
】	-10.9002
はっきり	-10.9003
ケーブル	-10.9004
踊り	-10.9004
が生じ	-10.9005
興味	-10.9006
フリ	-10.9006
参入	-10.9007
履	-10.9008
EA	-10.901
準決勝	-10.9013
何度も	-10.9014
おき	-10.9014
▁外部リンク	-10.9017
土曜日	-10.9019
砲撃	-10.9021
DNA	-10.9022
珍しい	-10.9024
ome	-10.9024
経済的	-10.9024
日にかけて	-10.9027
後部	-10.9027
水路	-10.9029
五輪	-10.9029
からである	-10.9029
野村	-10.903
を続けた	-10.9032
相手の	-10.9036
クリス	-10.9037
▁l	-10.9038
va	-10.9039
ファンタジー	-10.9039
を基に	-10.904
都合	-10.904
ません	-10.9041
判明	-10.9041
冒頭	-10.9043
漁業	-10.9043
長編	-10.9044
が少ない	-10.9044
的である	-10.9045
摂	-10.9046
グー	-10.9047
ッコ	-10.9047
リッ	-10.905
▁東	-10.905
付いた	-10.9054
国外	-10.9055
符	-10.9056
法則	-10.9057
総会	-10.9057
モンド	-10.9058
地中海	-10.906
変わる	-10.9061
を表明	-10.9063
ロップ	-10.9063
ねん	-10.9063
取り上げられ	-10.9064
才	-10.9065
1905	-10.9065
する形で	-10.9066
応募	-10.9066
の二	-10.9068
書かれ	-10.9069
車内	-10.907
れん	-10.9077
ジオ	-10.9078
アンドレ	-10.9078
新型	-10.908
小倉	-10.9082
河口	-10.9084
ことはできない	-10.9085
松竹	-10.9085
バレー	-10.9086
直後の	-10.9093
スロー	-10.9094
を終え	-10.9095
」・「	-10.9096
ps	-10.9098
尼	-10.9098
それから	-10.9099
側から	-10.9099
入門	-10.9099
ster	-10.9101
。2018	-10.9102
Te	-10.9103
を避け	-10.9104
支配下	-10.9106
確実	-10.9106
起こった	-10.9106
怒り	-10.9107
本格的な	-10.9107
上田	-10.9108
無く	-10.9112
の運行	-10.9114
ob	-10.9115
山崎	-10.9117
明治時代	-10.9118
ミラー	-10.9119
ぜん	-10.912
パネル	-10.9121
に挑戦	-10.9126
つけた	-10.9128
呪	-10.913
どちら	-10.913
GE	-10.9132
港湾	-10.9132
県内	-10.9132
ウォル	-10.9134
励	-10.9135
冬季	-10.9136
函館	-10.9137
が可能である	-10.9144
の首都	-10.9147
世紀末	-10.9148
▁Pro	-10.915
失点	-10.915
重複	-10.9151
の人口は	-10.9155
出演した	-10.9156
直前に	-10.9156
FI	-10.9157
災	-10.916
回大会	-10.9161
が大きい	-10.9164
南部の	-10.9164
開け	-10.9165
出産	-10.9165
といわれている	-10.9167
美濃	-10.9168
を掲げ	-10.9171
るか	-10.9171
南アフリカ	-10.9173
設立され	-10.9173
引退した	-10.9175
に存在した	-10.9176
保証	-10.9176
に行く	-10.9178
踏み	-10.9178
主義者	-10.918
1889	-10.9181
を装備し	-10.9181
内側	-10.9182
恋人	-10.9183
辻	-10.9184
死んだ	-10.9185
チア	-10.9186
代々	-10.9187
ノート	-10.919
であることから	-10.9191
責任者	-10.9191
所在	-10.9192
電気鉄道	-10.9193
というもの	-10.9193
世界遺産	-10.9194
を受賞	-10.9195
テーブル	-10.9197
ミュンヘン	-10.9198
加わった	-10.9198
MLB	-10.9198
位となった	-10.92
隣接	-10.9201
Gr	-10.9203
マニ	-10.9203
に所在する	-10.9203
時期に	-10.9207
end	-10.9208
ことが多く	-10.9212
その間	-10.9212
下流	-10.9217
マップ	-10.9217
Cl	-10.9217
実践	-10.9219
ばん	-10.922
慎	-10.9221
フェスティバル	-10.9222
サンド	-10.9223
信濃	-10.9224
含	-10.9225
前から	-10.9225
探検	-10.9227
IM	-10.9228
ジェン	-10.9228
ウェブサイト	-10.9231
レア	-10.9232
子と	-10.9236
陶	-10.9236
盛ん	-10.9238
ヨハン	-10.9238
人目	-10.9238
シュート	-10.924
年秋	-10.924
幅広い	-10.924
con	-10.9241
ユナイテッド	-10.9245
滅亡	-10.9246
がく	-10.9248
統制	-10.9248
事務局	-10.9249
ラグ	-10.925
ウルトラ	-10.925
寄付	-10.9254
発展した	-10.9256
結果として	-10.9259
登記	-10.926
1909	-10.9261
エール	-10.9264
▁収録曲	-10.9264
境界	-10.9264
惨	-10.9265
各地で	-10.9268
吉野	-10.9272
ものに	-10.9272
テリ	-10.9273
年代以降	-10.9273
利用できる	-10.9275
品種	-10.9278
▁現在は	-10.9279
釣り	-10.9279
の概念	-10.9281
エリザベス	-10.9281
the	-10.9281
左翼	-10.9282
ダウンロード	-10.9285
が現れ	-10.9287
幕末	-10.9288
エクス	-10.9288
▁13	-10.9288
沿	-10.9289
学的	-10.929
ビーチ	-10.9291
しかも	-10.9291
島津	-10.9293
たく	-10.9294
ジア	-10.9297
に関わる	-10.9299
の動き	-10.93
ix	-10.93
を取って	-10.9302
マイナー	-10.9302
従業員	-10.9302
描かれた	-10.9303
奴	-10.9304
見られた	-10.9304
iz	-10.9305
物理	-10.9305
観光客	-10.9306
十字	-10.9308
氏が	-10.9308
容易	-10.9309
りん	-10.9309
初登場	-10.9313
絶滅	-10.9313
ヴィルヘルム	-10.9315
梨	-10.9316
一時期	-10.9319
鐘	-10.9319
吐	-10.932
低迷	-10.9321
日曜	-10.9322
成人	-10.9322
ショウ	-10.9323
懸念	-10.9326
配慮	-10.9327
山陽	-10.9328
ark	-10.9328
世紀後半	-10.933
出来ない	-10.933
警戒	-10.9331
ぴ	-10.9334
加速	-10.9334
ムル	-10.9334
を見つけ	-10.9338
イスラム	-10.9338
に再	-10.9341
ik	-10.9341
フィート	-10.9343
棋	-10.9344
カンパニー	-10.9344
否	-10.9345
を上げ	-10.9345
CE	-10.9346
レフ	-10.9348
番線	-10.9348
ていたため	-10.9349
現状	-10.9349
参加者	-10.9351
ホールディングス	-10.9353
コンクール	-10.9353
沿線	-10.9354
提示	-10.9356
バルト	-10.9357
レーシング	-10.9357
長崎県	-10.9357
up	-10.9358
検察	-10.9359
ime	-10.9359
大量の	-10.9359
PO	-10.936
協議	-10.9362
ジョンソン	-10.9363
エンタテインメント	-10.9365
前者	-10.9367
に見られる	-10.9368
ことが判明	-10.9369
と同様の	-10.9371
▁1986	-10.9373
理想	-10.9374
庭園	-10.9375
ber	-10.9375
考慮	-10.9375
長らく	-10.9377
1906	-10.9377
近世	-10.938
を求めた	-10.938
NI	-10.9382
甥	-10.9382
PE	-10.9383
先生	-10.9383
しようとする	-10.9383
メロディ	-10.9383
建造物	-10.9384
腐	-10.9384
世紀初頭	-10.9386
リントン	-10.9386
三河	-10.9387
その中で	-10.9388
数十	-10.9389
期間中	-10.9391
町村	-10.9392
叔父	-10.9393
織田	-10.9394
、1950	-10.9394
*	-10.9396
折り	-10.9399
サーバ	-10.9399
存在している	-10.94
VI	-10.9401
二次	-10.9404
テラ	-10.9405
を務めている	-10.9406
ッセ	-10.9407
せずに	-10.9408
ke	-10.9409
ある程度	-10.9412
110	-10.9412
元禄	-10.9416
▁THE	-10.9418
挟	-10.9419
撮	-10.942
▁さらに	-10.9422
の整備	-10.9422
縄	-10.9422
の長さ	-10.9423
トリア	-10.9424
付けられ	-10.9425
岡崎	-10.9427
と言える	-10.9427
分散	-10.9429
の子孫	-10.9432
発足した	-10.9433
うちに	-10.9435
生物学	-10.9438
テリア	-10.9439
愛称は	-10.9439
水準	-10.9441
を命じ	-10.9442
本格的に	-10.9443
人々が	-10.9444
バナ	-10.9444
振動	-10.9446
同意	-10.9447
バウ	-10.945
代の	-10.9453
まえ	-10.9453
オリコン	-10.9456
行われていた	-10.9456
仕掛け	-10.946
クリスマス	-10.9462
シェア	-10.9463
っぽ	-10.9463
創建	-10.9465
を有し	-10.9465
ドキュメンタリー	-10.9466
特集	-10.9467
苗	-10.9467
ネーム	-10.9467
ug	-10.9468
電機	-10.9472
化石	-10.9472
チップ	-10.9473
ミッド	-10.9476
ターボ	-10.9478
の変更	-10.9478
ドゥー	-10.9479
烏	-10.9482
規模の	-10.9483
を使用し	-10.9486
退役	-10.9493
オイ	-10.9493
をあげ	-10.9494
クリー	-10.9494
ビュ	-10.9496
沈没	-10.9496
プリンス	-10.9496
共同体	-10.9497
の総称	-10.9498
身分	-10.9499
最中	-10.95
のもとで	-10.9505
存在していた	-10.9505
淡	-10.9505
アシスタント	-10.9506
亮	-10.9506
▁番組	-10.9506
を破り	-10.9506
共和党	-10.9508
るようになり	-10.9508
掌	-10.9509
TKO	-10.951
を扱う	-10.951
今回	-10.951
釜	-10.9511
決意	-10.9512
引退後	-10.9514
公社	-10.9515
res	-10.9515
伊達	-10.9516
させるため	-10.9517
これによって	-10.9519
AB	-10.952
イスラーム	-10.9522
の武将	-10.9523
モント	-10.9523
中隊	-10.9523
台風	-10.9524
ヘー	-10.9524
是	-10.9525
電圧	-10.9527
カウ	-10.9528
歌舞伎	-10.9528
を終えた	-10.9528
人員	-10.9528
▁1985	-10.9529
ゴム	-10.953
に仕え	-10.9533
馬場	-10.9534
に至るまで	-10.9535
we	-10.9535
毛利	-10.9537
ラフ	-10.9539
部下	-10.9545
モンテ	-10.9546
萩	-10.9546
種牡馬	-10.9548
で構成され	-10.9549
出演している	-10.955
猪	-10.955
想定	-10.9552
調達	-10.9555
企	-10.9555
を発売	-10.9557
番目に	-10.9558
近年の	-10.956
オーナー	-10.9561
衆議院	-10.9561
ことや	-10.9562
オレ	-10.9563
に及ぶ	-10.9567
コーン	-10.9567
介入	-10.9568
たという	-10.9568
不可	-10.957
併合	-10.9572
ところで	-10.9572
衣装	-10.9574
的なもの	-10.9574
浸	-10.9574
金曜日	-10.9581
マール	-10.9582
COM	-10.9583
オレンジ	-10.9583
技術者	-10.9586
階段	-10.9588
忌	-10.9591
原料	-10.9595
複雑	-10.9595
宿泊	-10.9595
洪水	-10.9599
秀吉	-10.96
の基礎	-10.96
参謀	-10.96
富山県	-10.9602
進歩	-10.9603
ボロ	-10.9605
創設された	-10.9608
太子	-10.9608
オオ	-10.961
を示している	-10.9612
サークル	-10.9613
ほとんどが	-10.9615
ゼー	-10.9616
人事	-10.9617
する際に	-10.9619
映画化	-10.9619
余り	-10.9619
HE	-10.9619
涙	-10.9621
ことができない	-10.9622
アプリ	-10.9622
アイス	-10.9624
とはいえ	-10.9624
兄の	-10.9624
融	-10.9625
専門家	-10.9626
佐々木	-10.9626
墨	-10.9626
エロ	-10.9626
9%	-10.9627
も含め	-10.9628
なくなって	-10.9632
実在	-10.9633
og	-10.9633
扱	-10.9635
EE	-10.9636
ラマ	-10.9639
細菌	-10.964
就役	-10.964
選ぶ	-10.964
日々	-10.9643
の称号	-10.9643
大人	-10.9645
スポット	-10.9646
髄	-10.9647
社会党	-10.9647
役者	-10.9647
並び	-10.9647
変遷	-10.9648
校長	-10.9649
変わった	-10.9651
殆ど	-10.9651
個別	-10.9651
成立した	-10.9655
であって	-10.9656
待ち	-10.9656
固め	-10.9657
消滅した	-10.9658
ドリーム	-10.9661
MT	-10.9662
トレー	-10.9662
EST	-10.9662
返し	-10.9665
届け	-10.9667
▁西	-10.9667
リトアニア	-10.9668
なって	-10.967
単語	-10.967
秋田県	-10.9671
、1972	-10.9671
を多く	-10.9672
返還	-10.9677
救援	-10.9677
臭	-10.9678
が開始され	-10.9678
高校生	-10.9682
山形県	-10.9684
結論	-10.9685
炉	-10.9687
残っている	-10.9688
置き換え	-10.9693
当然	-10.9696
を出し	-10.9696
アラン	-10.9699
メトロ	-10.97
がほとんど	-10.9701
補佐	-10.9701
夕方	-10.9703
悩	-10.9704
BI	-10.9705
初勝利	-10.9706
は不明である	-10.9706
部隊は	-10.9706
中核	-10.971
ゃ	-10.9711
間もなく	-10.9711
バース	-10.9715
に比べ	-10.9716
ショック	-10.9718
パーツ	-10.9718
均	-10.9719
信用	-10.9722
伝わる	-10.9723
原則として	-10.9723
その一方で	-10.9724
レディ	-10.9724
を組み	-10.9724
New	-10.9727
三男	-10.9728
雰囲気	-10.9728
期生	-10.9728
零	-10.973
から約	-10.973
Vi	-10.9731
比率	-10.9732
に達した	-10.9733
結晶	-10.9733
変化する	-10.9734
文芸	-10.9735
福音	-10.9736
ぎょう	-10.9738
チリ	-10.9741
早い	-10.9743
撮影所	-10.9744
を残し	-10.9745
変わって	-10.9746
短期大学	-10.9746
却	-10.9747
楼	-10.9748
仰	-10.9749
優秀	-10.9749
金曜	-10.9749
こととなる	-10.975
ができ	-10.9752
の一部を	-10.9754
140	-10.9754
略称は	-10.9755
求め	-10.9755
磐	-10.9757
北西部	-10.9757
▁14	-10.9758
昇進	-10.9759
エッ	-10.9759
篤	-10.9759
クール	-10.9759
エム	-10.976
int	-10.9765
シアター	-10.9767
青森	-10.9768
訪れる	-10.9768
客車	-10.9768
強さ	-10.9776
ストップ	-10.9777
円形	-10.9778
発売した	-10.9779
ビング	-10.978
嶺	-10.978
岬	-10.978
省略	-10.9781
の強い	-10.9784
会社である	-10.9788
ew	-10.9788
薬物	-10.9788
味方	-10.9789
、1979	-10.9789
刊行された	-10.979
。1980	-10.979
Pa	-10.979
年連続	-10.9794
ほん	-10.9796
-18	-10.9797
いま	-10.9802
造船所	-10.9805
識	-10.9808
eg	-10.9809
保健	-10.981
した上で	-10.9811
影響を与えた	-10.9811
-17	-10.9811
東急	-10.9811
嗣	-10.9812
スイッチ	-10.9814
ギリシア	-10.9818
AA	-10.9818
一緒に	-10.9821
ジャーナリスト	-10.9822
総長	-10.9823
の次男	-10.9823
尿	-10.9826
と呼び	-10.9832
と言われ	-10.9832
まったく	-10.9832
有利	-10.9834
と改名	-10.9834
が用いられる	-10.9837
辞職	-10.984
メリ	-10.9841
、1981	-10.9842
改札	-10.9844
閉じ	-10.9845
ペリ	-10.9846
に次いで	-10.9847
2,000	-10.9848
中国語	-10.9848
さず	-10.9848
逃	-10.9849
回る	-10.9851
ポケモン	-10.9852
砲塔	-10.9859
責	-10.9861
トウ	-10.9861
アダム	-10.9862
付近で	-10.9862
恒星	-10.9863
ようとした	-10.9865
演説	-10.9865
続いた	-10.9866
Hi	-10.9868
ヴァイオリン	-10.9869
別れ	-10.9871
秘書	-10.9871
ておらず	-10.9872
緑色	-10.9872
出撃	-10.9873
三浦	-10.9875
を発表し	-10.9877
細川	-10.9882
使用されていた	-10.9883
ッキング	-10.9884
マネージャー	-10.9885
期間は	-10.9888
有名である	-10.9888
ron	-10.9889
建築物	-10.9889
隊員	-10.9893
が認められ	-10.9894
シンボル	-10.9895
後退	-10.9895
ロックバンド	-10.9896
を追加	-10.9899
であることが	-10.9899
1904	-10.9901
リーナ	-10.9903
エディ	-10.9903
みち	-10.9903
手続き	-10.9904
産物	-10.9904
の範囲	-10.9904
になること	-10.9905
浜松	-10.9907
チョウ	-10.9908
のちの	-10.9908
タム	-10.9909
易	-10.9912
全線	-10.9912
が非常に	-10.9912
住み	-10.9913
鴨	-10.9913
にちなんで	-10.9913
海域	-10.9917
すけ	-10.9918
ick	-10.9919
定理	-10.9919
に設置された	-10.9921
しているため	-10.9926
僅か	-10.9927
と結婚した	-10.9927
ニーズ	-10.993
▁1945	-10.9931
ミック	-10.9931
先輩	-10.9933
ブロン	-10.9934
住宅地	-10.9935
▁1984	-10.9935
マリオ	-10.9936
中退	-10.9936
仕事を	-10.9938
遡	-10.9939
メラ	-10.9939
ep	-10.9943
商店街	-10.9943
返り	-10.9944
刈	-10.9945
▁かつては	-10.9947
に向かった	-10.9948
セブン	-10.9949
平面	-10.9949
要望	-10.9949
けて	-10.995
シャルル	-10.9951
などにより	-10.9952
将校	-10.9952
ox	-10.9952
所蔵	-10.9955
占め	-10.9956
同月	-10.9956
著者	-10.9957
配列	-10.9957
ないまま	-10.996
建築家	-10.9961
曲線	-10.9961
緩和	-10.9961
削除	-10.9962
作風	-10.9964
▁Br	-10.9965
sc	-10.9966
顕著	-10.9968
脚本家	-10.997
てしまい	-10.997
オラ	-10.9972
貼	-10.9973
シネマ	-10.9974
したところ	-10.9975
ブリー	-10.9976
入植	-10.9977
しょうがっこう	-10.9978
行っている	-10.998
鍋	-10.9981
実用	-10.9982
らす	-10.9983
退社	-10.9984
番台	-10.9985
を迎える	-10.9985
Fr	-10.9986
区画	-10.9986
フジ	-10.9986
の記述	-10.9988
変更された	-10.9988
条例	-10.9989
選ばれた	-10.9991
Ph	-10.9991
艦艇	-10.9991
si	-10.9991
胆	-10.9994
を使用している	-10.9994
を送り	-10.9996
演じる	-10.9996
蹴	-11.0001
の両方	-11.0002
テッド	-11.0003
海戦	-11.0005
TI	-11.0005
ロット	-11.0007
Do	-11.0013
全般	-11.0017
ニル	-11.0018
主役	-11.002
の増加	-11.002
万石	-11.0022
が設けられ	-11.0025
じま	-11.0025
フランス軍	-11.0025
両方	-11.0027
していたため	-11.0027
トリオ	-11.0029
Sp	-11.0029
ポリス	-11.0033
壮	-11.0034
しかった	-11.0035
遼	-11.0036
幼稚園	-11.0037
St	-11.004
人材	-11.0047
現存する	-11.0049
外れ	-11.0049
コント	-11.005
匹	-11.0052
がこの	-11.0052
-15	-11.0059
年生の	-11.006
鈴	-11.0061
エンジンは	-11.0062
の構成	-11.0062
WBC	-11.0063
コンスタン	-11.0065
蒸	-11.0065
砕	-11.0065
大島	-11.0065
グラフ	-11.0065
ニール	-11.0066
バット	-11.0067
コーヒー	-11.0067
政府が	-11.0067
権威	-11.0068
駅まで	-11.0068
を起こした	-11.0068
改めて	-11.0069
と同一	-11.0069
くらい	-11.007
大戦	-11.0076
イエス	-11.0077
に昇格	-11.0078
季節	-11.0081
血液型は	-11.0081
呼ばれ	-11.0082
で生まれた	-11.0082
所領	-11.0083
エキ	-11.0085
課長	-11.0085
おこ	-11.0086
カフェ	-11.0086
リム	-11.0087
以前から	-11.0088
を学ぶ	-11.0089
広島市	-11.0089
足利	-11.009
フィギュアスケート	-11.009
小松	-11.009
魅力	-11.0094
戦った	-11.0094
得られる	-11.0095
を経由して	-11.0097
もん	-11.0098
任意の	-11.0099
1500	-11.0102
に代わって	-11.0102
生じる	-11.0103
商標	-11.0103
力士	-11.0104
を学び	-11.0106
繊維	-11.0106
駆逐隊	-11.0107
USS	-11.0107
男爵	-11.0109
イング	-11.0109
小屋	-11.0111
を教え	-11.0112
子供たち	-11.0113
変数	-11.0113
臨床	-11.0113
甲府	-11.0113
を投げ	-11.0115
水平	-11.0117
UT	-11.012
齢	-11.0125
瀬戸	-11.0125
していなかった	-11.0125
教徒	-11.0129
iv	-11.0129
棚	-11.013
仮面ライダー	-11.0131
当初から	-11.0131
哉	-11.0132
報じられ	-11.0133
膝	-11.0135
扱う	-11.0136
内にある	-11.0137
心臓	-11.0137
ブレイ	-11.0139
の地名	-11.0141
置かれ	-11.0141
天文学	-11.0142
戦時	-11.0142
おん	-11.0143
近衛	-11.0143
マスク	-11.0144
ハルト	-11.0144
ストー	-11.0144
その際	-11.0145
食料	-11.0145
綴	-11.0145
民衆	-11.0147
を訪れ	-11.0147
非常	-11.0148
を見せた	-11.0148
。1998	-11.0149
首位	-11.0153
スプリング	-11.0153
該当	-11.0153
第二次世界大戦後	-11.0153
天使	-11.0153
海賊	-11.0154
訪	-11.0155
入院	-11.0155
予約	-11.0156
社会人	-11.0156
爆撃	-11.0156
FF	-11.0157
ピーク	-11.0159
儀式	-11.0159
通学	-11.0159
携帯	-11.0162
ベッ	-11.0163
とは別	-11.0164
乙	-11.0166
鎮圧	-11.0169
ディーゼル	-11.0169
ary	-11.0171
みんな	-11.0171
、1975	-11.0172
顧客	-11.0174
信長	-11.0176
休日	-11.0178
携	-11.018
rd	-11.018
ヘリコプター	-11.018
進んで	-11.0184
1890	-11.0185
小川	-11.0185
月にかけて	-11.0186
万枚	-11.0188
NTT	-11.0194
往	-11.0196
金額	-11.0196
肝	-11.0199
されることもある	-11.0203
をもとに	-11.0203
ていること	-11.0205
共産主義	-11.0206
ジョーンズ	-11.0208
各地の	-11.0209
につき	-11.0209
手掛け	-11.021
刃	-11.021
川町	-11.0214
博多	-11.0214
ツォ	-11.0215
TC	-11.0218
の際には	-11.0218
NT	-11.0219
石炭	-11.0223
出生	-11.0224
に達し	-11.0224
▁|	-11.0225
併用	-11.0225
ことも多い	-11.0228
廊	-11.0228
同士の	-11.0228
をベースに	-11.0229
蓄	-11.023
五十	-11.023
ウルトラマン	-11.0231
原子力	-11.0231
にあって	-11.0234
長女	-11.0234
レーザー	-11.0236
東区	-11.0236
部分が	-11.0236
ko	-11.0236
高野	-11.0238
宜	-11.024
歩道	-11.024
水域	-11.024
祥	-11.0241
ina	-11.0245
正教会	-11.0245
表彰	-11.0246
でもあり	-11.0246
中央区	-11.0249
看板	-11.0249
▁Le	-11.0254
oc	-11.0256
年以降は	-11.0256
az	-11.0257
スタンド	-11.0258
に任命され	-11.0258
焼失	-11.0259
一時的に	-11.0259
勉強	-11.0261
触れ	-11.0263
ることになる	-11.0264
炭素	-11.0264
スプ	-11.0265
が少なく	-11.0266
俺	-11.0266
実業家	-11.0267
に登場	-11.0268
が必要である	-11.0269
劇場版	-11.0269
株主	-11.027
NC	-11.0272
▁Sh	-11.0272
坪	-11.0274
筆頭	-11.0274
ダス	-11.0275
ea	-11.0276
ort	-11.0277
アリス	-11.0278
を受け入れ	-11.0278
▁まさ	-11.0282
に従い	-11.0283
背番号	-11.0285
作画	-11.0285
プラットフォーム	-11.029
に貢献	-11.0291
たのは	-11.0292
順次	-11.0292
があるため	-11.0293
肺	-11.0297
用として	-11.0298
イチ	-11.0299
主として	-11.03
遅	-11.0303
モバイル	-11.0304
確か	-11.0304
独自	-11.0306
tra	-11.0306
)、「	-11.0306
臓	-11.0307
塞	-11.0307
中川	-11.0308
決定戦	-11.0308
行なわれ	-11.0308
立体	-11.0308
-20	-11.0309
は大きく	-11.0309
敗れ	-11.0309
CC	-11.0317
表紙	-11.0317
覧	-11.0319
大変	-11.0319
その名	-11.0319
出され	-11.0321
和歌山県	-11.0323
ハーン	-11.0323
les	-11.0324
が最も	-11.0327
技能	-11.033
調理	-11.033
られなかった	-11.0331
評判	-11.0332
高架	-11.0332
断念	-11.0332
称号	-11.0333
ガソリン	-11.0333
解任	-11.0333
木造	-11.0334
ウォーター	-11.0336
主任	-11.0336
08	-11.0336
ich	-11.0337
障害者	-11.0338
▁これらの	-11.0339
を構え	-11.0341
『""	-11.0342
が初めて	-11.0342
語源	-11.0343
てから	-11.0345
酔	-11.0345
進め	-11.0346
描かれている	-11.0346
ダイヤモンド	-11.0347
1903	-11.0347
長岡	-11.0349
ことはない	-11.035
揃	-11.035
京都市	-11.0351
Ar	-11.0351
加賀	-11.0352
詰	-11.0354
不能	-11.0354
が起こる	-11.0355
ムシ	-11.0355
債	-11.0356
毎回	-11.0359
とは別に	-11.036
盗塁	-11.036
まもなく	-11.036
雇	-11.0361
、1978	-11.0361
を大きく	-11.0362
歌唱	-11.0362
不振	-11.0363
原市	-11.0364
内蔵	-11.0365
実況	-11.0366
場所で	-11.0369
図書	-11.0369
翌年の	-11.037
-11	-11.037
dr	-11.0374
部分を	-11.0376
を舞台に	-11.0376
町内	-11.0378
▁1983	-11.038
▁Ro	-11.0382
所持	-11.0382
自体が	-11.0383
二丁目	-11.0384
選ばれ	-11.0386
ミール	-11.0387
史跡	-11.0387
同名の	-11.0391
治安	-11.0392
キハ	-11.0392
パイプ	-11.0393
と一緒に	-11.0393
スターズ	-11.0394
全員が	-11.0396
国立公園	-11.0396
年頃に	-11.0398
諏訪	-11.0399
加えられ	-11.04
津市	-11.04
残留	-11.0402
ドレス	-11.0405
放棄	-11.0405
へ移	-11.0406
So	-11.0412
選手が	-11.0413
の評価	-11.0413
同国	-11.0415
の墓	-11.0416
就航	-11.0417
侵略	-11.0418
を作った	-11.0419
さくら	-11.0422
マンション	-11.0423
鎌倉時代	-11.0425
航行	-11.0425
囚	-11.0428
刑務所	-11.043
しろ	-11.043
自由に	-11.0431
以後は	-11.0432
奪取	-11.0433
ish	-11.0434
付く	-11.0435
付近の	-11.0437
恐怖	-11.0437
描かれ	-11.044
ウェールズ	-11.0441
トゥル	-11.0441
活動している	-11.0441
ようとする	-11.0443
しかない	-11.0444
に達する	-11.0445
を含めて	-11.0446
元々は	-11.0446
前提	-11.0447
慰	-11.0449
海水	-11.045
候	-11.0452
北区	-11.0452
ならびに	-11.0454
通路	-11.0454
PlayStation	-11.0458
候補者	-11.046
qu	-11.046
存在しない	-11.0461
マスコミ	-11.0462
流用	-11.0463
この他	-11.0463
二郎	-11.0464
ホッ	-11.0464
飼	-11.0465
残りの	-11.0467
壊滅	-11.0468
ぽ	-11.0472
ライヴ	-11.0473
スケート	-11.0474
医薬品	-11.0475
周囲の	-11.0475
尾張	-11.0476
ソビエト	-11.0477
対処	-11.0477
の権利	-11.0477
▁紀元前	-11.048
グレー	-11.0482
LP	-11.0482
熊野	-11.0482
rp	-11.0482
それ以外の	-11.0483
合衆国	-11.0486
締め	-11.0486
小山	-11.0488
三角	-11.0488
法第	-11.0489
産地	-11.049
ロッテ	-11.049
使用していた	-11.0491
▁以下の	-11.0492
are	-11.0494
十分な	-11.0499
かなかった	-11.0502
にいる	-11.0503
シード	-11.0505
でなく	-11.0505
チェック	-11.051
が置かれ	-11.0512
高校時代	-11.0513
延伸	-11.0518
南極	-11.0518
を広げ	-11.0518
を行って	-11.0519
正しい	-11.052
採用されている	-11.0524
恭	-11.0524
心理	-11.0525
Ma	-11.0525
現れ	-11.0527
くない	-11.0527
UFC	-11.0528
ベール	-11.053
書かれている	-11.053
最古の	-11.0534
ヴォー	-11.0534
活性化	-11.0537
各社	-11.0537
芸名	-11.054
牧場	-11.054
ベクトル	-11.0541
禄	-11.0542
我々	-11.0543
暗号	-11.0543
郵便番号は	-11.0544
愛知	-11.0545
セク	-11.0545
述べている	-11.0546
ical	-11.0546
発注	-11.0548
斑	-11.0554
を設立し	-11.0555
他社	-11.0558
だけが	-11.0558
日中	-11.0558
本項では	-11.0561
▁FIFA	-11.0564
CPU	-11.0565
法令	-11.0566
Dr	-11.0566
基本的には	-11.0567
たん	-11.0567
同僚	-11.0568
単独で	-11.0569
グラウンド	-11.057
ana	-11.0571
フィラデルフィア	-11.0574
あさ	-11.0574
香川県	-11.0575
胤	-11.0575
何も	-11.0577
メジャーデビュー	-11.0577
並べ	-11.0577
肢	-11.0578
降下	-11.058
バルセロナ	-11.0583
守り	-11.0585
講座	-11.0585
ミナ	-11.0592
日曜日	-11.0594
磁気	-11.0594
伊豆	-11.0594
修士	-11.0595
の普及	-11.0596
虐殺	-11.0597
本種	-11.0598
ループ	-11.0599
、1976	-11.06
況	-11.0601
に追い	-11.0602
延び	-11.0607
百貨店	-11.0608
西方	-11.061
迎え	-11.0611
を追い	-11.0612
明確に	-11.0613
燃	-11.0618
land	-11.062
oo	-11.062
▁日本の	-11.0621
都市計画	-11.0621
斎藤	-11.0622
に勤務	-11.0622
ハーフ	-11.0623
特別な	-11.0623
期限	-11.0624
の設置	-11.0624
を維持し	-11.0625
受け入れ	-11.0625
認められる	-11.0628
を守る	-11.0629
己	-11.0629
世と	-11.063
したとき	-11.0631
廠	-11.0631
を求めて	-11.0631
掲げ	-11.0634
宛	-11.0636
享保	-11.0637
飾り	-11.0639
HP	-11.0643
捕手	-11.0643
乗員	-11.0643
競合	-11.0646
本店	-11.0647
、1973	-11.0647
に任命された	-11.0648
出される	-11.065
制作された	-11.0652
リゾート	-11.0653
に移籍した	-11.0653
家老	-11.0657
カーブ	-11.0659
ABC	-11.0659
賛	-11.0659
ロマ	-11.066
チャートで	-11.066
妨害	-11.0663
アキ	-11.0667
子孫	-11.0668
国土	-11.067
芦	-11.0673
委	-11.0673
ボリ	-11.0673
源氏	-11.0673
ah	-11.0674
皮膚	-11.0676
福井県	-11.0676
北東部	-11.0681
土佐	-11.0682
欧	-11.0683
かけた	-11.0684
隠れ	-11.0686
▁Al	-11.0687
▁g	-11.0687
ov	-11.0688
会談	-11.0689
IBM	-11.0689
に続く	-11.0694
重力	-11.0695
ind	-11.0695
十三	-11.0698
アミ	-11.0707
次のような	-11.0708
貢	-11.0708
を受賞した	-11.0709
学院大学	-11.071
徴	-11.071
崩	-11.071
ゴス	-11.0711
汚染	-11.0712
駄	-11.0713
佐賀	-11.0713
ッシ	-11.0714
1902	-11.0714
女神	-11.0714
シーズン終了後	-11.0715
バリー	-11.0716
城の	-11.0717
▁An	-11.0717
初となる	-11.0718
帰り	-11.072
が生まれた	-11.072
アドレス	-11.0721
白色	-11.0721
っか	-11.0722
ッパ	-11.0722
徒歩	-11.0723
を主張し	-11.0725
が入る	-11.0727
鞍	-11.0727
のイメージ	-11.0728
を集めた	-11.073
こん	-11.0731
。1997	-11.0731
に位置している	-11.0733
えば	-11.0733
と述べ	-11.0735
げる	-11.0735
施工	-11.0738
に到着した	-11.0739
付加	-11.0739
Pe	-11.0742
噴	-11.0742
コミ	-11.0742
は存在しない	-11.0743
月からは	-11.0743
ピンク	-11.0745
移管	-11.0747
するとともに	-11.0748
爆撃機	-11.0749
ロビン	-11.075
三島	-11.0752
反射	-11.0752
ica	-11.0754
英語で	-11.0755
傍ら	-11.0758
千代	-11.0759
早期	-11.0759
ジェネ	-11.0759
埼玉	-11.076
様に	-11.0761
セックス	-11.0761
珍	-11.0761
BGM	-11.0765
▁1982	-11.0765
永禄	-11.0766
シエ	-11.0766
マレーシア	-11.0766
狭い	-11.0768
スポ	-11.0769
認められた	-11.077
径	-11.0771
もあったが	-11.0771
ヴィッ	-11.0772
期には	-11.0773
を採用している	-11.0773
ビーム	-11.0773
mon	-11.0774
トゥス	-11.0775
PP	-11.0775
発症	-11.0775
LL	-11.0777
一般県道	-11.0778
引き継がれ	-11.0778
結果的に	-11.0779
▁出典	-11.0779
ニエ	-11.078
ボイ	-11.0781
水曜	-11.0782
ice	-11.0785
ものではない	-11.0785
。1996	-11.0785
が完成し	-11.0785
の多くが	-11.0788
県立	-11.079
重視	-11.0792
拾	-11.0794
牝馬	-11.0796
ran	-11.0796
大きさ	-11.0797
隠し	-11.0798
監督に就任	-11.0799
再放送	-11.08
ect	-11.0804
獲	-11.0806
次官	-11.0809
キリスト	-11.081
めい	-11.0813
あわせて	-11.0815
レスリング	-11.0817
きり	-11.082
を目指して	-11.082
ヴィア	-11.0821
ぐん	-11.0824
リッツ	-11.0824
開局	-11.0826
学んだ	-11.0827
事実上の	-11.0828
が起き	-11.0833
を加え	-11.0834
○○	-11.0835
統括	-11.0835
復元	-11.0836
を止め	-11.0836
母音	-11.0837
力学	-11.0838
短期間	-11.0838
これも	-11.0839
に触れ	-11.084
とみなされ	-11.0841
代表取締役	-11.0841
充実	-11.0842
157	-11.0842
に登場した	-11.0843
を書き	-11.0843
グレート	-11.0846
クーデター	-11.0847
もっと	-11.0847
ern	-11.0849
亡	-11.0849
ny	-11.0851
テキスト	-11.0854
偶然	-11.0854
京阪	-11.0855
専門は	-11.0856
本町	-11.0859
無限	-11.0859
フォース	-11.0859
橘	-11.0862
音楽院	-11.0862
据え	-11.0863
度々	-11.0863
柔	-11.0864
仕組み	-11.0866
販売されている	-11.0868
仮名	-11.087
行い	-11.087
ign	-11.087
窮	-11.0871
日本でも	-11.0872
タカ	-11.0876
接続する	-11.0876
準々決勝	-11.0877
シドニー	-11.0879
ファイター	-11.0879
ニウム	-11.088
を考える	-11.088
利用される	-11.0884
王立	-11.0884
以下のように	-11.0885
関わり	-11.0885
大聖堂	-11.0887
ラード	-11.0888
本国	-11.089
十分	-11.089
できるように	-11.0892
豊田	-11.0893
田川	-11.0893
。1970	-11.0894
ひら	-11.0895
大ヒット	-11.0896
隠居	-11.0898
監査	-11.0898
が実施され	-11.0899
設けられ	-11.09
住所	-11.0902
デビューした	-11.0903
ハリウッド	-11.0905
タケ	-11.0906
三木	-11.0907
従って	-11.0912
で構成される	-11.0913
を満たす	-11.0915
メカ	-11.0916
port	-11.0922
場合が多い	-11.0923
内陸	-11.0923
ロープ	-11.0923
輩出	-11.0925
換え	-11.0926
か所	-11.0929
を継続	-11.0929
を決める	-11.0929
ユダヤ	-11.093
設立した	-11.0932
対称	-11.0932
su	-11.0933
出身者	-11.0936
のではないか	-11.0938
したことから	-11.0939
トニー	-11.094
2.5	-11.0941
切った	-11.0942
この年の	-11.0944
でありながら	-11.0945
正義	-11.0945
人口約	-11.0945
は基本的に	-11.0947
不安定	-11.095
することが可能	-11.0954
使われていた	-11.0956
そば	-11.0959
その時	-11.096
を学んだ	-11.096
ya	-11.0961
ブライアン	-11.0961
ial	-11.0962
も見られる	-11.0962
人々は	-11.0962
切る	-11.0966
ave	-11.0968
を考慮し	-11.0968
有限	-11.0968
に出演した	-11.0969
州都	-11.097
とりわけ	-11.0971
電流	-11.0972
藍	-11.0973
消費者	-11.0973
住友	-11.0973
プロ入り	-11.0974
させている	-11.0974
飲み	-11.0975
踊	-11.0976
を表明した	-11.0977
盆地	-11.0977
電化	-11.0978
胎	-11.0984
アマ	-11.0986
の向上	-11.0986
という名前	-11.0988
強度	-11.0988
帆	-11.0989
役割を果たし	-11.0989
サウ	-11.0991
要件	-11.0993
欄	-11.0995
ear	-11.0995
、1977	-11.0996
ツァー	-11.0998
性的	-11.0998
冷却	-11.0999
を知った	-11.1
講義	-11.1002
検定	-11.1002
朝日新聞	-11.1002
新作	-11.1002
CG	-11.1003
と称する	-11.1003
が続いた	-11.1003
並み	-11.1004
喫	-11.1006
紛	-11.1009
再開発	-11.1009
狼	-11.1011
立法	-11.1012
ree	-11.1014
決して	-11.1015
わなかった	-11.1017
唄	-11.1018
行使	-11.1019
舌	-11.1022
作られ	-11.1023
タウ	-11.1023
特異	-11.1024
そうした	-11.1025
レナ	-11.1026
制約	-11.1027
があること	-11.103
隙	-11.1032
LIVE	-11.1032
ネク	-11.1032
柴	-11.1033
かつて存在した	-11.1034
支払い	-11.1034
食い	-11.1034
推測	-11.1035
キャプテン	-11.1035
衝	-11.1037
隈	-11.1038
缶	-11.1038
山下	-11.1039
イースト	-11.1041
道場	-11.1043
空手	-11.1044
ハンド	-11.1044
プロセッサ	-11.1045
帰国後	-11.1045
次男	-11.1047
を目的とした	-11.1047
アーノ	-11.1047
彫	-11.1049
にも関わらず	-11.1049
開催され	-11.1052
EU	-11.1053
が存在した	-11.1057
新聞社	-11.1059
世界観	-11.1061
lu	-11.1062
を再	-11.1063
交響楽団	-11.1064
と主張した	-11.1064
正確な	-11.1065
大学名誉教授	-11.1068
ジング	-11.1069
南米	-11.107
カントリー	-11.107
排出	-11.107
燃焼	-11.1071
を流れる	-11.1071
お笑い	-11.1072
赴	-11.1072
目撃	-11.1073
ワール	-11.1073
靴	-11.1075
▁Be	-11.1078
OVA	-11.1078
レビュー	-11.1078
レーター	-11.1079
坂本	-11.1079
ウラ	-11.1081
番人気	-11.1084
du	-11.1084
鍛	-11.1085
ディーン	-11.1085
かけて	-11.1085
県にある	-11.1086
顎	-11.1086
が運営する	-11.1088
石井	-11.1088
下位	-11.1091
アーケード	-11.1091
都心	-11.1093
YA	-11.1096
浴び	-11.1097
撃墜	-11.1099
著名	-11.1099
▁個人成績	-11.11
HC	-11.1102
ぶつ	-11.1102
スペイン語	-11.1103
るよう	-11.1103
地獄	-11.1103
ゲージ	-11.1105
概ね	-11.1105
札幌市	-11.1106
妊娠	-11.1106
記す	-11.1106
mer	-11.1108
烈な	-11.1108
部分に	-11.1109
没した	-11.1112
ium	-11.1113
ガム	-11.1114
市役所	-11.1118
返す	-11.1119
どれ	-11.1123
小笠原	-11.1123
推移	-11.1125
併せて	-11.1127
ッキ	-11.1128
数百	-11.1128
バス停	-11.113
東芝	-11.1131
日をもって	-11.1132
鶏	-11.1133
職務	-11.1135
編集者	-11.1136
天文台	-11.1136
チェンジ	-11.1137
すべく	-11.1137
大いに	-11.1138
することにより	-11.1139
宮城	-11.114
クイーン	-11.1142
がなされ	-11.1145
リッジ	-11.1148
利用されている	-11.1152
を開始する	-11.1153
Sh	-11.1155
ってしまう	-11.1156
本格	-11.1156
伝達	-11.1163
から構成され	-11.1164
ラート	-11.1168
南西部	-11.1169
09	-11.117
広報	-11.1171
仙台市	-11.1172
位を記録	-11.1173
臼	-11.1176
セーブ	-11.1177
と考えた	-11.1177
so	-11.1178
クリスティ	-11.1179
RT	-11.118
集会	-11.118
曾	-11.118
プロテスタント	-11.1181
パーティー	-11.1181
困	-11.1181
取り組み	-11.1182
を生かし	-11.1182
るまで	-11.1183
MB	-11.1186
gen	-11.1186
奨励	-11.1187
らん	-11.1187
残されている	-11.1188
垂直	-11.1189
尽く	-11.1194
北条	-11.1194
現役引退	-11.1198
大学卒業後	-11.1199
景観	-11.1199
もちろん	-11.12
サンダー	-11.1202
pa	-11.1203
テオ	-11.1204
動機	-11.1204
設置された	-11.1205
提	-11.1206
公爵	-11.1207
これに対して	-11.1208
年連続で	-11.1209
延期	-11.1211
pi	-11.1212
野球部	-11.1214
棲	-11.1216
てくる	-11.1217
外国語	-11.122
気持ち	-11.122
を失い	-11.122
を開設	-11.1221
ふじ	-11.1221
安全保障	-11.1223
連載された	-11.1224
どり	-11.1224
を意味し	-11.1227
尉	-11.1227
朴	-11.1228
二軍	-11.1229
ぞう	-11.1229
たけ	-11.1229
Le	-11.1232
貌	-11.1236
さか	-11.1236
チャンピオンシップ	-11.1237
終わった	-11.1237
違法	-11.1237
ys	-11.1238
法的	-11.124
予防	-11.124
検証	-11.1241
日本海	-11.1241
恐	-11.1242
鞭	-11.1244
UM	-11.1245
月下旬	-11.1246
に似た	-11.1247
集め	-11.1247
無人	-11.1248
透明	-11.1248
▁1981	-11.1251
中盤	-11.1251
不良	-11.1251
pro	-11.1252
TER	-11.1253
初優勝	-11.1253
とても	-11.1257
募	-11.126
事から	-11.126
福岡市	-11.1261
鹿島	-11.1262
抑	-11.1263
デュー	-11.1263
学び	-11.1265
揚げ	-11.1267
野生	-11.1267
ワークス	-11.1268
1901	-11.1269
線の駅である	-11.1271
ユーゴスラビア	-11.1275
を制し	-11.1276
機材	-11.1282
が施され	-11.1284
ボルト	-11.1284
イリ	-11.1285
去った	-11.1286
キリ	-11.129
tu	-11.1291
用いる	-11.1293
量子	-11.1293
が含まれる	-11.1295
ound	-11.1296
net	-11.1297
ニューヨーク州	-11.1298
第二次世界大戦中	-11.1299
体育館	-11.13
拘束	-11.13
リバー	-11.13
ust	-11.13
テレビ放送	-11.1301
横浜市	-11.1306
市販	-11.1307
幼少	-11.1308
火曜	-11.131
討伐	-11.1312
に出場した	-11.1313
▁1979	-11.1315
ドラえもん	-11.1317
のほかに	-11.1317
シカ	-11.1318
取り付け	-11.1318
招集	-11.1319
老朽化	-11.1321
とする説	-11.1322
ダーク	-11.1324
れい	-11.1325
保障	-11.1325
ドライ	-11.1325
職人	-11.1325
キム	-11.1326
然と	-11.1327
1898	-11.1327
を訴え	-11.1329
Mar	-11.1329
浅草	-11.1331
感謝	-11.1333
新設された	-11.1334
FIFA	-11.1336
をかけて	-11.1338
平行	-11.1338
TD	-11.1338
スクリーン	-11.134
多くは	-11.134
知られた	-11.1341
フェイ	-11.1341
yl	-11.1346
呼吸	-11.1347
クラン	-11.135
特撮	-11.1351
遭遇	-11.1351
に改名	-11.1353
のなかで	-11.1357
見方	-11.1358
車庫	-11.136
定められた	-11.136
多用	-11.1361
ans	-11.1361
考古学	-11.1367
この事件	-11.1368
実家	-11.1368
が起こり	-11.1369
殺された	-11.1369
鳥類	-11.1369
死ぬ	-11.1372
読む	-11.1373
出口	-11.1377
航空隊	-11.1377
と考える	-11.1379
コンテナ	-11.138
喪失	-11.1381
出店	-11.1381
だけではなく	-11.1381
する際	-11.1382
日米	-11.1382
出る	-11.1383
在任	-11.1385
教養	-11.1385
07	-11.1386
Sa	-11.1387
過程で	-11.1388
送られ	-11.1389
を備えた	-11.1391
GB	-11.1391
領地	-11.1391
ショット	-11.1391
tic	-11.1392
日野	-11.1394
されておらず	-11.1399
親交	-11.14
専属	-11.1401
中学生	-11.1401
に出場し	-11.1402
がなされた	-11.1402
られず	-11.1404
を収め	-11.1405
セス	-11.1407
セガ	-11.1408
所得	-11.1408
することもある	-11.1409
気圧	-11.141
半ば	-11.1411
法務	-11.1416
駿	-11.142
スティック	-11.142
渋	-11.142
描いた	-11.1421
小田原	-11.1421
HI	-11.1422
ではないか	-11.1422
ポケット	-11.1422
瞬間	-11.1423
外見	-11.1425
そのほか	-11.1429
脅威	-11.1429
ラック	-11.143
168	-11.1431
に出る	-11.1432
正式名称	-11.1433
オイル	-11.1433
大尉	-11.1434
を支持し	-11.1434
学校法人	-11.1436
BR	-11.1437
予告	-11.1437
データベース	-11.1439
賛成	-11.1439
バイク	-11.1443
ホンダ	-11.1446
全身	-11.1447
民主主義	-11.1449
安倍	-11.1453
ven	-11.1456
ach	-11.1456
精度	-11.1459
▁mi	-11.1459
を建設し	-11.1462
で死去	-11.1462
正確に	-11.1466
藤田	-11.1466
rt	-11.1466
演習	-11.1467
窓口	-11.1468
ite	-11.1468
Japan	-11.147
おい	-11.1476
トール	-11.148
短く	-11.1481
使用した	-11.1481
完結	-11.1483
策定	-11.1484
ヴィチ	-11.1486
熱心	-11.1486
野菜	-11.1488
ないもの	-11.1488
厚生	-11.1491
が発表され	-11.1492
ーニャ	-11.1493
全部	-11.1495
晶	-11.1495
づくり	-11.1497
定員	-11.1497
ner	-11.1498
野田	-11.1498
兵力	-11.1499
ヴェネツィア	-11.15
ペルシア	-11.15
先住民	-11.15
たびたび	-11.1503
述べた	-11.1503
動詞	-11.1503
弱い	-11.1504
釈放	-11.1504
適切な	-11.1506
得る	-11.1506
拘	-11.1508
失われ	-11.1511
ダメージ	-11.1513
関節	-11.1513
ダニエル	-11.1516
を演じた	-11.152
の基礎自治体	-11.1523
AND	-11.1526
乗降	-11.1527
歌謡	-11.1528
渓	-11.153
捜索	-11.153
ニコラ	-11.1532
sch	-11.1533
コンクリート	-11.1533
高知	-11.1534
は既に	-11.1534
同行	-11.1535
労働組合	-11.1535
透	-11.1539
強調	-11.154
契約を結んだ	-11.1542
JAPAN	-11.1544
教区	-11.1544
慶応	-11.1549
学長	-11.1549
学博士	-11.1554
この際	-11.1554
神田	-11.1555
貨幣	-11.1557
0.0	-11.1557
走る	-11.1558
チャンス	-11.156
種子	-11.1561
安政	-11.1562
フュー	-11.1562
tion	-11.1562
皇太子	-11.1563
下記	-11.1565
主流	-11.1566
載せ	-11.1567
損失	-11.1572
河原	-11.1575
ベンチ	-11.1578
幡	-11.1579
mp	-11.158
以内	-11.158
を結成し	-11.1581
演算	-11.1581
じょ	-11.1581
砲兵	-11.1583
照明	-11.1584
藩士	-11.1589
合唱	-11.159
右翼	-11.1592
配下	-11.1592
されることになった	-11.1594
も参照	-11.1594
を担う	-11.1595
被災	-11.1595
に迎え	-11.1599
妖怪	-11.1602
栄え	-11.1604
アントニオ	-11.1606
を送る	-11.1607
逮捕された	-11.1607
血液型	-11.1609
残された	-11.1609
▁1950	-11.1611
呼びかけ	-11.1612
マツ	-11.1612
159	-11.1616
神殿	-11.1619
初戦	-11.162
天井	-11.1622
ロシア語	-11.1625
放送される	-11.1627
日本国内で	-11.1628
近藤	-11.1629
実質的に	-11.1634
具体的な	-11.1635
バク	-11.1635
プリント	-11.1636
三重	-11.1636
gi	-11.1637
ギタリスト	-11.1637
商店	-11.1639
呼ぶ	-11.164
350	-11.1641
相模	-11.1643
を押し	-11.1643
ラーズ	-11.1648
最適	-11.1648
航空会社	-11.1649
かかった	-11.165
ライナー	-11.165
科目	-11.1655
謝	-11.1657
が出る	-11.1659
ペース	-11.1659
角度	-11.1662
にほん	-11.1662
定めた	-11.1664
アメリカでは	-11.1665
番地	-11.1667
大学文学部	-11.1668
科学者	-11.1669
果実	-11.167
礁	-11.1671
が描かれている	-11.1671
▁To	-11.1671
反撃	-11.1672
フォール	-11.1673
讃	-11.1674
グラー	-11.1676
(2010	-11.1678
うこと	-11.1683
が開発した	-11.1684
アリーナ	-11.1684
所長	-11.1685
今まで	-11.1687
後藤	-11.1688
方面へ	-11.1693
コリン	-11.1693
を切り	-11.1694
リヤ	-11.1697
投与	-11.1697
ーラ	-11.1697
玩具	-11.1698
ence	-11.1699
門下	-11.1699
スケ	-11.1701
していたこと	-11.1702
ボブ	-11.1702
少佐	-11.1703
大統領選挙	-11.1705
ホイール	-11.1708
鉛	-11.1708
学科卒業	-11.1709
回答	-11.171
取扱	-11.1711
標本	-11.1711
技師	-11.1714
こうとうがっこう	-11.1716
推理	-11.1716
を立ち上げ	-11.1716
注釈	-11.1718
大日本	-11.172
月曜	-11.1722
識別	-11.1723
Ju	-11.1723
徐	-11.1723
徳川家	-11.1725
アルゴリズム	-11.1726
ツイン	-11.1727
民営化	-11.1728
が出た	-11.1729
代行	-11.1734
対空	-11.1734
患	-11.1741
1899	-11.1741
ブリン	-11.1742
SK	-11.1742
代表取締役社長	-11.1744
さわ	-11.1745
党首	-11.1748
れず	-11.1749
米ドル	-11.1751
郡内	-11.1753
までの間	-11.1753
除去	-11.1753
遺伝	-11.1755
っこ	-11.1756
スパー	-11.1759
sk	-11.1762
取り上げ	-11.177
Jo	-11.177
セントラル	-11.177
カ国	-11.1772
que	-11.1772
砂漠	-11.1772
室町時代	-11.1773
連合会	-11.1773
04	-11.1773
マイン	-11.1775
ドイツ人	-11.1775
に専念	-11.1777
習慣	-11.1779
わかる	-11.1779
str	-11.1779
ピエール	-11.1779
バルブ	-11.1779
ったもの	-11.1781
コロン	-11.1782
知名度	-11.1784
ユニバーサル	-11.1784
与え	-11.1785
電磁	-11.1787
ビジョン	-11.1788
形成された	-11.1791
越後	-11.1794
が困難	-11.1797
に戻って	-11.1798
うまく	-11.1805
を図った	-11.1807
親衛隊	-11.1807
家康	-11.1807
偶	-11.181
敵対	-11.181
ヨハネ	-11.1813
のひとつである	-11.1815
▁Mar	-11.1816
1871	-11.1817
ベア	-11.182
詳しく	-11.1823
カレ	-11.1824
表示される	-11.1825
のもとに	-11.1827
朝日放送	-11.1827
牧師	-11.1828
1896	-11.1829
Vol	-11.1829
発祥	-11.183
ロボ	-11.1832
不要	-11.1834
運命	-11.1836
言われ	-11.184
るようになる	-11.1841
World	-11.1842
水中	-11.1843
はかつて	-11.1843
|	-11.1843
は少ない	-11.1844
大量に	-11.1844
福田	-11.1844
高崎	-11.1845
青春	-11.1845
本形式	-11.1856
ier	-11.1856
編集長	-11.1856
倶楽部	-11.1857
降板	-11.1857
批評家	-11.1861
タキ	-11.1861
説明する	-11.1862
-12	-11.1863
360	-11.1863
ワース	-11.1863
適応	-11.1863
と思われ	-11.1864
蜂起	-11.1865
っていった	-11.1867
近代化	-11.1867
二つ	-11.1867
が起こった	-11.1867
学区	-11.1868
位を獲得	-11.1869
試合に出場し	-11.1871
dy	-11.1872
制定された	-11.1872
チャイ	-11.1872
それ以降	-11.1875
テール	-11.1878
っち	-11.1879
満足	-11.188
156	-11.188
公務員	-11.188
胴体	-11.188
革新	-11.1881
1897	-11.1882
CP	-11.1883
FE	-11.1885
猟	-11.1885
個々の	-11.1886
エコ	-11.1886
信者	-11.1887
単一	-11.1887
らと共に	-11.1889
診療	-11.189
まつり	-11.1893
を使用して	-11.1897
GS	-11.1899
を設立した	-11.19
公式に	-11.19
陣営	-11.1902
1,2	-11.1903
ナビ	-11.1903
が残っている	-11.1905
豊かな	-11.1906
を唱え	-11.1907
これに対し	-11.1908
学士	-11.1909
ISO	-11.191
経営者	-11.191
新しく	-11.191
マドリード	-11.1913
厩舎	-11.1913
種別	-11.1914
無効	-11.1918
することによって	-11.192
農村	-11.1921
芝居	-11.1921
品川	-11.1924
突破	-11.1925
東海道	-11.1926
トップチーム	-11.1929
繁栄	-11.193
麓	-11.1936
北軍	-11.1936
が搭載され	-11.1938
ことが明らか	-11.1939
利用可能	-11.1941
異なり	-11.1942
単なる	-11.1943
を掛け	-11.1944
協奏曲	-11.1948
小学生	-11.1948
倉庫	-11.1949
世紀から	-11.195
にそれぞれ	-11.1953
実質	-11.1955
は中華人民共和国	-11.1956
を執筆	-11.1956
土壌	-11.196
増加した	-11.196
落下	-11.196
hy	-11.1961
起訴	-11.1962
日本映画	-11.1964
大使館	-11.1964
テキサス	-11.1964
なのか	-11.1966
を誇る	-11.1966
▁Pr	-11.1967
を訪れた	-11.1968
逸話	-11.1969
階建て	-11.1971
タラ	-11.1973
元素	-11.1973
突撃	-11.1975
乗車券	-11.1975
最強	-11.1976
視聴	-11.1976
イタリア共和国	-11.1976
救出	-11.1977
開催されている	-11.1978
ミラノ	-11.1978
繰り返し	-11.1979
現在に至る	-11.1983
海底	-11.1984
神奈川	-11.1984
機関銃	-11.1985
出来た	-11.1986
研究科	-11.1987
は比較的	-11.1987
サウルス	-11.1988
先進	-11.1988
発売元は	-11.1988
競輪	-11.1989
に就任し	-11.1989
撃沈	-11.199
と思い	-11.199
と比較して	-11.1992
じゅ	-11.1994
和解	-11.1995
いつも	-11.1996
中東	-11.1996
疎	-11.1998
ザクセン	-11.1998
肉体	-11.1999
町立	-11.1999
を目的として	-11.2
友好	-11.2002
京成	-11.2004
安価	-11.2005
正体	-11.2006
発動	-11.2009
貨車	-11.2009
債務	-11.2009
ッシング	-11.2012
貫通	-11.2012
不思議	-11.2012
盛岡	-11.2012
所有者	-11.2012
ものが多い	-11.2019
和歌山	-11.2019
最終回	-11.2021
▁利用状況	-11.2021
皇子	-11.2022
まっている	-11.2022
と呼称	-11.2023
浦和	-11.2024
骨折	-11.2024
TT	-11.2024
改訂	-11.2035
ザル	-11.2036
ood	-11.2036
▁1972	-11.2036
▁Se	-11.2038
ラッシュ	-11.204
野党	-11.204
合流する	-11.2042
の影響を受け	-11.2043
並行	-11.2044
を発見した	-11.2044
つもり	-11.2044
歳から	-11.2044
南軍	-11.2045
夏季	-11.2048
ウエスト	-11.205
大井	-11.2051
出雲	-11.2051
ART	-11.2056
ラーメン	-11.2056
ev	-11.206
増強	-11.206
ピック	-11.206
決戦	-11.2061
区にある	-11.2062
閲覧	-11.2063
分かれ	-11.2063
_2	-11.2064
▁Con	-11.2067
SHI	-11.2069
情勢	-11.207
首長	-11.2071
優位	-11.2072
を残す	-11.2072
ヨーク	-11.2075
支給	-11.2075
評議会	-11.2076
東南アジア	-11.2076
著しく	-11.2078
普段	-11.208
謝罪	-11.208
次いで	-11.2081
独裁	-11.2081
が無く	-11.2082
に使われる	-11.2082
老人	-11.2086
葬儀	-11.2086
沿いに	-11.2087
ピュ	-11.2089
と比べて	-11.209
大学法学部	-11.209
流入	-11.2091
話す	-11.2092
簡単に	-11.2093
を卒業し	-11.2093
が主流	-11.2095
歳のとき	-11.2097
サウンドトラック	-11.2098
索	-11.2099
使者	-11.21
頂点	-11.2101
番艦	-11.2104
アンダー	-11.2105
ことによる	-11.2107
国際連合	-11.2108
ッソ	-11.2108
論じ	-11.2108
らせる	-11.2109
められ	-11.2111
済み	-11.2113
乏	-11.2119
ウィー	-11.212
錯	-11.212
をとった	-11.2122
町域	-11.2123
アンテナ	-11.2124
法廷	-11.2124
ものだ	-11.2127
Me	-11.2127
アメリカ人	-11.2128
とくに	-11.2128
せき	-11.2129
批評	-11.2129
迎えた	-11.2131
西ドイツ	-11.2131
カトリック教会	-11.2132
家系	-11.2133
名誉教授	-11.2133
設定されている	-11.2136
サンデー	-11.2136
を続ける	-11.2138
が収録されている	-11.2142
開戦	-11.2144
東日本大震災	-11.2147
音響	-11.2147
ッサー	-11.2147
国民党	-11.2149
なくても	-11.215
すぎる	-11.2155
に掲載された	-11.2155
フィクション	-11.2156
広大な	-11.2156
成功を収め	-11.2164
old	-11.2169
島根県	-11.2169
疑い	-11.2174
したもので	-11.2175
文政	-11.2177
教科書	-11.2178
▁[	-11.218
和歌	-11.218
誤り	-11.2183
宮崎県	-11.2183
財団法人	-11.2184
作曲した	-11.2184
アンナ	-11.2189
くなった	-11.219
の一種である	-11.2191
創業者	-11.2192
1868	-11.2193
NET	-11.2194
得票	-11.2195
マウント	-11.2197
に終わり	-11.2199
最高位	-11.2199
ゾー	-11.2199
造り	-11.22
オールスター	-11.2201
決勝戦	-11.2201
バラエティ	-11.2201
に面し	-11.2204
を収録した	-11.2205
リレー	-11.2208
曖昧さ回避	-11.2209
てくれる	-11.2212
管理者	-11.2212
まとめた	-11.2213
エミ	-11.2215
没後	-11.2216
阿部	-11.2219
山中	-11.222
ましい	-11.2224
サーキット	-11.2224
トマス	-11.2224
ちゅうがっこう	-11.2228
語っている	-11.2235
03	-11.2236
に含まれ	-11.2236
に立つ	-11.2237
レオン	-11.2238
ib	-11.2239
国産	-11.2239
NK	-11.2239
太字	-11.2241
活性	-11.2241
を行わ	-11.2242
OW	-11.2243
審議	-11.2243
弾薬	-11.2246
収益	-11.2247
3,000	-11.2247
交戦	-11.2248
しやすい	-11.225
ath	-11.2251
自由民主党	-11.2252
ウィリアムズ	-11.2254
最小	-11.2258
記載されている	-11.2259
台頭	-11.2259
▁登場人物	-11.226
という名	-11.226
最初は	-11.226
号車	-11.2262
停車する	-11.2263
レジ	-11.2263
芸術家	-11.2263
PV	-11.2263
光学	-11.2264
毎に	-11.2265
も行っている	-11.2266
姫路	-11.2267
セリエ	-11.2268
されていなかった	-11.2269
メリー	-11.227
ミックス	-11.227
寄与	-11.2272
gu	-11.2273
未だ	-11.2273
川沿い	-11.2274
封じ	-11.2274
に乗って	-11.2276
べる	-11.2276
影響を受けた	-11.2277
くま	-11.2277
傾斜	-11.2277
勧	-11.2279
異なっている	-11.2279
グマ	-11.2282
pl	-11.2283
過剰	-11.2283
セカンド	-11.2286
▁di	-11.2287
曜	-11.2287
理事会	-11.2288
寛政	-11.229
旗艦	-11.2291
ピオ	-11.2291
日本の元	-11.2293
小学館	-11.2293
に着手	-11.2295
されてしまう	-11.2295
物体	-11.2296
グローバル	-11.2296
アンリ	-11.2301
木材	-11.2302
日本海軍	-11.2304
番目	-11.2305
1600	-11.2305
シフト	-11.231
認証	-11.2311
採択	-11.2313
▁脚注	-11.2314
出場機会	-11.2314
この番組	-11.2315
UC	-11.2317
展望	-11.2318
東武	-11.2318
この試合	-11.2318
my	-11.2322
潜水	-11.2322
この時点で	-11.2323
仮想	-11.2324
に変え	-11.2326
経由で	-11.2328
警察官	-11.2328
nc	-11.2328
相次いで	-11.233
メニュー	-11.2331
ドッグ	-11.2331
フスキー	-11.2331
カワ	-11.2332
っぱ	-11.2335
乗務員	-11.2335
開幕戦	-11.2337
荷物	-11.234
ガメ	-11.2341
を繰り広げ	-11.2343
最後まで	-11.2343
ジル	-11.2343
以内に	-11.2344
ーネ	-11.2344
を提供し	-11.2344
ジェフ	-11.2345
1870	-11.2345
の中心地	-11.2349
ゥ	-11.235
行政区画	-11.2351
コレ	-11.2352
と称され	-11.2354
her	-11.2354
起こる	-11.2355
厳しく	-11.2357
はかなり	-11.2359
無理	-11.2359
が生じる	-11.236
に努め	-11.2361
留め	-11.2362
ゅ	-11.2363
開始された	-11.2365
ake	-11.2365
優勝を果たした	-11.2368
System	-11.2369
ホームページ	-11.2371
リヒ	-11.2371
MG	-11.2371
視覚	-11.2374
タク	-11.2374
相違	-11.2376
を重視し	-11.2385
集まり	-11.2387
親友	-11.2389
分間	-11.239
テック	-11.2395
リトル	-11.2396
単純な	-11.2396
食用	-11.2396
貧困	-11.2398
を置き	-11.2399
敢	-11.2399
フェイス	-11.24
行っていた	-11.2402
シロ	-11.2402
日の対	-11.2402
声明	-11.2404
体操	-11.2405
メアリー	-11.2407
を施し	-11.2411
こちらは	-11.2417
斜	-11.2417
ストレート	-11.2419
伏見	-11.242
を参照のこと	-11.2422
氏族	-11.2423
理念	-11.2423
ずる	-11.2427
年時点で	-11.2429
マウス	-11.2437
ガーデン	-11.2437
スケール	-11.2438
なき	-11.2439
戯	-11.2439
列島	-11.2443
注目を集め	-11.2448
ロジャー	-11.2448
祈	-11.2449
プラザ	-11.2449
庶民	-11.2451
マンガ	-11.2452
で行う	-11.2452
続いている	-11.2455
中華	-11.2456
並行して	-11.2457
をとり	-11.2461
▁以下は	-11.2463
援	-11.2463
日立	-11.2463
に続いて	-11.2463
エウ	-11.2466
飯田	-11.2469
馬力	-11.247
母体	-11.2471
王妃	-11.2471
つながる	-11.2473
題材	-11.2474
ウリ	-11.2474
政務	-11.2475
朝鮮半島	-11.2478
マーケット	-11.2479
使える	-11.2484
1880	-11.2485
映画館	-11.2486
が用意され	-11.2487
ris	-11.2487
8000	-11.2489
を要する	-11.2489
ser	-11.2489
佐世保	-11.2492
が形成され	-11.2493
own	-11.2494
アシスト	-11.2496
逮捕され	-11.2496
南東部	-11.2497
天神	-11.2498
売れ	-11.2499
世界的に	-11.2499
○	-11.2499
と思って	-11.2501
天下	-11.2501
セッション	-11.2503
My	-11.2504
起き	-11.2505
把握	-11.2505
青木	-11.2509
墜落	-11.2511
ブルック	-11.2511
擁立	-11.2512
リメイク	-11.2512
一貫	-11.2513
-16	-11.2514
出荷	-11.2515
ない場合	-11.2515
1895	-11.2517
として生まれた	-11.252
として知られている	-11.2521
ヶ所	-11.2521
CF	-11.2522
死体	-11.2522
参議院	-11.2523
中立	-11.2524
ドウ	-11.2525
婦人	-11.2529
ブール	-11.253
長谷川	-11.2533
らとともに	-11.2533
プレミアム	-11.2534
銀メダル	-11.2538
マニア	-11.2542
実戦	-11.255
cl	-11.255
流出	-11.2551
ray	-11.2553
干渉	-11.2555
浮上	-11.2556
化されている	-11.2557
出入口	-11.256
ニズム	-11.2561
が成立した	-11.2562
格納	-11.2567
特色	-11.2567
同作	-11.2568
lan	-11.2571
ベースボール	-11.2571
を派遣し	-11.2571
VS	-11.2574
PL	-11.2575
は無く	-11.2578
歯科	-11.2581
彼に	-11.2582
工芸	-11.2587
を伴う	-11.2587
高知県	-11.2588
市域	-11.2589
ノア	-11.2589
されることとなった	-11.2589
成功した	-11.259
現役を引退	-11.2592
還元	-11.2593
償	-11.2593
個性	-11.2595
捕獲	-11.2595
チェロ	-11.2599
に指定された	-11.2601
SR	-11.2601
した結果	-11.2602
ているため	-11.2604
ドメイン	-11.2605
渓谷	-11.2605
ブライ	-11.2609
と語った	-11.2609
含む	-11.2609
超人	-11.261
利点	-11.261
歌い	-11.2611
好み	-11.2612
胞	-11.2614
さら	-11.2615
塗り	-11.2615
ペルー	-11.2616
気動車	-11.2617
を挟んで	-11.2618
曽	-11.2618
箱根	-11.2618
ヘリ	-11.2619
序盤	-11.2619
遠く	-11.2619
稼働	-11.2621
倫	-11.2621
貴族院	-11.2622
ソール	-11.2623
ュ	-11.2627
クリーム	-11.2627
ていたこと	-11.2631
bu	-11.2631
に転向	-11.2632
銀座	-11.2632
キット	-11.2634
受けた	-11.2634
食べる	-11.2638
推奨	-11.2638
nn	-11.2639
コミューン	-11.264
南京	-11.264
前回	-11.2641
倫理	-11.2645
すい	-11.2647
を喫し	-11.2648
思い出	-11.2649
貴重な	-11.2651
LS	-11.2652
無事	-11.2652
阻害	-11.2653
らせた	-11.2657
-00	-11.2658
引き継いだ	-11.2659
ric	-11.2664
MD	-11.2667
大谷	-11.2668
min	-11.267
アテネ	-11.2672
どちらも	-11.2673
スターリン	-11.2673
用水	-11.2673
に任ぜられ	-11.2673
リョ	-11.2674
ae	-11.2674
自分たち	-11.2675
様な	-11.268
替わり	-11.2681
赤軍	-11.2681
排水	-11.2687
上場	-11.2687
再会	-11.2687
働いて	-11.2691
を目的に	-11.2691
一門	-11.2693
廃棄	-11.2693
ame	-11.2696
▁Com	-11.2696
が与えられ	-11.2696
珍しく	-11.2698
ユニオン	-11.2698
Li	-11.2698
シャトル	-11.2698
yn	-11.2699
ざる	-11.27
住む	-11.2703
マジック	-11.2705
覇	-11.2705
本来は	-11.2707
年代前半	-11.2712
戦死した	-11.2714
銅メダル	-11.2714
コッ	-11.2715
高層	-11.2716
コイ	-11.2716
基金	-11.2716
親子	-11.2719
格闘	-11.2723
同地	-11.2724
命じた	-11.2726
師匠	-11.2726
二十	-11.273
ビリー	-11.2732
アドベンチャー	-11.2733
架空の	-11.2735
アトランタ	-11.2736
福山	-11.2737
農家	-11.2737
ook	-11.2741
松田	-11.2742
を目指した	-11.2744
ージュ	-11.2744
に由来し	-11.2745
多様な	-11.2747
烈	-11.2747
イカ	-11.2747
ことが発表された	-11.2748
明石	-11.2748
の一員	-11.2751
グロー	-11.2753
伝えた	-11.2755
崩れ	-11.2756
典型的な	-11.2757
アーサー	-11.2759
役職	-11.2759
シルバー	-11.276
頃まで	-11.276
どんな	-11.2761
ソウ	-11.2763
写本	-11.2763
運転台	-11.277
北条氏	-11.2771
アレク	-11.2771
チック	-11.2774
同型	-11.2774
犠牲	-11.2777
kW	-11.2778
キーボード	-11.2778
保全	-11.2778
出てくる	-11.2779
ホイ	-11.278
オートバイ	-11.2782
永久	-11.2783
判事	-11.2787
年頃から	-11.2788
ブラー	-11.2789
に生息する	-11.2792
微分	-11.2794
MVP	-11.2797
続けていた	-11.2799
6000	-11.2799
支線	-11.28
土木	-11.2805
マック	-11.2806
鳥取県	-11.2809
含め	-11.2809
南端	-11.281
ボクサー	-11.2811
飲料	-11.2811
勢い	-11.2811
貸し	-11.2813
テキサス州	-11.2814
盟	-11.2816
旗本	-11.2816
欠点	-11.2817
総額	-11.2818
マケドニア	-11.2818
ジョイ	-11.2819
公募	-11.2821
が決定した	-11.2822
マーティン	-11.2822
▁生い立ち	-11.2826
ハマ	-11.2826
を超え	-11.2829
Mo	-11.283
残存	-11.2831
横綱	-11.2831
ブン	-11.2832
軽量	-11.2835
という設定	-11.2836
関わって	-11.2838
John	-11.284
に因んで	-11.284
シェー	-11.2842
秩序	-11.2843
と発表した	-11.2845
bi	-11.2845
不定期	-11.2848
日程	-11.2853
同校	-11.2855
預	-11.2858
内外	-11.2862
探査	-11.2862
しておらず	-11.2864
赤色	-11.2864
棋士	-11.2865
再婚	-11.2865
支社	-11.2866
学ぶ	-11.287
プレミアリーグ	-11.2871
スキル	-11.2872
が確認され	-11.2872
瞬	-11.2875
救済	-11.2877
言えば	-11.2881
ピアニスト	-11.2882
の一つとして	-11.2883
オロ	-11.2886
q	-11.2887
ita	-11.2888
バージニア州	-11.2888
であったこと	-11.289
樹立	-11.289
らぬ	-11.2894
建てられ	-11.2895
小泉	-11.2895
に転じ	-11.2897
せよ	-11.29
打席	-11.2902
ピク	-11.2906
ank	-11.2906
遂	-11.2908
バリエーション	-11.2909
工程	-11.2909
並びに	-11.291
警告	-11.2912
ドリー	-11.2913
ウェア	-11.2913
央	-11.2915
賃金	-11.2915
ていき	-11.292
首都圏	-11.2922
ニューヨーク市	-11.2922
入居	-11.2922
ハードウェア	-11.2923
を通って	-11.2923
Ad	-11.2924
上方	-11.2926
試合に登板	-11.2926
高等学校卒業	-11.2928
を攻撃し	-11.2928
sta	-11.2932
トリック	-11.2932
を取った	-11.2936
赤字	-11.2936
誤解	-11.2938
を築いた	-11.294
切断	-11.2942
を越えて	-11.2942
続けて	-11.2943
招き	-11.2944
で敗れ	-11.2945
コモ	-11.2946
ハンター	-11.2947
と合併し	-11.2948
毎月	-11.2948
上述の	-11.2949
ハリー	-11.2951
バカ	-11.2951
船橋	-11.2957
パロディ	-11.2958
望遠鏡	-11.2959
根本	-11.296
幅広く	-11.2963
▁You	-11.2964
審査員	-11.2964
をつける	-11.2966
んでおり	-11.2966
倒産	-11.2967
文法	-11.2968
サント	-11.2969
補償	-11.2969
マルコ	-11.2971
佐野	-11.2974
アーム	-11.2975
パンチ	-11.2975
見直し	-11.2977
生存	-11.2977
台北	-11.2979
伊東	-11.298
メディ	-11.2981
カルロス	-11.2983
Mk	-11.2983
つけられ	-11.2983
教団	-11.2984
cu	-11.2984
勾配	-11.2985
噴火	-11.2986
フェルト	-11.2988
発信	-11.2988
現在まで	-11.2988
理由として	-11.2989
運搬	-11.2989
しまい	-11.2992
研究員	-11.2996
制服	-11.2998
ようになって	-11.3
投球	-11.3
ei	-11.3
rl	-11.3001
を見せる	-11.3002
フランツ	-11.3003
オブジェクト	-11.3004
を与えられ	-11.3005
0.5	-11.3005
本拠	-11.3005
を奪われ	-11.3006
ドック	-11.3012
ハインリヒ	-11.3012
1884	-11.3015
使用できる	-11.3019
しまった	-11.3019
仮説	-11.3019
実際は	-11.3021
浸透	-11.3022
抵	-11.3023
独自に	-11.3024
ベス	-11.3025
tal	-11.3026
一気に	-11.3027
になってから	-11.3029
ire	-11.303
クラーク	-11.303
を高め	-11.3032
こともあって	-11.3034
採掘	-11.3034
といわれ	-11.3034
郷土	-11.3035
再興	-11.3037
およびその	-11.3042
リアス	-11.3045
を歴任した	-11.3047
Be	-11.3048
創始	-11.3048
する方法	-11.3048
と結婚し	-11.3051
軽減	-11.3051
今度は	-11.3054
標識	-11.3055
ウェン	-11.3057
に陥った	-11.3057
起工	-11.306
進展	-11.3062
摂取	-11.3063
Go	-11.3063
に就任する	-11.3065
聖堂	-11.3065
墳	-11.3066
ata	-11.3068
を書いた	-11.3069
......	-11.3069
蒸気機関車	-11.3071
越前	-11.3071
見ることができる	-11.3074
時代劇	-11.3074
パーセント	-11.3074
アイヌ	-11.3074
を介して	-11.3077
4000	-11.3079
荒川	-11.3083
峡	-11.3084
鳥取	-11.3086
OK	-11.3086
植え	-11.3088
川口	-11.3088
に復帰した	-11.3094
国際的な	-11.3094
と称される	-11.3095
尋	-11.3097
てはならない	-11.3099
無視	-11.3101
が行われていた	-11.3102
撤退した	-11.3103
主権	-11.3106
本作品	-11.3106
に編入された	-11.3107
アンティ	-11.3108
背後	-11.3109
名乗り	-11.3111
プリン	-11.3113
マネー	-11.3116
真実	-11.3117
起動	-11.3118
を変更し	-11.3119
を受けていた	-11.312
着工	-11.3121
陸奥	-11.3124
運行されている	-11.3124
奪三振	-11.3126
賊	-11.3128
博士課程	-11.3128
よって	-11.3128
に興味	-11.3129
ベッド	-11.3131
佐賀県	-11.3132
生育	-11.3133
ディスプレイ	-11.3134
2.0	-11.3134
に移った	-11.3135
台詞	-11.3136
ダンサー	-11.3139
を卒業後	-11.3139
鉱物	-11.314
ぐち	-11.314
いす	-11.3142
に残る	-11.3143
同級生	-11.3144
マネジメント	-11.3148
午	-11.3149
失われた	-11.3149
などを歴任	-11.3152
をもたらした	-11.3154
クリスチャン	-11.3158
が掲載され	-11.3159
周囲に	-11.3159
To	-11.3159
1872	-11.3163
作られる	-11.3164
小島	-11.3164
をもたらす	-11.3166
1873	-11.3167
南北に	-11.3167
政界	-11.3168
大学校	-11.3169
どころ	-11.317
育った	-11.3171
ギャグ	-11.3175
企業である	-11.3175
アレクサンドル	-11.3176
※	-11.3176
三丁目	-11.3176
穏	-11.3179
レンタル	-11.3179
掘	-11.3179
あて	-11.318
リッチ	-11.3181
発行された	-11.3182
指令	-11.3182
史上初の	-11.3184
通商	-11.3184
整数	-11.3185
AFC	-11.3186
衰	-11.3186
ade	-11.3186
皇族	-11.3188
幽	-11.3189
懲役	-11.3191
勧告	-11.3194
表明	-11.3197
自動的に	-11.3197
庶	-11.3197
億ドル	-11.3198
シミュレーション	-11.32
文学部	-11.3201
常務	-11.3201
送られた	-11.3202
出品	-11.3203
大久保	-11.3207
1894	-11.3208
が導入され	-11.3208
Mac	-11.3212
いっ	-11.3212
チェス	-11.3214
療養	-11.3216
予定である	-11.3216
デバイス	-11.3217
加熱	-11.3217
ことが可能	-11.3219
していて	-11.3219
位相	-11.3221
本尊	-11.3222
ライアン	-11.3223
粛	-11.3224
京王	-11.3226
で敗れた	-11.3226
マリン	-11.3228
引き上げ	-11.3231
を取得した	-11.3232
平方マイル	-11.3234
されることがある	-11.3234
を発揮し	-11.3237
も含む	-11.3238
ジェリー	-11.324
ざわ	-11.3241
を獲得する	-11.3241
ンブルク	-11.3242
アース	-11.3243
最高裁判所	-11.3243
サハ	-11.3244
起用された	-11.3245
広げ	-11.3247
FW	-11.3247
が得られる	-11.3247
雀	-11.3249
TH	-11.3249
に巻き込まれ	-11.3252
BOX	-11.3252
LOVE	-11.3253
申し出	-11.3253
行なわれた	-11.3255
不動	-11.3255
と並んで	-11.3255
民俗	-11.3255
訪れた	-11.3256
十分に	-11.3256
誰も	-11.3258
アニメ版	-11.3258
くろ	-11.326
dia	-11.3262
呼ばれる	-11.3265
しげ	-11.3266
進水	-11.3269
グッド	-11.3269
会合	-11.327
ファイト	-11.3274
ムスリム	-11.3274
AAA	-11.3275
従五位下	-11.3276
第五	-11.3276
旬	-11.3278
ピエ	-11.3278
を通過し	-11.3279
敦	-11.3279
欠場	-11.3279
ノーベル	-11.328
誇	-11.3282
武蔵野	-11.3282
エレベーター	-11.3285
▁Th	-11.3292
暖	-11.3292
に出走	-11.3293
ジロ	-11.3294
頻度	-11.3294
カメ	-11.3297
と称し	-11.3299
に至って	-11.3301
紙幣	-11.3303
連動	-11.3303
奮	-11.3304
コラボレーション	-11.3306
らしく	-11.3307
線の駅	-11.3308
耐久	-11.3313
軍用	-11.3315
切って	-11.3315
ッテ	-11.3316
チームメイト	-11.3318
宇宙船	-11.3319
機動戦士ガンダム	-11.3322
を余儀なくされた	-11.3324
と見なされ	-11.3326
エビ	-11.3326
合った	-11.3326
裁判官	-11.3328
下院	-11.3329
ピング	-11.333
用品	-11.3331
デッキ	-11.3332
中佐	-11.3335
告白	-11.3336
シーズンには	-11.3336
Linux	-11.3338
に搭載され	-11.3339
準決勝で	-11.3339
ローラ	-11.3343
初当選	-11.3343
工夫	-11.3344
を超えた	-11.3345
薩摩	-11.3347
差異	-11.3351
橋梁	-11.3352
互	-11.3352
すみ	-11.3353
書類	-11.3355
フォワード	-11.3356
ホラー	-11.3357
められた	-11.3357
イニング	-11.3359
するような	-11.336
マウ	-11.336
▁OF	-11.3361
っていく	-11.3362
バブル	-11.3364
終了し	-11.3366
黒田	-11.337
Fe	-11.3372
頼朝	-11.3374
ナレーション	-11.3374
構内	-11.3375
赴任	-11.3376
続けられ	-11.3377
ビート	-11.3378
を占領し	-11.3379
メリット	-11.3379
変異	-11.3379
意義	-11.3379
二度	-11.338
実態	-11.3381
直轄	-11.3381
徳川家康	-11.3381
und	-11.3383
レアル	-11.3384
代わり	-11.3387
ポンプ	-11.3387
高木	-11.3388
障	-11.3388
困難な	-11.3391
他人	-11.3391
フォーマット	-11.3391
安全性	-11.3392
ゲームソフト	-11.3393
1893	-11.3393
コンパクト	-11.3397
特徴的な	-11.3397
ニオン	-11.3398
東アジア	-11.3398
アルミ	-11.3398
ari	-11.3398
ネコ	-11.3399
習得	-11.3399
プレゼント	-11.3401
粒	-11.3403
をかけた	-11.3403
そもそも	-11.3405
係数	-11.3405
なかなか	-11.3406
攻勢	-11.3408
Br	-11.3408
付与	-11.3409
を作って	-11.341
厳密に	-11.341
ボーイング	-11.3412
どちらか	-11.3413
知られていた	-11.3413
に収め	-11.3414
遺構	-11.3414
体力	-11.3415
前進	-11.3419
3-0	-11.342
タービン	-11.3422
プレーヤー	-11.3427
露出	-11.3428
高地	-11.3434
犬種	-11.3434
ONE	-11.3435
混同	-11.3435
志願	-11.3437
へい	-11.3438
ッチャー	-11.3438
客室	-11.3438
最下位	-11.3441
ara	-11.3441
ブレイク	-11.3443
満了	-11.3444
役を演じ	-11.3447
弾圧	-11.3448
太鼓	-11.3449
正室	-11.345
斜面	-11.3451
彰	-11.3452
1885	-11.3453
川水系	-11.3453
それほど	-11.3455
遅く	-11.3455
制圧	-11.3457
所有する	-11.3463
環状	-11.3464
大津	-11.3469
停車場線	-11.347
入賞	-11.3473
ッシャー	-11.3473
撃破	-11.3474
撃退	-11.3474
代数	-11.3474
映画祭	-11.3475
交際	-11.3479
プロレスラー	-11.3479
するようになる	-11.348
分ける	-11.3481
が進み	-11.3481
外務省	-11.3482
アルファ	-11.3484
補強	-11.3485
フード	-11.3486
外野手	-11.3489
を決定した	-11.3489
行政区	-11.3491
車輪	-11.3491
月曜日	-11.3493
と思う	-11.3494
TOKYO	-11.3495
tur	-11.3496
tor	-11.3499
農地	-11.3499
平等	-11.3502
シベリア	-11.3503
に接する	-11.3503
商業施設	-11.3507
des	-11.3507
出身のサッカー選手	-11.3509
多大な	-11.3509
割引	-11.351
定期的に	-11.3511
に対応した	-11.3513
追跡	-11.3515
消化	-11.3515
定住	-11.3517
事前に	-11.3517
侵	-11.3518
センチメートル	-11.3518
に反対し	-11.3523
ムーン	-11.3523
有数の	-11.3523
としての活動	-11.3523
探索	-11.3524
地面	-11.3526
に完成した	-11.3529
どのような	-11.3531
東京帝国大学	-11.3531
主教	-11.3532
稚	-11.3534
金銭	-11.3534
途上	-11.3535
収録曲	-11.3535
をめぐる	-11.3536
ロードレース	-11.3536
ブッシュ	-11.3537
されることが多い	-11.3539
設計された	-11.3541
土器	-11.3541
はならなかった	-11.3542
フォート	-11.3542
ストア	-11.3542
和平	-11.3543
セキュリティ	-11.3544
ファーム	-11.3544
を送った	-11.3545
三条	-11.3546
1886	-11.3549
作動	-11.3549
閣僚	-11.355
マレー	-11.3551
同市	-11.3552
パンク	-11.3558
この年は	-11.3562
生え	-11.3563
台地	-11.3564
フロリダ	-11.3564
他方	-11.3565
鑑賞	-11.3566
様々	-11.3566
系譜	-11.3568
エリック	-11.3569
テクノロジー	-11.3571
に初めて	-11.3571
に発生した	-11.3571
FS	-11.3572
社会学	-11.3572
手続	-11.3574
ずっと	-11.3574
年代初頭	-11.3576
ザール	-11.3577
ゴリ	-11.3578
1891	-11.3578
管制	-11.358
から離れ	-11.3581
祭神	-11.3582
色彩	-11.3587
かかり	-11.3587
津軽	-11.3587
不全	-11.3588
くなり	-11.3593
明確な	-11.3594
回想	-11.3597
生産された	-11.3598
強豪	-11.3605
改築	-11.3606
ここから	-11.3607
牧野	-11.3608
債権	-11.3608
シニア	-11.3608
部位	-11.3609
スラヴ	-11.361
act	-11.361
狩猟	-11.361
忠実	-11.3611
ダール	-11.3612
寿命	-11.3612
lic	-11.3613
全車	-11.3614
幼児	-11.3618
洞窟	-11.3619
爵位	-11.3621
尽	-11.3621
早朝	-11.3622
のりば	-11.3623
といって	-11.3623
本質	-11.3624
津波	-11.3626
3.5	-11.3627
新興	-11.3634
砲弾	-11.3634
免疫	-11.3635
洪	-11.3637
が決まった	-11.3638
自由党	-11.3638
辞退	-11.3639
カレー	-11.364
慢	-11.364
ヴィス	-11.3641
ont	-11.3645
TY	-11.3647
好評	-11.3649
モジュール	-11.365
与党	-11.3651
ことができなかった	-11.3654
リーグ優勝	-11.3657
高校卒業後	-11.366
Fi	-11.366
題名	-11.3663
硫黄	-11.3665
シュタット	-11.3667
に限られ	-11.3667
初頭	-11.3669
拍	-11.367
も含めて	-11.3671
交付	-11.3671
入れ替え	-11.3672
イギリス海軍	-11.3674
回目	-11.3678
松井	-11.3679
尽力	-11.368
間接	-11.3683
出身の元プロ野球選手	-11.3685
総理	-11.3689
順序	-11.369
建造された	-11.3692
防災	-11.3692
アナウンス	-11.3694
ポルノ	-11.3696
リスナー	-11.3696
WBA	-11.3697
使用している	-11.3698
聞く	-11.3699
本作では	-11.3699
に建設された	-11.37
対照	-11.3702
伝道	-11.3702
水泳	-11.3705
上空	-11.3705
告知	-11.3706
陸地	-11.3707
サマー	-11.3707
十六	-11.3708
分かる	-11.371
form	-11.3712
Ver	-11.3712
ウマ	-11.3713
ピース	-11.3714
ことがあった	-11.3715
造船	-11.3715
信頼性	-11.372
アフガニスタン	-11.3721
開通した	-11.3722
標的	-11.3722
合法	-11.3723
ail	-11.3723
菩薩	-11.3724
筋肉	-11.3725
正常	-11.3725
rr	-11.3726
安定した	-11.3727
進軍	-11.3733
イタリア語	-11.3733
パーティ	-11.3736
旭川	-11.3737
供用	-11.3738
週末	-11.374
勝ちを収め	-11.3744
製作所	-11.3748
1888	-11.3748
クハ	-11.3749
相互作用	-11.3751
を問わず	-11.3752
を確保する	-11.3754
cy	-11.3755
RY	-11.3756
千人	-11.3756
北上	-11.3756
薄い	-11.3756
も同じ	-11.3757
血液	-11.3757
月号から	-11.376
Ba	-11.3762
上がって	-11.3762
1869	-11.3762
▁概説	-11.3763
oll	-11.3764
書房	-11.3768
を巡って	-11.3769
ものではなく	-11.3769
ホット	-11.3771
を名乗る	-11.3771
ケア	-11.3772
地理	-11.3774
わせる	-11.3776
英文	-11.3777
みどり	-11.3778
外科	-11.3779
三人	-11.378
用地	-11.3782
小学	-11.3783
ピッ	-11.3784
出会った	-11.3784
するようになり	-11.3785
Ge	-11.3788
高まり	-11.3791
ウォール	-11.3793
歴史家	-11.3793
基幹	-11.3795
哲学者	-11.3795
食糧	-11.3795
エクスプレス	-11.3796
1887	-11.3796
ガールズ	-11.3797
Su	-11.3797
上げて	-11.3799
親族	-11.3801
ドコモ	-11.3803
常陸	-11.3803
働いた	-11.3803
を深め	-11.3804
を走る	-11.3807
169	-11.3808
つとめ	-11.3808
という形で	-11.3808
指数	-11.3809
JST	-11.3813
首席	-11.3814
八王子	-11.3814
リット	-11.3816
高速バス	-11.3816
ザイ	-11.3818
科学技術	-11.3818
ダート	-11.382
スーツ	-11.3822
東京府	-11.3822
嫌い	-11.3825
cr	-11.3827
をつけた	-11.3827
大塚	-11.3829
朝鮮人	-11.3832
記者会見	-11.3833
元帥	-11.3833
購入した	-11.3835
マット	-11.3836
名目	-11.3838
を実施した	-11.3838
文学者	-11.3838
アイデア	-11.3839
翻	-11.3844
に向けた	-11.3848
目黒	-11.3849
▁隣接コムーネ	-11.385
フェラーリ	-11.3854
自称	-11.3856
Na	-11.3857
訪れ	-11.386
冷房	-11.3861
育ち	-11.3864
犠牲者	-11.3866
審議会	-11.3867
説がある	-11.387
ブラッド	-11.3872
述べ	-11.3872
かせる	-11.3879
知らせ	-11.3882
ナイター	-11.3882
住吉	-11.3882
バイト	-11.3884
系図	-11.3884
症候群	-11.3886
を食べる	-11.3887
薬剤	-11.3887
ger	-11.3889
ナール	-11.3889
1878	-11.3889
分離集落	-11.389
アルト	-11.389
御所	-11.3893
を残している	-11.3894
と表記される	-11.3895
警視庁	-11.3897
MBS	-11.3898
able	-11.3903
ムハンマド	-11.3905
有馬	-11.3906
1892	-11.3906
西暦	-11.3907
国土交通省	-11.3907
擁護	-11.3907
農場	-11.3909
メチル	-11.3911
で活躍した	-11.3911
を進める	-11.3912
輸	-11.3912
チケット	-11.3915
必須	-11.3916
渋滞	-11.392
合わせる	-11.392
がなされている	-11.3922
われている	-11.3923
デジ	-11.3924
を搭載する	-11.393
グローブ	-11.393
難しく	-11.393
付けられている	-11.3931
情報番組	-11.3932
で構成されている	-11.3935
アプローチ	-11.3935
原田	-11.3937
嫡男	-11.3937
武帝	-11.3938
漫画作品	-11.3941
畜	-11.3942
全国大会	-11.3942
神々	-11.3944
掲載されている	-11.3944
を防ぐため	-11.3946
付いて	-11.3947
サード	-11.3947
川越	-11.3948
媒体	-11.3949
勝を挙げ	-11.3953
させられた	-11.3954
マネ	-11.3954
スマートフォン	-11.3955
を巡る	-11.3957
づき	-11.3959
名鉄	-11.3961
金融機関	-11.3961
クィ	-11.3966
を導入し	-11.3967
焦点	-11.3968
駐屯	-11.3972
吉川	-11.3974
ous	-11.3974
描かれる	-11.3975
書いている	-11.398
南北戦争	-11.3981
を皮切りに	-11.3982
西村	-11.3987
会う	-11.3987
オーク	-11.3989
に当たって	-11.399
危険性	-11.3992
リッヒ	-11.3996
が廃止され	-11.3996
セールス	-11.3998
木曽	-11.4
発見した	-11.4002
管内	-11.4002
工科大学	-11.4004
ost	-11.4005
としても知られ	-11.4005
log	-11.401
世間	-11.401
右側	-11.401
歓	-11.4012
血管	-11.4013
閉店	-11.4013
アルプス	-11.4014
中国人	-11.4016
選手団	-11.402
調教師	-11.4023
最終戦	-11.4023
青い	-11.4023
グッズ	-11.4024
下関	-11.4024
拳銃	-11.4025
絶え	-11.4026
Java	-11.4033
乗組員	-11.4039
所管	-11.4039
合体	-11.404
小規模な	-11.4043
FR	-11.4045
Google	-11.4045
道徳	-11.4046
を認める	-11.4047
切られ	-11.405
ワイルド	-11.4052
ノキ	-11.4052
表す	-11.4053
学部卒業	-11.4054
上院議員	-11.4054
ini	-11.4056
寄贈	-11.4058
白河	-11.4058
ラール	-11.4059
滑走路	-11.406
月中旬	-11.406
に変更した	-11.4068
パール	-11.4069
マルク	-11.4071
ソフトバンク	-11.4072
わい	-11.4073
絵本	-11.4074
ネーション	-11.4076
が成立する	-11.4076
▁Man	-11.4076
を結んで	-11.4079
十郎	-11.408
ロッキー	-11.408
恐竜	-11.4081
巡目	-11.4084
維	-11.4085
慣	-11.4087
影響を受け	-11.409
意志	-11.4093
高温	-11.4094
神学	-11.4096
キャップ	-11.4097
クエスト	-11.41
を利用し	-11.4101
明るい	-11.4102
捕食	-11.4103
人格	-11.4104
電動	-11.4105
自国	-11.4107
神戸市	-11.4108
旅館	-11.4109
じゅん	-11.411
介護	-11.411
ずれ	-11.4111
破壊された	-11.4112
UP	-11.4113
ゲスト出演	-11.4114
テュ	-11.4114
浅野	-11.4114
多少	-11.4115
起用され	-11.4116
救急	-11.4116
10%	-11.4118
鉄道路線	-11.4119
デルタ	-11.4121
戦績	-11.4122
事前	-11.4122
▁隣接するコムーネ	-11.4124
ムービー	-11.4125
拡	-11.4126
前橋	-11.4126
サッカークラブ	-11.4129
艦船	-11.413
得点を挙げ	-11.4134
任官	-11.4137
に関する法律	-11.4138
歳で死去	-11.4139
入り口	-11.414
働	-11.4141
スピン	-11.4141
一貫して	-11.4141
藤井	-11.4141
中京	-11.4142
ない限り	-11.4143
を聞いた	-11.4143
を演じ	-11.4144
師範学校	-11.4145
と見られる	-11.4146
OB	-11.4146
特別番組	-11.4146
略奪	-11.4151
に耐え	-11.4155
あお	-11.4157
を越える	-11.4158
ショッピングセンター	-11.4158
のいずれか	-11.4159
北極	-11.4161
笑い	-11.4164
全世界	-11.4164
ハウゼン	-11.4166
YO	-11.4166
宇治	-11.4167
衡	-11.417
動く	-11.417
RU	-11.4171
聞いて	-11.4172
サクラ	-11.4174
に用いる	-11.4175
ハンドル	-11.4177
も多かった	-11.4178
ヶ谷	-11.4181
不在	-11.4181
石田	-11.4185
調節	-11.4189
直ちに	-11.4189
アポロ	-11.419
過ごす	-11.4191
諾	-11.4193
水野	-11.4197
深刻な	-11.4199
ボーイズ	-11.4201
三好	-11.4201
を避けるため	-11.4203
旋回	-11.4205
コイン	-11.4207
を対象に	-11.4207
ことができず	-11.4208
ヤマハ	-11.4209
ざい	-11.4211
に代わり	-11.4211
チュア	-11.4211
天候	-11.4211
あれ	-11.4212
殺害された	-11.4212
大幅な	-11.4213
祖先	-11.4214
景気	-11.4217
トルク	-11.4217
1800	-11.4217
ile	-11.4218
任意	-11.4219
最長	-11.4221
左側	-11.4222
階層	-11.4225
曹操	-11.4225
ランダム	-11.4225
知らない	-11.4229
ze	-11.423
世話	-11.4231
から成る	-11.4231
年末に	-11.4232
悲劇	-11.4233
踏切	-11.4234
の治世	-11.4235
司祭	-11.4236
pr	-11.4237
終わって	-11.4238
わけではなく	-11.4241
投下	-11.4242
ピッチ	-11.4243
伝える	-11.4244
WWE	-11.4244
囲碁	-11.4245
孤立	-11.4246
緊張	-11.4247
番手	-11.4248
トリノ	-11.4248
ナポリ	-11.4249
蜂	-11.425
道の駅	-11.4251
因子	-11.4251
県都	-11.4253
を有している	-11.4253
付随	-11.4255
販売された	-11.4257
温暖	-11.4258
数少ない	-11.4259
後輩	-11.4264
パキスタン	-11.4264
と判断し	-11.4264
優勝者	-11.4271
レバー	-11.4271
と考えていた	-11.4272
1860	-11.4272
せつ	-11.4272
ジョージア	-11.4274
殺人事件	-11.4276
異動	-11.4277
柴田	-11.4278
大夫	-11.4282
邸宅	-11.4282
ことがあり	-11.4283
ult	-11.4284
副会長	-11.4286
ケネディ	-11.4287
に放送された	-11.4287
主砲	-11.4288
背中	-11.429
八戸	-11.4293
開設された	-11.4294
たけし	-11.4296
を上回る	-11.4296
漏	-11.4299
ok	-11.43
診	-11.43
酒井	-11.43
人組	-11.4301
産駒	-11.4302
ヴィク	-11.4303
ino	-11.4304
ボランティア	-11.4306
小規模	-11.4307
中毒	-11.4311
が設けられている	-11.4311
具体的には	-11.4312
ことが多かった	-11.4313
さく	-11.4315
バス路線	-11.4315
てくれた	-11.4316
おらず	-11.4316
特有の	-11.4319
フン	-11.432
測量	-11.432
おうと	-11.4321
バージニア	-11.4322
福寺	-11.4322
ROM	-11.4324
GR	-11.4325
を与えられた	-11.4325
連装	-11.4326
卒業生	-11.4326
地上波	-11.4328
スタンダード	-11.4329
保育	-11.433
設定された	-11.433
食堂	-11.433
親しまれ	-11.433
Ste	-11.4331
総称	-11.4332
han	-11.4333
菊池	-11.4333
チャンピオンズリーグ	-11.4333
十一	-11.4336
醸造	-11.4336
を失う	-11.4337
もう一つ	-11.4337
毎日放送	-11.4339
陰謀	-11.4341
刷	-11.4341
本当に	-11.4341
が建設され	-11.4341
小路	-11.4342
Lu	-11.4343
側近	-11.4344
と称した	-11.4345
その際に	-11.4345
功労	-11.4348
実証	-11.435
真っ	-11.435
石原	-11.435
さらなる	-11.4352
掲	-11.4353
に移され	-11.4353
実写	-11.4354
ミシシッピ	-11.4358
得た	-11.4358
JRA	-11.4358
傾向にある	-11.436
高度な	-11.436
RNA	-11.4361
川流域	-11.4361
脅	-11.4362
ストック	-11.4362
務める	-11.4362
形電車	-11.4363
amp	-11.4363
首脳	-11.4363
江戸幕府	-11.4363
熊谷	-11.4366
反論	-11.4366
を伝える	-11.4366
太夫	-11.4367
ケープ	-11.4367
リフト	-11.4367
tro	-11.4367
フライ級	-11.4368
阿波	-11.4368
小沢	-11.4369
掘り	-11.4372
コーラス	-11.4375
合金	-11.4375
大敗	-11.4375
今作	-11.4377
原稿	-11.4383
西鉄	-11.4386
魔女	-11.4386
ウィルソン	-11.4387
ウルフ	-11.4393
領事	-11.4394
アーズ	-11.4395
可決	-11.4395
売買	-11.4396
狩り	-11.4398
ニウス	-11.4398
7000	-11.4399
立てられ	-11.4399
pt	-11.4401
教育委員会	-11.4402
コラム	-11.4403
火力	-11.4403
派遣された	-11.4404
ung	-11.4405
侵害	-11.4405
を中心として	-11.4408
af	-11.4408
じゃない	-11.4409
に恵まれ	-11.441
計測	-11.4411
ヘビー級	-11.4412
に該当する	-11.4415
運び	-11.4417
両側	-11.4417
績	-11.4417
書いて	-11.4417
集積	-11.4419
収容所	-11.442
を支配し	-11.4422
助言	-11.4423
愛知県名古屋市	-11.4424
ヒロ	-11.4425
問題点	-11.4425
EMI	-11.4425
転用	-11.4426
目立つ	-11.4427
日活	-11.4427
発揮	-11.4427
会見	-11.4428
帰国した	-11.4428
のではないかと	-11.4429
改称	-11.4429
安芸	-11.4429
簿	-11.4432
を確保し	-11.4433
間違い	-11.4434
転向	-11.4435
豊富な	-11.4437
パシフィック	-11.4441
湘南	-11.4442
と信じ	-11.4442
ルノー	-11.4443
くじ	-11.4443
徴収	-11.4444
おさ	-11.4445
難民	-11.4445
ゆえに	-11.4448
出現する	-11.4449
剥	-11.4452
高齢	-11.4452
播磨	-11.4454
フランソワ	-11.4455
フォーム	-11.4455
復活した	-11.4455
ヶ丘	-11.4459
容器	-11.446
取り扱い	-11.4461
横山	-11.4464
アーク	-11.4469
が特徴である	-11.447
出身の元	-11.4471
が一般的である	-11.4473
優秀な	-11.4477
避け	-11.4478
おおむね	-11.4479
作物	-11.448
民事	-11.448
放った	-11.4482
ハンス	-11.4483
日午前	-11.4484
ゴジラ	-11.4484
Open	-11.4484
100%	-11.4484
この結果	-11.4488
拒絶	-11.4489
nes	-11.4492
現職	-11.4493
俳	-11.4496
ひろし	-11.4498
講和	-11.4499
田園	-11.45
製薬	-11.45
オリックス	-11.4501
何度か	-11.4502
叩き	-11.4502
ジャイ	-11.4504
ハナ	-11.4507
外交官	-11.4508
ネズミ	-11.4511
思考	-11.4514
を高める	-11.4516
エージェント	-11.4516
安田	-11.4516
アラビア語	-11.4517
など様々な	-11.4518
立憲	-11.4519
アーチ	-11.452
秩父	-11.452
伊予	-11.4521
ポロ	-11.4523
と呼んだ	-11.4525
を決定する	-11.453
対象となる	-11.4531
自作	-11.4533
で唯一	-11.4534
兼務	-11.4536
ビートルズ	-11.4536
援軍	-11.4536
に際し	-11.4537
平安	-11.4538
ってしまった	-11.454
観光地	-11.454
タイミング	-11.454
ブドウ	-11.454
ちょうど	-11.4541
欧州連合	-11.4542
住人	-11.4544
出典	-11.4546
突如	-11.4548
追求	-11.4549
シチリア	-11.4552
競技大会	-11.4554
ユーザ	-11.4556
の一員として	-11.4557
代謝	-11.4559
エンターテインメント	-11.4561
岡本	-11.4561
との契約	-11.4562
手前	-11.4562
Cr	-11.4566
上院	-11.4566
ジェル	-11.4569
宗家	-11.4571
ラヴ	-11.4572
テレビ局	-11.4575
定められ	-11.4575
アルファベット	-11.4577
正統	-11.4578
立川	-11.458
復旧	-11.4581
胴	-11.4582
十八	-11.4582
Sc	-11.4583
液晶	-11.4584
シール	-11.4586
ろく	-11.4586
先代	-11.4586
放送していた	-11.4586
若松	-11.4587
してくる	-11.4588
スタートした	-11.4588
不詳	-11.4589
shi	-11.4589
rea	-11.4589
ヴィクトリア	-11.4589
エッセイ	-11.4589
リン酸	-11.459
が含まれている	-11.4596
ケンタッキー	-11.4598
アーキテクチャ	-11.4598
さつ	-11.4598
退学	-11.4598
うら	-11.4598
軍艦	-11.4599
自立	-11.46
集まった	-11.46
車輌	-11.46
ハーバー	-11.4601
ファミコン	-11.4602
もはや	-11.4605
も務めた	-11.4606
決められ	-11.4608
ジオン	-11.4611
0||0||	-11.4612
体内	-11.4615
紀伊	-11.4617
を組んで	-11.4617
かぶ	-11.4619
欲しい	-11.462
后	-11.462
渡す	-11.4621
帽子	-11.4622
レック	-11.4623
不利	-11.4628
に指定され	-11.4628
を提出し	-11.463
マンチェスター	-11.4634
受け入れられ	-11.4634
タイムズ	-11.4634
ヤマト	-11.4636
1876	-11.4636
騎士団	-11.464
ニコライ	-11.464
日本政府	-11.464
サッカーリーグ	-11.4642
執政官	-11.4644
アップル	-11.4645
郵政	-11.4645
お互い	-11.4645
を連れて	-11.4648
自由主義	-11.4649
ACK	-11.4653
クラフト	-11.4654
国会議員	-11.4655
書簡	-11.4656
ライフル	-11.4658
断層	-11.4664
ターゲット	-11.4664
1882	-11.4665
寄生	-11.4668
考えられ	-11.4668
公的	-11.4669
のほうが	-11.4669
1864	-11.4673
考えられる	-11.4677
漫才	-11.4678
モーニング	-11.4679
豊橋	-11.468
キエフ	-11.4683
ステル	-11.4684
高価	-11.4684
を防ぐ	-11.4685
VER	-11.4685
ダグラス	-11.4686
ッケ	-11.4689
抽選	-11.4689
を覚え	-11.469
酒造	-11.469
煙突	-11.469
教育機関	-11.4693
駿河	-11.4694
受容体	-11.4694
1879	-11.4695
に渡る	-11.4695
を送って	-11.4696
リーガ	-11.4696
アピール	-11.4699
有罪	-11.4699
高かった	-11.4699
領有	-11.47
全集	-11.47
仮定	-11.47
集英社	-11.4701
冷戦	-11.4702
学生時代	-11.4706
みん	-11.4706
Si	-11.4706
駅名	-11.4707
シャツ	-11.4708
を帯び	-11.4711
地方裁判所	-11.4713
生没年不詳	-11.4715
石垣	-11.4716
ics	-11.4716
東京都立	-11.4719
ビクター	-11.4725
天国	-11.4726
1862	-11.4728
use	-11.4729
解説者	-11.4729
選出された	-11.473
1881	-11.4731
慕容	-11.4732
発覚	-11.4733
vo	-11.4733
本数	-11.4738
チェスター	-11.474
家畜	-11.474
ソナタ	-11.474
_3	-11.4741
分かって	-11.4741
家屋	-11.4742
重い	-11.4744
高麗	-11.4747
授け	-11.4751
慶應義塾大学	-11.4753
主席	-11.4753
暴動	-11.4754
残っていた	-11.4754
結婚式	-11.4755
春秋	-11.4756
やってきた	-11.4756
左派	-11.4758
式典	-11.4759
果て	-11.476
ale	-11.4762
完全移籍	-11.4764
藤沢	-11.4765
解散した	-11.4766
ウォン	-11.4767
上限	-11.4767
危険な	-11.4769
那覇	-11.4769
フラッシュ	-11.477
威力	-11.4771
増設	-11.4779
寛文	-11.478
昼間	-11.4781
家庭用	-11.4782
ja	-11.4783
飛行隊	-11.4783
最近では	-11.4784
日本国外	-11.4787
フィッシュ	-11.4787
ウラン	-11.4788
見事	-11.4788
オーディオ	-11.4788
維新	-11.4796
を奪い	-11.4797
chi	-11.4799
注文	-11.48
開店	-11.4801
早川	-11.4802
奪還	-11.4802
祖母	-11.4804
せない	-11.4806
ひょう	-11.4806
に就いた	-11.4806
ことにした	-11.4808
に従事した	-11.4808
鳥羽	-11.4809
滞	-11.4809
大友	-11.4816
硬貨	-11.4819
官房	-11.4821
ファイア	-11.4824
Pro	-11.4824
トゥール	-11.4825
ラインナップ	-11.4825
ano	-11.4826
告発	-11.4827
につれて	-11.4827
属性	-11.4828
!!』	-11.4829
っぷ	-11.4831
ステレオ	-11.4832
パレスチナ	-11.4834
内装	-11.4835
サスペンション	-11.4836
兵隊	-11.4837
ギャラリー	-11.484
ナトリウム	-11.4841
見られない	-11.4844
実用化	-11.4847
人質	-11.4849
出来なかった	-11.485
展示されている	-11.485
連敗	-11.485
世田谷	-11.4851
先祖	-11.4852
大阪市立	-11.4854
小牧	-11.4855
ドクター	-11.4856
を発見し	-11.4856
が必要となる	-11.4857
に任じられ	-11.4858
考察	-11.4861
日本の政治家	-11.4864
宰	-11.4865
プラスチック	-11.4865
リンカーン	-11.4866
一次	-11.4868
科学的	-11.487
決断	-11.487
ビアン	-11.4871
つけられた	-11.4871
反面	-11.4872
テイラー	-11.4872
音楽家	-11.4875
を認めた	-11.4877
za	-11.4878
エントリー	-11.4878
▁Di	-11.4879
水源	-11.488
戯曲	-11.488
として活躍した	-11.4883
幌	-11.4883
蓄積	-11.4885
幼少期	-11.4885
ゆく	-11.489
ブリュ	-11.489
高額	-11.489
武力	-11.4893
ボイス	-11.4895
ライブラリ	-11.4896
喜多	-11.4898
競技場	-11.4899
日放送分	-11.49
に置かれた	-11.4902
ヴィッチ	-11.4903
アダルト	-11.4903
如来	-11.4905
を引き起こす	-11.4907
lin	-11.4908
婚約	-11.4909
コンピューター	-11.491
馬車	-11.491
に基づいた	-11.4912
アウグスト	-11.4913
を組み合わせた	-11.4913
名声	-11.4914
グラフィ	-11.4915
築城	-11.4915
エレクトロ	-11.4917
休養	-11.4917
生前	-11.4919
決着	-11.492
出自	-11.4922
かかって	-11.4922
特権	-11.4923
作成した	-11.4924
ミドル	-11.4924
ロシア帝国	-11.4928
島式ホーム	-11.4929
位置付け	-11.4929
ベック	-11.4929
宝暦	-11.493
全曲	-11.4933
評論	-11.4933
公衆	-11.4936
は以下の通りである	-11.4939
を活かし	-11.4939
アルメニア	-11.494
プロフィール	-11.494
詳細な	-11.4941
まき	-11.4943
電撃	-11.4943
現金	-11.4944
年代まで	-11.4944
持続	-11.4944
好調	-11.4945
膨	-11.4946
ノット	-11.4947
歳の時	-11.4947
ホロ	-11.4948
支持者	-11.4948
キャッシュ	-11.4949
北アメリカ	-11.4949
暮らす	-11.495
を乗せ	-11.4952
を強め	-11.4955
始動	-11.4955
行方不明	-11.4959
兵庫	-11.496
府中	-11.4961
十両	-11.4961
エアロ	-11.4962
任せ	-11.4964
を行なった	-11.4964
一種の	-11.4966
の成績を残した	-11.4967
ith	-11.4969
動脈	-11.4969
チーフ	-11.4969
を引き起こし	-11.497
と思った	-11.4974
機銃	-11.4974
燃え	-11.498
賠償	-11.498
Th	-11.4982
オットー	-11.4988
ink	-11.4991
に応じ	-11.4992
足利義	-11.4994
させようと	-11.4996
グレン	-11.4996
改札口	-11.4998
ッケン	-11.5
州刺史	-11.5002
薬師	-11.5004
サロン	-11.5005
後述する	-11.5006
添え	-11.5007
ホセ	-11.501
インディーズ	-11.5011
適合	-11.5011
シンガーソングライター	-11.5014
フロリダ州	-11.5015
市議会	-11.5015
カンザス	-11.5021
アパート	-11.5021
座標	-11.5022
乗用車	-11.5024
LED	-11.5024
模索	-11.5024
伝記	-11.5027
ポスター	-11.5027
レジスタ	-11.5028
てくれ	-11.503
マーケティング	-11.5031
豪華	-11.5032
亜種	-11.5032
アカデミー賞	-11.5034
eb	-11.5034
っく	-11.5036
出航	-11.5038
世論	-11.5039
想像	-11.5042
Inter	-11.5042
陣地	-11.5045
1.0	-11.5046
木曜	-11.505
造営	-11.5053
本多	-11.5054
El	-11.5054
種族	-11.5056
コーポレーション	-11.5057
豊富	-11.5057
文化的	-11.506
デール	-11.506
田辺	-11.506
フランクフルト	-11.5064
イラストレーター	-11.5065
PK	-11.5066
王女	-11.5066
が図られ	-11.5067
ソ連軍	-11.5067
ヤンキース	-11.5068
ble	-11.5068
追撃	-11.507
であったことから	-11.5075
ジョセフ	-11.5076
ax	-11.5077
原始	-11.5077
全土	-11.5079
偉大な	-11.5082
鎌	-11.5083
に応じた	-11.5084
演奏会	-11.5086
1874	-11.5086
を担当している	-11.5087
芸能界	-11.5088
南朝	-11.5089
1875	-11.5092
この時代	-11.5094
Hz	-11.5095
切手	-11.5096
に対抗する	-11.5097
out	-11.5098
金剛	-11.5102
メダリスト	-11.5103
みなみ	-11.5103
オファー	-11.5105
代理店	-11.5107
断絶	-11.5111
和泉	-11.5112
上げられ	-11.5112
ぞく	-11.5114
慣習	-11.5114
ヘビー級王座	-11.5115
1877	-11.5118
として初めて	-11.512
換装	-11.5121
を紹介する	-11.5122
つながり	-11.5122
way	-11.5123
]]	-11.5123
那須	-11.5123
戦目	-11.5124
名門	-11.5125
乗り換え	-11.5127
行える	-11.5128
各々	-11.5129
フォーミュラ	-11.513
を必要とする	-11.5133
En	-11.5134
に応え	-11.5136
頻	-11.5137
最高速度	-11.5137
主将	-11.5139
高性能	-11.514
を指揮し	-11.5141
触媒	-11.5144
IX	-11.5145
実務	-11.5146
地盤	-11.5147
無所属	-11.5147
テリー	-11.5149
ことなく	-11.5149
溶液	-11.5152
を維持する	-11.5153
50%	-11.5154
飲食店	-11.5154
プラー	-11.5158
ることなく	-11.5158
幾何学	-11.5159
に準じ	-11.5159
組み立て	-11.516
内閣総理大臣	-11.5161
出家	-11.5166
難易度	-11.5168
ヨウ	-11.5169
井戸	-11.5169
片側	-11.517
右手	-11.517
ヨシ	-11.5171
正しく	-11.5173
津田	-11.5173
てほしい	-11.5174
セリ	-11.5175
カテゴリー	-11.5177
半径	-11.5178
重大な	-11.5184
魚類	-11.5186
保有する	-11.5188
炭鉱	-11.5189
と言われた	-11.519
とも言われる	-11.519
せられた	-11.5191
トロント	-11.5192
近接	-11.5192
太平	-11.5193
めん	-11.5195
に移し	-11.5195
代当主	-11.5196
orn	-11.5198
海兵隊	-11.5199
再選	-11.5199
役所	-11.52
博覧会	-11.5202
定められている	-11.5205
日本の俳優	-11.5205
明治維新	-11.5208
当番組	-11.5208
GK	-11.5209
を採用する	-11.521
函数	-11.5211
国内外	-11.5213
ワーナー	-11.5215
排気	-11.5215
ッピング	-11.5215
これ以降	-11.5217
デッド	-11.5218
スケジュール	-11.5219
ぱ	-11.5221
ウィーク	-11.5221
大学経済学部	-11.5221
加盟国	-11.5222
適切	-11.5223
友会	-11.5223
労働党	-11.5223
解明	-11.5224
にある公立小学校	-11.5227
双子	-11.5228
記念碑	-11.5233
に分けられる	-11.5235
王室	-11.5237
が整備され	-11.5243
動物園	-11.525
カーン	-11.5255
ドナルド	-11.5256
天才	-11.5257
を知ら	-11.5259
エンジニア	-11.5264
ンドルフ	-11.5264
アルバイト	-11.5266
それ以外	-11.527
パレード	-11.5271
火器	-11.5272
弘前	-11.5273
仲介	-11.5275
を発し	-11.5275
花火	-11.5279
池袋	-11.528
デトロイト	-11.528
代官	-11.5281
整え	-11.5285
小田急	-11.5288
挿絵	-11.529
ギリ	-11.529
確認できる	-11.5291
二代目	-11.5291
想い	-11.5292
苦戦	-11.5295
を踏まえ	-11.5295
センス	-11.5298
心配	-11.5299
4,000	-11.53
を行なう	-11.5302
再発	-11.5303
改定	-11.5303
転送	-11.5304
疫	-11.5305
女の子	-11.5307
アメリカ陸軍	-11.5308
ラング	-11.5309
特番	-11.531
樹脂	-11.531
築かれ	-11.5315
を加える	-11.5316
ざん	-11.5317
コーラ	-11.5317
キッド	-11.5317
ソリ	-11.5318
殿堂入り	-11.532
教官	-11.5322
アルミニウム	-11.5322
はじめて	-11.5325
運ばれ	-11.5325
多目的	-11.5326
放置	-11.5327
変わらない	-11.5327
対岸	-11.5329
試合に出場	-11.5333
捕らえ	-11.5334
内藤	-11.5334
運送	-11.5337
出羽	-11.5342
学部教授	-11.5344
カルタゴ	-11.5347
1863	-11.535
少なかった	-11.5355
を挙げている	-11.5356
ペドロ	-11.5358
志向	-11.536
cle	-11.5361
野球場	-11.5361
産出	-11.5361
レイク	-11.5364
予言	-11.5369
を移し	-11.5371
プライベート	-11.5372
ショッピング	-11.5373
蒙	-11.5374
を強いられ	-11.5376
指向	-11.5377
出入り	-11.5377
ペレ	-11.5379
松浦	-11.5381
短期	-11.5383
半導体	-11.5384
互換性	-11.5385
北端	-11.5388
アリゾナ	-11.5389
汎用	-11.5389
1883	-11.5389
講習	-11.539
滋	-11.5391
顧	-11.5392
ミステリー	-11.5392
視察	-11.5394
党派	-11.5394
0.1	-11.5394
武家	-11.5397
写真家	-11.5398
を変える	-11.5399
ミシガン	-11.5399
ヒューストン	-11.54
万年前	-11.5402
少尉	-11.5402
MAX	-11.5403
まわ	-11.5403
完了した	-11.5403
訂	-11.5403
なかったこと	-11.5405
マイクロソフト	-11.5409
丹波	-11.541
バッテリー	-11.5411
どのように	-11.5415
変え	-11.5418
カタルーニャ	-11.5421
oss	-11.5422
名前の由来	-11.5423
麻薬	-11.5424
放映された	-11.5426
シェン	-11.5427
放射線	-11.5429
木製	-11.5432
火星	-11.5434
センサー	-11.5435
決まり	-11.5441
阿弥	-11.5441
験	-11.5443
を伸ばし	-11.5446
ネット局	-11.5448
大輔	-11.5449
ぼく	-11.545
姿を消し	-11.5451
招かれ	-11.5451
賞賛	-11.5452
免除	-11.5453
進撃	-11.5453
かせた	-11.5454
に従う	-11.5455
に仕えた	-11.5455
してしまい	-11.5455
射程	-11.5455
つつあった	-11.5456
のタイトルで	-11.5458
稼	-11.5458
と主張している	-11.5458
スペクトル	-11.5461
停留場	-11.5461
本願寺	-11.5464
ott	-11.5464
ルートヴィヒ	-11.5466
ley	-11.5468
oto	-11.5468
rit	-11.5469
ワールドシリーズ	-11.547
置換	-11.547
借金	-11.5471
ウィング	-11.5471
ストローク	-11.5473
密接	-11.5474
の有無	-11.5476
神奈川県横浜市	-11.5477
AKB	-11.5478
を提供している	-11.548
数千	-11.548
通知	-11.548
を失って	-11.5481
同誌	-11.5482
辞典	-11.5482
犯行	-11.5483
戸田	-11.5485
誘い	-11.5486
騒	-11.5487
があれば	-11.5487
遂行	-11.5488
あわせ	-11.5489
系列局	-11.549
条項	-11.5491
シンガー	-11.5493
真空	-11.5494
大相撲	-11.5494
に配属され	-11.5495
賭け	-11.5499
パルス	-11.5501
をめぐって	-11.5501
後漢	-11.5501
ブレン	-11.5501
スロット	-11.5504
疑惑	-11.5505
慢性	-11.5505
防空	-11.5509
まとめて	-11.5509
進路	-11.551
寸	-11.5512
移設	-11.5513
指標	-11.5516
連邦政府	-11.5517
的存在	-11.552
極東	-11.5523
クロン	-11.5523
書物	-11.5524
安藤	-11.5529
砂糖	-11.553
ピュー	-11.5531
元来	-11.5531
オルガン	-11.5534
トミー	-11.5535
湾岸	-11.5537
主翼	-11.5537
転写	-11.5538
レンタル移籍	-11.5539
を設置する	-11.5542
泣	-11.5542
ベロ	-11.5542
瀬川	-11.5542
ウイング	-11.5544
聖職者	-11.5544
趣旨	-11.5544
アルバ	-11.5544
に任じられた	-11.5545
日本語版	-11.5545
校区	-11.5546
紹介された	-11.5547
除外	-11.5547
尊敬	-11.5549
後援	-11.5549
得られた	-11.5551
国際映画祭	-11.5554
曲目	-11.5555
割れ	-11.5559
に配置され	-11.5567
に関連する	-11.557
ルーキー	-11.5571
四季	-11.5573
を設置した	-11.5573
去り	-11.5577
系電車	-11.558
撃ち	-11.5582
弁護	-11.5583
へ進学	-11.5586
20%	-11.5587
北九州	-11.5588
を含んで	-11.559
祝日	-11.5591
ハミルトン	-11.5594
ref	-11.5596
刻まれ	-11.5598
歩く	-11.5599
1861	-11.56
ボスニア	-11.56
に代表される	-11.5601
混ぜ	-11.5601
取り扱う	-11.5601
サンディエゴ	-11.5604
こなし	-11.5605
を必要とし	-11.5605
採取	-11.5606
BBC	-11.5606
あらかじめ	-11.5607
に於いて	-11.5607
元気	-11.5608
他国	-11.5613
パナマ	-11.5613
拒	-11.5614
による日本の漫画作品	-11.5615
センチ	-11.5618
爆破	-11.5618
古河	-11.5619
内務省	-11.5619
広範囲	-11.5619
下ろし	-11.5621
キリスト教徒	-11.5621
ロシア連邦	-11.5622
ニッポン放送	-11.5623
迎撃	-11.5625
することができた	-11.5625
日本初の	-11.563
商船	-11.5631
監修	-11.5633
暴走	-11.5635
起こした	-11.5635
累	-11.5639
に分布する	-11.5641
半数	-11.5643
ハリス	-11.5644
アルバニア	-11.5649
ないよう	-11.5649
と称して	-11.5649
国旗	-11.565
年代にかけて	-11.5652
駐在	-11.5653
に留まった	-11.5655
等級	-11.5657
源流	-11.5658
麻雀	-11.5659
単体	-11.566
舞踊	-11.5662
欠け	-11.5664
明かし	-11.5665
コロラド	-11.5665
トレイン	-11.5666
vs	-11.5667
改組	-11.5668
ユニフォーム	-11.5668
サッカー部	-11.5673
1,3	-11.5673
1867	-11.5673
吸収合併	-11.5675
活動を開始	-11.5678
もらえ	-11.568
信徒	-11.5681
リオデジャネイロ	-11.5681
暮	-11.5681
多くの場合	-11.5685
新羅	-11.5688
当事者	-11.5688
ピル	-11.5689
を進めた	-11.5691
ニンテンドー	-11.5691
生きる	-11.5693
マーシャル	-11.5698
重臣	-11.5698
没収	-11.57
問われ	-11.5703
インストール	-11.5704
ルドルフ	-11.5704
[[	-11.5706
を対象とした	-11.5707
年代半ば	-11.5708
始まって	-11.571
必要があった	-11.571
向かって	-11.5712
1865	-11.5712
プロトコル	-11.5714
積分	-11.5715
世界中の	-11.5717
公布	-11.5717
いちらん	-11.5718
ブラウザ	-11.5718
あか	-11.5719
エイト	-11.5719
出向	-11.5722
All	-11.5722
八重	-11.5723
に編入され	-11.5726
サール	-11.5728
背負	-11.5728
テュー	-11.573
vol	-11.5739
樹木	-11.574
課税	-11.5742
人気を博し	-11.5742
感染症	-11.5743
TRA	-11.5743
送った	-11.5745
ローマ帝国	-11.5746
引き分け	-11.5747
を目的とする	-11.5751
に所属している	-11.5754
ローレンス	-11.5755
鑑定	-11.5756
麻呂	-11.5756
UL	-11.5757
中学校の学区	-11.5758
を集めて	-11.5759
代将軍	-11.5759
への影響	-11.576
激化	-11.5764
を入れる	-11.5765
ブロードウェイ	-11.5765
エレクトリック	-11.5765
ことはなく	-11.5771
と呼んで	-11.5774
を支える	-11.5774
外来	-11.5778
異なった	-11.5779
を遂げ	-11.5779
佐伯	-11.5779
逃走	-11.5781
玄関	-11.5782
ama	-11.5785
摂津	-11.5786
グリー	-11.5786
総数	-11.5787
遺族	-11.579
ゲリラ	-11.5791
整備された	-11.5792
の一角	-11.5793
原爆	-11.5793
AGE	-11.5794
混雑	-11.5796
圧倒的	-11.5796
にノミネートされ	-11.58
インテル	-11.5802
に過ぎない	-11.5803
フォーラム	-11.5805
勝利を収め	-11.5807
経済学者	-11.5807
虐待	-11.5812
激怒	-11.5813
を批判し	-11.5813
潟	-11.5815
ホークス	-11.5815
枚目のアルバム	-11.5816
RAM	-11.5817
ヘッ	-11.5818
アドルフ	-11.582
んしゃ	-11.582
Twitter	-11.5822
伊賀	-11.5823
赤坂	-11.5824
フロア	-11.5825
破産	-11.5825
を買収し	-11.5826
発電機	-11.5828
連邦軍	-11.5828
除籍	-11.5829
舞鶴	-11.583
封鎖	-11.5831
山梨	-11.5833
同性愛	-11.5835
を行なって	-11.5837
に属していた	-11.5837
例もある	-11.5838
使節	-11.5843
氷河	-11.5843
嘉永	-11.5844
ホウ	-11.5845
牡	-11.5848
ンゲン	-11.5848
鋳造	-11.5849
Blu	-11.585
が高まっ	-11.5851
できるようになった	-11.5852
ゴット	-11.5852
が成立し	-11.5858
処置	-11.5858
Wii	-11.5859
に昇格した	-11.586
を訪問し	-11.586
を備える	-11.5861
プラハ	-11.5866
とは言え	-11.5867
棄	-11.5868
仮面	-11.5868
メイド	-11.5868
を始めとする	-11.5869
読書	-11.5871
ヨーゼフ	-11.5871
クイーンズ	-11.5873
オックスフォード	-11.5874
ホーン	-11.5874
幣	-11.5875
ele	-11.5875
NAD	-11.5877
International	-11.5877
カウンター	-11.5879
行われており	-11.5882
遠藤	-11.5884
北九州市	-11.5885
KU	-11.589
喜劇	-11.589
クライアント	-11.589
ペンシルベニア州	-11.5891
への参加	-11.5891
固体	-11.5893
国営	-11.5894
私鉄	-11.5895
フォックス	-11.5895
順番	-11.5896
YouTube	-11.5898
▁with	-11.5898
バーデン	-11.5899
洗礼	-11.59
会派	-11.5901
レスラー	-11.5902
を支持する	-11.5908
吊り	-11.5911
あきら	-11.5912
国際大会	-11.5914
を記念して	-11.5915
エルサレム	-11.5916
落とす	-11.5918
月上旬	-11.5918
1.2	-11.5919
者もいる	-11.592
いったん	-11.5921
LAN	-11.5922
することなく	-11.5922
ニックネーム	-11.5927
を購入し	-11.5927
胞子	-11.5929
灰色	-11.5931
ALL	-11.5931
有力な	-11.5931
奇跡	-11.5931
選帝侯	-11.5934
ルネサンス	-11.5937
NFL	-11.5939
内務	-11.594
吹き替え	-11.5941
NASA	-11.5942
深さ	-11.5942
つながって	-11.5942
封印	-11.5943
より発売された	-11.5944
戻す	-11.5946
本郷	-11.5948
につれ	-11.5949
mit	-11.5949
副作用	-11.595
失脚	-11.5952
インフラ	-11.5953
の指揮下	-11.5955
に就く	-11.5957
河野	-11.5958
出血	-11.5961
ラテン文字	-11.5961
活躍を見せ	-11.5962
民放	-11.5962
増殖	-11.5964
揃え	-11.5967
日本共産党	-11.5968
慮	-11.597
を得ている	-11.597
に転じた	-11.5971
匠	-11.5972
day	-11.5973
と同じように	-11.5973
を率い	-11.5978
ten	-11.5978
SUPER	-11.5982
バンダイ	-11.5982
遅延	-11.5983
バスターミナル	-11.5983
音楽祭	-11.5984
去る	-11.5984
NATO	-11.5985
豊島	-11.5986
をあげた	-11.5987
たとえ	-11.5988
宗教的	-11.5991
芸能人	-11.5992
待機	-11.5992
に加盟し	-11.5992
入会	-11.5994
幻想	-11.5996
直流	-11.5996
カルロ	-11.5999
狙い	-11.5999
戦時中	-11.6
転落	-11.6
検事	-11.6001
クォー	-11.6003
マンハッタン	-11.6005
尋ね	-11.6008
桜井	-11.6008
が設けられた	-11.6011
OH	-11.6015
旧姓	-11.6019
鳥居	-11.602
ヒュ	-11.602
キネマ	-11.6021
亜科	-11.6021
が置かれた	-11.6023
造成	-11.6025
セルフ	-11.6026
以南	-11.6027
乳類	-11.6028
カタログ	-11.6029
ホルン	-11.6031
1,0	-11.6031
高齢者	-11.6033
通常盤	-11.6033
三角形	-11.6034
細かい	-11.6036
路面電車	-11.604
tory	-11.604
日本の漫画家	-11.6042
巡回	-11.6042
骨格	-11.6043
んです	-11.6043
器具	-11.6044
ひこ	-11.6046
無人駅	-11.6048
を建設する	-11.6053
塩基	-11.6056
とも言える	-11.6061
宣教師	-11.6063
中尉	-11.6063
山麓	-11.6064
アベニュー	-11.6066
駅伝	-11.6067
傾向がある	-11.607
党員	-11.6072
参議院議員	-11.6072
ければ	-11.6073
プロペラ	-11.6075
摂政	-11.6075
メジャーリーグ	-11.6075
真理	-11.6076
外伝	-11.6077
ple	-11.6077
抽出	-11.6078
立ち上げ	-11.6078
を余儀なくされ	-11.6079
駅番号は	-11.6079
フランシス	-11.6081
長期間	-11.6082
Vo	-11.6083
造形	-11.6084
どおり	-11.6086
大阪府大阪市	-11.6087
成し遂げ	-11.6087
テレビジョン	-11.609
つぶ	-11.6091
ヶ月間	-11.6095
現役時代	-11.6096
穀物	-11.6096
fer	-11.6098
宝塚歌劇団	-11.6098
に見舞われ	-11.61
アクセント	-11.6102
等しい	-11.6104
破損	-11.6105
源氏物語	-11.6105
に分類され	-11.6108
にともない	-11.6112
作られている	-11.6115
直営	-11.6115
楽天	-11.6116
成熟	-11.6117
カルチャー	-11.6118
プログラミング	-11.6118
オキシ	-11.6119
文久	-11.6119
圧倒的な	-11.6119
対外	-11.6124
ENT	-11.6128
急性	-11.6128
選択肢	-11.6128
友達	-11.6134
低減	-11.6135
高等学校を経て	-11.6135
風俗	-11.6137
スタイン	-11.6138
東端	-11.6138
同時期	-11.614
と呼ばれるようになった	-11.6144
クルーズ	-11.6145
ジョニー	-11.6147
Ka	-11.6148
引き受け	-11.615
研究開発	-11.6152
看	-11.6152
を超えて	-11.6153
されてしまった	-11.6156
ひがし	-11.6156
控訴	-11.6157
を支援する	-11.6159
受け継がれ	-11.6159
対潜	-11.616
場合でも	-11.616
負荷	-11.6161
せば	-11.6161
ッセン	-11.6161
を完成させ	-11.6163
向かう	-11.6163
ダンジョン	-11.6164
社団法人	-11.6166
構造物	-11.6167
抽象	-11.6167
トーン	-11.6168
反響	-11.6168
打たれ	-11.6169
クジラ	-11.617
仕上げ	-11.6172
富田	-11.6173
を投じ	-11.6173
を導入した	-11.6178
中国共産党	-11.618
喜び	-11.618
中央競馬	-11.6182
稲荷	-11.6182
』・『	-11.6184
アーツ	-11.6184
に統合され	-11.6186
最盛期	-11.6186
鼓	-11.619
フリゲート	-11.6195
聞こえ	-11.62
病死	-11.62
停車駅	-11.6201
好成績	-11.6203
毎日新聞	-11.6203
押さえ	-11.6203
左手	-11.6204
ler	-11.6205
0°	-11.6206
近縁	-11.6208
にも参加	-11.621
初年度	-11.6212
ちょ	-11.6213
南北朝時代	-11.6213
地方競馬	-11.6214
ティウス	-11.6215
を持たせ	-11.6216
有限会社	-11.6217
続行	-11.6218
ヘッドコーチ	-11.6219
余裕	-11.6221
リボン	-11.6224
テクノ	-11.6224
に反対する	-11.6224
栃木	-11.6225
uk	-11.6226
撤回	-11.6227
鋳	-11.6228
レコード会社	-11.6228
加算	-11.6235
ばれ	-11.6235
簡単な	-11.6237
日露戦争	-11.6237
MAN	-11.6238
出演していた	-11.6238
ビック	-11.6239
アムステルダム	-11.624
を殺害し	-11.6241
世界各国	-11.6242
日本書紀	-11.6243
に分けて	-11.6244
宝石	-11.6244
を廃止し	-11.6244
岩手	-11.6245
配属	-11.6245
Ed	-11.6246
総面積	-11.6247
西端	-11.6247
ことに成功した	-11.6248
のほとんどは	-11.6251
仁親王	-11.6253
を拠点に	-11.6254
媒	-11.6254
つづ	-11.6255
優勢	-11.6256
演出家	-11.6258
を記録する	-11.6259
ホスト	-11.6261
疲	-11.6261
ざき	-11.6266
痛み	-11.6267
集約	-11.6268
梅田	-11.627
それ以上	-11.6274
歩き	-11.6278
に追い込まれ	-11.6279
諸侯	-11.6282
タイアップ	-11.6283
遭	-11.6293
もたらされ	-11.6293
ビルボード	-11.6296
妨げ	-11.6298
知られており	-11.6308
判定勝ち	-11.6312
を模した	-11.6312
エンジェル	-11.6312
そく	-11.6315
ベット	-11.6316
集結	-11.6316
じんじゃ	-11.632
ことを示す	-11.632
揺れ	-11.6322
red	-11.6322
を表し	-11.6322
1866	-11.6323
不十分	-11.6324
中枢	-11.6334
西欧	-11.6336
を背景に	-11.6338
適用される	-11.6343
疾	-11.6345
州立大学	-11.6347
Bar	-11.6347
ものとなっている	-11.6347
宰相	-11.6348
セントルイス	-11.635
久留米	-11.6351
ハイブリッド	-11.6351
融資	-11.6355
添加	-11.6357
コントローラ	-11.6359
を持っており	-11.6361
収束	-11.6362
として用いられる	-11.6362
破棄	-11.6364
改宗	-11.6365
叩	-11.6365
と評している	-11.6366
テレビシリーズ	-11.6367
モントリオール	-11.6368
つくば	-11.6368
ジュリア	-11.6368
NPO	-11.6371
偉	-11.6373
初回限定盤	-11.6376
スパルタ	-11.6376
運ぶ	-11.6382
要員	-11.6383
ドラマー	-11.6387
テナント	-11.6387
古巣	-11.6389
狙撃	-11.639
アンドリュー	-11.6392
納め	-11.6393
使用可能	-11.64
官位は	-11.64
子爵	-11.6401
漏れ	-11.6402
発掘調査	-11.6404
ker	-11.6405
揺	-11.6407
改変	-11.6407
御殿	-11.6408
染色体	-11.6408
淀	-11.6408
報告されている	-11.641
促	-11.6412
ことはできなかった	-11.6414
スロバキア	-11.6414
八郎	-11.6414
ゼネラル	-11.6414
交点	-11.6415
試合出場	-11.642
世界初の	-11.6421
遺物	-11.6421
造られた	-11.6423
世界各地	-11.6426
休刊	-11.6427
幹線	-11.6428
出来ず	-11.6429
拡散	-11.6432
重要文化財	-11.6432
卓球	-11.6433
征伐	-11.6434
歓迎	-11.6436
公使	-11.6437
試合に出場した	-11.6437
を結んだ	-11.6439
シリンダー	-11.6439
をなす	-11.6443
古来	-11.6444
タイガース	-11.6446
誇り	-11.6449
専務	-11.6452
1,4	-11.6452
魔術	-11.6455
誘致	-11.6457
ともいえる	-11.6458
MHz	-11.6459
年に発表した	-11.6459
ダイヤ改正	-11.646
Jr	-11.646
タバコ	-11.6461
旋律	-11.6462
フレデリック	-11.6464
にもなった	-11.6464
構え	-11.6469
日本の実業家	-11.6469
難波	-11.6472
フェー	-11.6473
到	-11.6474
荒廃	-11.6475
精神的	-11.6476
を継承した	-11.6476
フラワー	-11.648
経済成長	-11.648
茶屋	-11.6484
と共同で	-11.6486
累計	-11.6487
レッジ	-11.6488
ヴォーカル	-11.6489
ラッセル	-11.6491
北京オリンピック	-11.6492
ゆめ	-11.6492
灯台	-11.6493
居城	-11.6494
リアルタイム	-11.6499
取締	-11.6499
幼虫	-11.6502
スクエア	-11.6504
交通量	-11.6509
もらった	-11.651
凍結	-11.6513
サンクトペテルブルク	-11.6514
デヴィッド	-11.6517
地上駅	-11.6519
優勝に貢献	-11.6521
クロム	-11.6523
las	-11.6523
武将	-11.6524
豊臣秀吉	-11.6525
▁艦歴	-11.6525
ミネソタ	-11.6528
蔵書	-11.6528
近似	-11.653
レジャー	-11.6533
になれ	-11.6535
意欲	-11.6535
移籍後	-11.6535
アレクサンダー	-11.6536
包括	-11.6539
命じられ	-11.6539
けんりつ	-11.6539
パラメータ	-11.6541
マニラ	-11.6543
ストレス	-11.6543
青色	-11.6544
売店	-11.6545
小銃	-11.6548
ニュータウン	-11.6548
単発	-11.6548
召集	-11.6548
拍子	-11.655
は以下のとおり	-11.6551
に留まり	-11.6551
別府	-11.6552
複製	-11.6552
加茂	-11.6555
建てた	-11.6556
4.5	-11.6559
組成	-11.6562
ティーン	-11.6562
田舎	-11.6562
荘園	-11.6563
ひさ	-11.6564
活動を続け	-11.6565
生殖	-11.6565
積極的な	-11.6568
大学を卒業	-11.6569
暮れ	-11.657
貨物列車	-11.6571
を明らかにし	-11.6571
ヴァルト	-11.6573
塩化	-11.6574
Comp	-11.6576
常磐	-11.6577
に登場する架空の	-11.6578
割り当てられ	-11.6579
親会社	-11.6583
チーズ	-11.6584
服装	-11.6585
ています	-11.6588
タイガー	-11.659
木曜日	-11.6593
豊臣	-11.6595
定義される	-11.6595
の中で最も	-11.6596
王族	-11.6597
と主張し	-11.6597
物理的	-11.6599
一橋大学	-11.66
0.2	-11.6602
けば	-11.6603
hr	-11.6604
ケルン	-11.6605
がきっかけで	-11.6605
律令	-11.6606
ATION	-11.661
共和政	-11.661
パチンコ	-11.6611
グラント	-11.6612
vers	-11.6613
ジット	-11.6614
年公開の	-11.6616
基調	-11.6617
今井	-11.6618
鈴鹿	-11.6618
との関連	-11.662
を紹介し	-11.6621
円盤	-11.6623
を繰り返す	-11.6625
ペトロ	-11.6625
スキー場	-11.6627
にとどまった	-11.6628
膨大な	-11.6628
柔軟	-11.6631
予定されていた	-11.6633
を創設し	-11.6634
ムーア	-11.6635
描く	-11.6635
IDE	-11.6636
摘	-11.6641
城壁	-11.6644
刑法	-11.6645
仕切	-11.6647
駐留	-11.6648
▁参考文献	-11.6648
Microsoft	-11.6654
左岸	-11.6656
織田信長	-11.6659
row	-11.6659
シールド	-11.6661
レポート	-11.6661
実質的な	-11.6662
に接し	-11.6664
衰え	-11.6668
を想定し	-11.6668
爵	-11.6671
シアトル	-11.6676
アラスカ	-11.6679
最年少	-11.6685
商事	-11.6688
受託	-11.669
を担当していた	-11.669
ジャイアンツ	-11.669
アイスランド	-11.6693
占拠	-11.6694
改名	-11.6695
慕	-11.6695
1,1	-11.6695
を任され	-11.6696
松尾	-11.6696
排気量	-11.6699
百合	-11.67
処刑された	-11.6701
org	-11.6702
に分かれる	-11.6704
巡礼	-11.6707
マサチューセッツ州	-11.6709
通じる	-11.6711
依然として	-11.6715
にあたった	-11.6716
誰か	-11.6716
風呂	-11.6717
見つかって	-11.672
分断	-11.672
期限付き移籍	-11.6721
ウェイン	-11.6724
強盗	-11.6727
トロイ	-11.6732
モーツァルト	-11.6733
てきている	-11.6733
フジテレビ系列	-11.6737
腹部	-11.6737
文部省	-11.6738
無償	-11.674
を守るため	-11.6742
6,000	-11.6744
争う	-11.6747
と推定されている	-11.6747
通報	-11.6748
ハイビジョン	-11.6749
湿地	-11.675
JIS	-11.6751
を抱いて	-11.6752
主要地方道	-11.6753
に関与し	-11.6754
皇室	-11.6755
一般化	-11.6756
奥州	-11.6757
に指名され	-11.676
low	-11.6762
出すこと	-11.6763
ていれば	-11.6763
きわめて	-11.6764
掲示板	-11.6764
不調	-11.6765
亡くなる	-11.6767
暴行	-11.6767
ウィンブルドン	-11.6772
汽	-11.6773
を支援し	-11.6773
を発行し	-11.6773
との共同	-11.6774
京浜	-11.6777
血統	-11.6778
激減	-11.6779
マツダ	-11.678
""、""	-11.6781
クリーク	-11.6782
幸せ	-11.6783
詳	-11.6787
医科大学	-11.6788
傑	-11.6793
抱え	-11.6794
1.6	-11.6797
火薬	-11.6797
千代田	-11.6797
を破って	-11.6801
立案	-11.6802
懲	-11.6806
毒性	-11.6808
に設けられた	-11.681
マーン	-11.6811
既存	-11.6812
近辺	-11.6812
日本の女優	-11.6813
天津	-11.6816
意味合い	-11.6817
信託	-11.6822
特例	-11.6824
飛鳥	-11.6825
震災	-11.6826
祈り	-11.6826
直結	-11.683
複素	-11.683
予備役	-11.6834
クリスタル	-11.6834
受章	-11.6834
歴史上	-11.6834
頂上	-11.6835
任天堂	-11.6835
ゴシック	-11.6835
たくさん	-11.6839
青少年	-11.684
順調に	-11.684
右岸	-11.6845
を知って	-11.6849
急死	-11.6851
郡庁所在地	-11.6855
サポーター	-11.6855
で生まれる	-11.6856
寄せられ	-11.6859
アラビア	-11.6859
Star	-11.686
格闘技	-11.6861
食材	-11.6863
エチオピア	-11.6864
苦労	-11.6868
穀	-11.6871
広まった	-11.6872
鶴見	-11.6879
ライト級	-11.6881
四日市	-11.6883
預け	-11.6887
起こされ	-11.6887
遮断	-11.6891
と伝えられる	-11.6894
小児	-11.6897
契機	-11.6899
ストリーム	-11.6901
派閥	-11.6903
レギュラー出演	-11.6904
ことについて	-11.6904
写像	-11.6904
フランシスコ	-11.6905
出陣	-11.6906
モニター	-11.691
を望む	-11.6911
に襲われ	-11.6914
けど	-11.6914
ようになっていた	-11.6915
割り当て	-11.6916
ようだ	-11.6916
が合併し	-11.6917
としても活動	-11.6918
単式ホーム	-11.6919
大学医学部	-11.6921
を取り戻し	-11.6924
奨	-11.6924
紹	-11.6927
吹奏楽	-11.6927
になってしまう	-11.693
始発	-11.6931
に属している	-11.6931
戦果	-11.6931
てゆく	-11.6932
盆	-11.6933
慶應義塾	-11.6933
徴兵	-11.6933
を遂げた	-11.6936
曖昧	-11.6936
チョン	-11.6937
吾妻	-11.6939
歴史的な	-11.694
詳しい	-11.6943
ダイエー	-11.6943
に住んでいた	-11.6943
東北地方	-11.6945
を試みた	-11.6946
自転車競技	-11.6946
在籍していた	-11.6947
互換	-11.695
研究センター	-11.6951
を除いた	-11.6951
傘	-11.6952
を飾った	-11.6953
嫡	-11.6954
ベータ	-11.6955
Part	-11.6957
ベネズエラ	-11.6959
持っている	-11.696
スタメン	-11.6963
と呼ばれることもある	-11.6963
育つ	-11.6963
留学生	-11.6965
ator	-11.6969
副社長	-11.697
総統	-11.6971
教諭	-11.6972
を開く	-11.6973
原作者	-11.6973
証券取引所	-11.6974
射殺	-11.6974
ソロモン	-11.6975
可変	-11.6975
日付けで	-11.6977
を拒否した	-11.6979
Str	-11.6981
スロベニア	-11.6985
トライアル	-11.6985
注ぐ	-11.6986
に抜擢され	-11.6988
駅構内	-11.6989
rad	-11.6989
中学校に通う場合	-11.6994
最速	-11.6998
精密	-11.7
オハイオ州	-11.7001
織物	-11.7001
広瀬	-11.7002
以北	-11.7003
ノーフォーク	-11.7009
増備	-11.7014
が配置され	-11.7015
厚生労働省	-11.7017
硫酸	-11.7018
スズキ	-11.7019
ヘッセン	-11.702
旧暦	-11.702
タッグ王座	-11.7023
フェニックス	-11.7026
ウェルター級	-11.7029
att	-11.703
規約	-11.7035
長老	-11.7038
地理学	-11.7039
挑戦者	-11.7043
を突破し	-11.7044
欧州選手権	-11.7045
ツェル	-11.7046
歳没	-11.7048
グルジア	-11.7054
バッグ	-11.7056
慣れ	-11.7059
退却	-11.7069
警報	-11.7071
認められている	-11.7072
を増やし	-11.7074
ドラッグ	-11.7075
失業	-11.7075
den	-11.7075
が確認されている	-11.7076
カラオケ	-11.7076
日本国有鉄道	-11.7076
録画	-11.7077
官職	-11.7079
に携わる	-11.708
記念館	-11.7082
納入	-11.7084
朝倉	-11.7086
最高裁	-11.7091
決まる	-11.7092
暗黒	-11.7097
シオン	-11.7097
ero	-11.7098
工房	-11.7099
コロムビア	-11.7103
世紀前半	-11.7103
群れ	-11.7105
cal	-11.7106
信任	-11.7109
十字軍	-11.7109
を否定し	-11.7111
lus	-11.7112
ケーブルテレビ	-11.7119
飛ぶ	-11.7119
千歳	-11.7121
機雷	-11.7122
解答	-11.7125
財閥	-11.7126
督	-11.7126
はるかに	-11.7127
を破壊し	-11.7128
常任	-11.7129
ise	-11.7129
との交流	-11.7134
管弦楽団	-11.7139
ダウンタウン	-11.714
繋がり	-11.7141
ノミネート	-11.7143
リンゲン	-11.7145
カンファレンス	-11.7146
を訪ね	-11.7147
麻生	-11.7151
好意	-11.7153
直列	-11.7154
が悪く	-11.7154
尼崎	-11.7155
伏せ	-11.7156
ように見える	-11.7157
NEC	-11.7157
をベースとし	-11.7159
ICE	-11.716
架け	-11.7162
ことに由来する	-11.7162
を行っており	-11.7164
資料館	-11.7164
知り合い	-11.7164
警官	-11.7166
こんな	-11.7169
宣告	-11.7171
を実施する	-11.7171
鯨	-11.7176
と指摘している	-11.7179
真珠湾	-11.7179
春季	-11.7182
ブリティッシュ	-11.7185
賃	-11.7186
青葉	-11.7186
幼い	-11.7186
表彰台	-11.7187
消失	-11.7188
陸上自衛隊	-11.7189
章を受章	-11.7189
結城	-11.7189
uch	-11.719
をおこなっ	-11.7191
参謀長	-11.7191
よこ	-11.7192
世帯数と人口	-11.7194
パーソナル	-11.7194
アタック	-11.7198
コイル	-11.72
日現在の世帯数と人口は以下の	-11.7201
薬品	-11.7203
高く評価され	-11.7204
ッティング	-11.7207
思う	-11.7209
真似	-11.7211
両端	-11.7212
年の国勢調査	-11.7212
留守	-11.7213
応答	-11.7215
ハワード	-11.7218
資材	-11.7218
タイトルを獲得	-11.7219
アンダーソン	-11.7224
バンタム級	-11.7224
永井	-11.7225
突起	-11.7229
改められ	-11.723
=""2""|	-11.723
堤防	-11.7231
悩み	-11.7236
が置かれている	-11.7237
短距離	-11.7239
柔らか	-11.7239
に加わり	-11.7242
▁School	-11.7242
One	-11.7242
スティーブン	-11.7245
騒ぎ	-11.7247
改題	-11.7249
付いている	-11.725
与える	-11.725
乙女	-11.725
ハンブルク	-11.7254
不可欠	-11.7254
協同組合	-11.7256
ミドル級	-11.7257
給与	-11.7266
帰った	-11.7269
が設定され	-11.7271
をやめ	-11.7273
きょく	-11.7275
リクエスト	-11.7275
下院議員	-11.7276
商用	-11.7276
とほぼ同	-11.7277
日本国憲法	-11.728
シェイクスピア	-11.7281
大半が	-11.7281
を免れ	-11.7281
生産量	-11.7282
ペンネーム	-11.7282
ナイフ	-11.7283
カンボジア	-11.7287
ローマ教皇	-11.7287
西岸	-11.7287
普通列車	-11.7289
剥奪	-11.729
クラッシュ	-11.7293
ull	-11.7294
ane	-11.7296
リンパ	-11.7299
参拝	-11.7301
傑作	-11.7303
持っていた	-11.7304
><	-11.7305
矢野	-11.7307
志摩	-11.731
提督	-11.7311
処罰	-11.7312
英語圏	-11.7315
に代わる	-11.7316
van	-11.7318
奇妙な	-11.732
証明書	-11.732
遮	-11.7322
モロッコ	-11.7323
メカニズム	-11.7323
とほぼ同じ	-11.7327
チェコスロバキア	-11.7329
時折	-11.7334
十五	-11.7334
鉱業	-11.7336
スティーヴン	-11.7341
いかなる	-11.7341
水力発電	-11.7344
早稲田	-11.7344
と呼んでいる	-11.7349
展覧会	-11.735
duc	-11.7352
が起きる	-11.7353
王座決定戦	-11.7353
増刊	-11.7355
飼い	-11.7357
粋	-11.7358
エンターテイメント	-11.7362
差し替え	-11.7366
をもうけた	-11.7373
多項式	-11.7374
を極め	-11.7378
が主催する	-11.7378
用いられていた	-11.7378
いかに	-11.7379
斉藤	-11.7379
前述の通り	-11.7382
ベテラン	-11.7386
対戦車	-11.7389
イリノイ州	-11.7389
興行収入	-11.739
巡航	-11.7395
無罪	-11.7396
慎重	-11.7397
調停	-11.7398
電動車	-11.7399
マイアミ	-11.74
エンディングテーマ	-11.74
まで続いた	-11.7401
元老院	-11.7401
ソニック	-11.7403
クリーブランド	-11.7403
に属す	-11.7408
を境に	-11.7411
具体的	-11.7413
ジェイムズ	-11.7413
に勝利し	-11.7417
園芸	-11.7419
高速鉄道	-11.742
侯爵	-11.7421
MUSIC	-11.7422
パナソニック	-11.7422
ツェン	-11.7423
襲い	-11.7426
val	-11.743
四丁目	-11.7432
1,500	-11.7433
武術	-11.7435
FOR	-11.7436
待遇	-11.7438
てもらう	-11.7441
茨城	-11.7442
儀礼	-11.7443
ボイラー	-11.7443
広がっている	-11.7443
折り返し	-11.7448
ピストン	-11.7448
を救う	-11.7449
打ち切り	-11.7453
パズル	-11.7453
を築き	-11.7456
着任	-11.7462
WWF	-11.7462
ふさ	-11.7462
over	-11.7462
積載	-11.7464
不況	-11.7465
30%	-11.7466
なっていく	-11.7467
背面	-11.7467
フランクリン	-11.7469
ハンドボール	-11.7469
gin	-11.747
パトリック	-11.747
宙	-11.7471
贈られた	-11.7472
軽量化	-11.7476
に広がる	-11.7476
民謡	-11.7477
常設	-11.7478
隆盛	-11.748
ハドソン	-11.7483
おこなわれ	-11.7484
たびに	-11.7486
になってしまった	-11.7488
封入	-11.7488
ブルックリン	-11.749
小樽	-11.7491
留置	-11.7495
を満たし	-11.7496
降水量	-11.7499
を許され	-11.7499
レイアウト	-11.7502
Ltd	-11.7503
トランプ	-11.7507
遅い	-11.7508
lor	-11.751
正解	-11.7511
Super	-11.7512
で表される	-11.7513
を入れて	-11.7514
進入	-11.7515
ユリウス	-11.7515
と推定される	-11.7518
幸福	-11.7521
ミッドフィールダー	-11.7523
スラフ	-11.7526
位入賞	-11.7527
USA	-11.7531
を駆使し	-11.7532
喫煙	-11.7533
物理学者	-11.7533
を倒す	-11.7534
ネパール	-11.7534
ことで知られる	-11.7536
栄誉	-11.7536
取れる	-11.7537
充分	-11.7541
収蔵	-11.7542
格差	-11.7543
古墳群	-11.7544
に移る	-11.7544
遠隔	-11.7545
が変更され	-11.7545
に沿った	-11.7547
フレンド	-11.7548
にも出演	-11.7548
預金	-11.7549
能登	-11.755
楽譜	-11.7552
怖	-11.7557
極端に	-11.7557
尊重	-11.7558
聴取	-11.7562
air	-11.7564
製造販売	-11.7565
メーター	-11.7567
再結成	-11.7567
密着	-11.7568
尚書	-11.7569
淡路	-11.757
これに伴い	-11.757
ばね	-11.757
法違反	-11.7573
曽根	-11.7574
字幕	-11.7574
と組んで	-11.7579
を所有し	-11.758
所要時間	-11.7582
を擁する	-11.7583
のインタビューで	-11.7584
大学時代	-11.7584
セダン	-11.7585
を参考に	-11.7586
聖母	-11.7587
キャラクターデザイン	-11.7588
名づけられた	-11.7591
ワゴン	-11.7597
採集	-11.7599
伊丹	-11.7599
年代末	-11.7599
hu	-11.76
セリフ	-11.7602
地裁	-11.7604
ギャング	-11.7604
ブリテン	-11.7605
獲物	-11.7606
line	-11.7606
を置いた	-11.7607
異例の	-11.7609
ッテン	-11.761
プレミア	-11.7615
を交え	-11.7615
ハプスブルク	-11.7616
の下部組織	-11.7616
カーネル	-11.7618
急激に	-11.7618
デイヴィッド	-11.7619
フェザー級	-11.7619
カプセル	-11.7622
純粋な	-11.7624
終戦後	-11.7624
楽しめる	-11.7625
客員教授	-11.7625
倉敷	-11.763
北欧	-11.7631
宅地	-11.7645
得点を記録	-11.7645
管弦楽	-11.7648
奉納	-11.7649
汽船	-11.7649
なければならなかった	-11.765
住んでいる	-11.765
確信	-11.7653
を信じ	-11.7655
艦首	-11.7655
を襲名	-11.7656
演じた	-11.7657
ユダヤ教	-11.7659
クラウン	-11.7662
を探す	-11.7662
培	-11.7665
か否か	-11.7665
トヨタ自動車	-11.7665
ISBN	-11.7666
焼け	-11.7666
過半数	-11.7666
淡水	-11.7668
之介	-11.7669
シャフト	-11.767
VTR	-11.767
支所	-11.7671
炭酸	-11.7673
調印	-11.7674
釜山	-11.7675
舗装	-11.7676
最期	-11.7676
アトラクション	-11.7678
のび太	-11.7679
騒音	-11.768
純粋	-11.7683
とも表記される	-11.7688
コミュニティバス	-11.7692
見えない	-11.7693
総監	-11.7695
に移管され	-11.7696
ボヘミア	-11.7697
参謀本部	-11.7698
ash	-11.7699
ビタミン	-11.7702
Disc	-11.7705
エステル	-11.7707
勅令	-11.7708
捕らえられ	-11.771
忍者	-11.7713
に輝いた	-11.7714
きよ	-11.7716
准教授	-11.7719
特記	-11.7719
叙任	-11.7722
王座獲得	-11.7722
大きかった	-11.7725
社殿	-11.7726
大会に出場	-11.7727
八幡宮	-11.7727
ジャマイカ	-11.7728
取り付けられ	-11.7731
レーサー	-11.7734
コナミ	-11.7734
Blue	-11.7735
を保持し	-11.7737
菱	-11.7738
エフエム	-11.7741
パッチ	-11.7743
歌劇場	-11.7744
寄進	-11.7747
寸前	-11.7749
ジーン	-11.7751
駐屯地	-11.7752
CEO	-11.7753
バンクーバー	-11.7753
を得意とし	-11.7755
赤外線	-11.7756
補充	-11.7757
を放つ	-11.7757
を構成し	-11.7757
経費	-11.7759
ディフェンダー	-11.7759
に悩まされ	-11.7762
魅	-11.7763
代わって	-11.7763
あえて	-11.7764
抜いて	-11.7766
イブン	-11.7769
意匠	-11.7769
美容	-11.7769
tri	-11.777
読売新聞	-11.7772
ヒット曲	-11.7772
怪物	-11.7772
1.8	-11.7773
ISS	-11.7775
ディビシオン	-11.7778
更なる	-11.7784
筑波	-11.7785
を有していた	-11.7787
武田氏	-11.7792
次々に	-11.7793
短調	-11.7798
主電動機	-11.78
ene	-11.7801
3.0	-11.7801
に置く	-11.7805
収納	-11.781
専門店	-11.7811
葛飾	-11.7814
市中心部	-11.782
屈指の	-11.782
倣	-11.7822
を無視し	-11.7825
歩行者	-11.7829
新人賞	-11.7833
磁場	-11.7834
趣	-11.7837
所有権	-11.7837
菩	-11.7839
購	-11.7842
並列	-11.7846
リハビリ	-11.7848
をうけ	-11.7854
鉱石	-11.7855
産卵	-11.7855
阿蘇	-11.7856
ロータリー	-11.786
唯	-11.7862
稼ぎ	-11.7862
オールスターゲーム	-11.7862
ベートーヴェン	-11.7863
ロベルト	-11.7866
表題曲	-11.7867
も少なくない	-11.7867
ウォーカー	-11.7875
寄稿	-11.7875
名簿	-11.7878
断片	-11.788
叔	-11.7883
司会者	-11.7884
病理	-11.7884
最高峰	-11.7885
成績を残し	-11.7892
途絶え	-11.7893
嫡子	-11.7898
いじめ	-11.7902
仕方	-11.7902
隷下	-11.7902
を飾る	-11.7904
GHQ	-11.7905
べきだ	-11.7906
リサーチ	-11.7909
進言	-11.791
扱っている	-11.7911
とする説もある	-11.7912
ラーゼ	-11.7912
舗	-11.7913
API	-11.7919
勉	-11.7919
プリンセス	-11.7921
変わらず	-11.7924
スープ	-11.7924
城下町	-11.7928
サミュエル	-11.793
同人誌	-11.793
パブリック	-11.7934
リットル	-11.7936
接収	-11.7937
のあいだ	-11.7938
こども	-11.794
崇拝	-11.7941
従属	-11.7943
リビア	-11.7943
観念	-11.7949
豪族	-11.7951
ホルモン	-11.7953
均衡	-11.7953
報復	-11.7956
ild	-11.7958
目録	-11.7958
こういった	-11.7962
伝導	-11.7968
求める	-11.7972
アレックス	-11.7972
次世代	-11.7973
奪われ	-11.7979
地理的	-11.798
銃撃	-11.7985
絶望	-11.7986
関東地方	-11.7987
帽	-11.7987
相対式ホーム	-11.7995
学区は以下の通りとなる	-11.7995
ビジュアル	-11.7998
違った	-11.7999
ともいわれる	-11.8
寸法	-11.8001
注意が必要である	-11.8002
明確	-11.8004
マニュアル	-11.8004
退官	-11.8005
も含まれる	-11.8006
日本ハム	-11.8006
に覆われ	-11.8008
離党	-11.8008
皮肉	-11.8009
括弧	-11.8011
送電	-11.8011
暴力団	-11.8012
三宅	-11.8013
を描いている	-11.8014
ファクトリー	-11.8014
覚え	-11.8019
ロジー	-11.802
vel	-11.802
だいがく	-11.8021
を向上させ	-11.8021
朝鮮戦争	-11.8024
づか	-11.8027
イスラム教	-11.8028
これを受けて	-11.8028
の頭文字	-11.803
迎	-11.803
公卿	-11.8033
静止	-11.8035
デビューを果たした	-11.8037
祭祀	-11.8037
クリエイティブ	-11.804
構成員	-11.8042
メンテナンス	-11.8043
天王寺	-11.8043
NEWS	-11.8046
を呼んだ	-11.8049
を擁し	-11.805
万ユーロ	-11.8051
アルジェリア	-11.8053
har	-11.8061
伴奏	-11.8061
を経由し	-11.8062
系アメリカ人	-11.8069
oph	-11.8073
を手がける	-11.8076
幼い頃	-11.8076
情熱	-11.8077
パニック	-11.8077
基底	-11.8078
を表している	-11.808
事象	-11.808
奉仕	-11.8081
ハーバード大学	-11.8082
に陥り	-11.8082
bit	-11.8085
調教	-11.8086
反転	-11.8087
長い間	-11.8087
表情	-11.8088
と判断され	-11.8088
イエロー	-11.8088
狙	-11.809
常連	-11.809
土砂	-11.8092
ヶ崎	-11.8094
の地点で	-11.8097
ハッチ	-11.8098
Game	-11.8101
レバノン	-11.8105
ワルシャワ	-11.8105
模倣	-11.8105
遺言	-11.8107
師範	-11.8107
ナレーター	-11.8107
サイエンス	-11.8108
0.3	-11.811
ニュージャージー州	-11.8111
ライトノベル	-11.8111
リミックス	-11.8112
を継いで	-11.8112
限られた	-11.8114
資本主義	-11.8117
を披露した	-11.812
場合によっては	-11.812
アダルトゲーム	-11.812
東日本旅客鉄道	-11.8121
に限らず	-11.8124
法政大学	-11.8127
にまつわる	-11.8127
真言宗	-11.8128
一括	-11.8128
を以て	-11.8129
捜	-11.813
を踏襲し	-11.8133
を狙う	-11.8134
警備隊	-11.8134
来歴	-11.8137
成り立つ	-11.8137
を作成し	-11.8138
旗揚げ	-11.8141
相模原	-11.8142
には至らなかった	-11.8144
苦手	-11.8144
高句麗	-11.8147
▁私生活	-11.8148
勝手に	-11.8153
撤廃	-11.8154
肖像	-11.8155
を逃した	-11.8158
原子力発電所	-11.8164
への移行	-11.8165
軽巡洋艦	-11.8166
コマーシャル	-11.8167
イーグル	-11.8167
いでいる	-11.8167
斜め	-11.8168
チョコレート	-11.817
傷を負っ	-11.8173
幹事長	-11.8173
8,000	-11.8175
世紀半ば	-11.8175
インタフェース	-11.8177
ネルソン	-11.8177
コロニー	-11.818
廃業	-11.818
妖	-11.8186
虐	-11.8187
地方公共団体	-11.8189
ディーゼルエンジン	-11.8191
を提唱し	-11.8192
須賀	-11.8192
疎開	-11.8193
を再開した	-11.8194
阻	-11.8195
を保有し	-11.8196
リリーフ	-11.8196
電荷	-11.8196
ふたり	-11.8199
カルシウム	-11.8199
90%	-11.82
全国各地	-11.8201
しっかり	-11.8203
可能性が高い	-11.8209
瀬戸内海	-11.8209
架橋	-11.8216
を経由する	-11.822
俳句	-11.8223
緩やか	-11.8224
ブラザーズ	-11.8226
強制収容所	-11.8226
トレーナー	-11.8237
許容	-11.824
を計画し	-11.824
発酵	-11.8246
に依存し	-11.8246
バンコク	-11.8249
奈良時代	-11.8249
住職	-11.8254
指名を受け	-11.8255
普通科	-11.8256
批准	-11.8259
東京都港区	-11.8266
非公式	-11.8268
庁長官	-11.8268
を発揮する	-11.8268
を図り	-11.8271
に適した	-11.8275
環状線	-11.8278
援護	-11.828
肖像画	-11.828
ペーパー	-11.8283
ION	-11.8283
ウォルター	-11.8286
▁Inc	-11.8288
往来	-11.8288
パイオニア	-11.8289
礼拝	-11.8289
賛同	-11.829
内野手	-11.8292
日本各地	-11.8292
関税	-11.8293
目覚め	-11.8296
転属	-11.83
NWA	-11.83
が発達し	-11.8303
と名乗る	-11.8305
生存者	-11.8305
ジェント	-11.8307
を組む	-11.8313
が入っている	-11.8313
トランスミッション	-11.8316
被告人	-11.8318
シーズン途中	-11.8321
崩御	-11.8322
アメリカ大陸	-11.8322
急進	-11.8322
スーパーマーケット	-11.8324
80%	-11.8324
試合の出場	-11.8324
眼鏡	-11.8324
迫害	-11.8325
rb	-11.8325
ふるさと	-11.8325
ドラフト会議	-11.8326
有害	-11.8326
換算	-11.8327
目立った	-11.8328
核兵器	-11.8336
▁Records	-11.8339
礼拝堂	-11.834
とうきょう	-11.834
世襲	-11.8341
ルイジアナ	-11.8342
を前提とし	-11.8343
を使わ	-11.8344
究	-11.8344
ジョージア州	-11.8345
リポーター	-11.8345
泣き	-11.8348
サンプル	-11.8351
碑文	-11.8351
脱走	-11.8352
とも言う	-11.8353
給付	-11.8355
罰金	-11.8356
さいたま市	-11.8357
期間限定	-11.8358
自身初の	-11.8358
自分自身	-11.8358
National	-11.8359
十四	-11.836
に尽力した	-11.8365
細長い	-11.8368
多彩な	-11.8368
に滞在し	-11.8373
転移	-11.8375
謡	-11.8376
を統合し	-11.8378
日平均乗車人員	-11.8379
リングネーム	-11.8379
電気軌道	-11.8382
ベストセラー	-11.8382
プラズマ	-11.8384
開始当初	-11.8388
ジャンクション	-11.8388
平方メートル	-11.8388
BMW	-11.8389
を以って	-11.8389
こなす	-11.8393
探知	-11.8394
ヶ岳	-11.8394
密かに	-11.8395
DAY	-11.8399
rus	-11.84
伊那	-11.8402
を好む	-11.8403
リバウンド	-11.8405
碁	-11.8408
世紀頃	-11.8408
文部科学省	-11.8408
ウルグアイ	-11.8409
ille	-11.8409
を振る	-11.8411
Hot	-11.8411
最も重要な	-11.8418
レーニン	-11.8422
親善試合	-11.8423
供養	-11.8424
ヤクルト	-11.8425
ことが知られている	-11.8425
ジャーナル	-11.8426
最大級の	-11.8427
浮世絵	-11.8429
釣	-11.843
決まった	-11.8432
アルバート	-11.8433
諭	-11.8437
を交わし	-11.844
エリート	-11.8442
文禄	-11.8443
試作機	-11.8447
わからない	-11.8448
多額の	-11.845
宝永	-11.8456
離陸	-11.8457
STAR	-11.8463
lect	-11.8465
競輪場	-11.8466
40%	-11.8468
肺炎	-11.847
電気機関車	-11.8472
百済	-11.8473
が悪化し	-11.8475
コソボ	-11.8476
を営む	-11.8477
緊	-11.8478
を冠した	-11.8479
が継いだ	-11.8479
函	-11.8485
溶け	-11.8488
動かす	-11.849
Power	-11.849
水雷戦隊	-11.8493
交互に	-11.8495
0-3	-11.8498
先発出場	-11.8499
と答えた	-11.85
稼動	-11.8502
ニェ	-11.8503
ギリシア語	-11.8506
マキノ	-11.8507
オープンソース	-11.8515
カロライナ	-11.8516
荷重	-11.8517
佐渡	-11.8519
を確認し	-11.852
支出	-11.8521
工藤	-11.8521
農林	-11.8522
太刀	-11.8523
を放ち	-11.8523
減速	-11.8526
アップデート	-11.8531
を活用し	-11.8531
を着用し	-11.8533
ゲオルク	-11.8537
の後任として	-11.8537
廷	-11.8542
発想	-11.8544
陥	-11.8544
東ローマ帝国	-11.8544
設け	-11.8544
友情	-11.8546
と見られている	-11.855
役で出演	-11.8552
もっぱら	-11.8554
容姿	-11.8554
多様性	-11.8557
サイモン	-11.8559
ルーズベルト	-11.8561
都営	-11.8562
を主張する	-11.8563
正確	-11.8564
淀川	-11.8564
兵庫県神戸市	-11.8565
協調	-11.8568
ストライキ	-11.8568
▁引退後は	-11.8568
繰り返され	-11.8569
最も古い	-11.857
マヌエル	-11.8571
天皇杯	-11.8571
接合	-11.8576
ヴュルテンベルク	-11.8578
に挟まれ	-11.8578
ブレーブス	-11.8582
児玉	-11.8583
便宜上	-11.8584
機動部隊	-11.8586
を奪う	-11.859
線を有する地上駅	-11.8591
に比べると	-11.8593
補完	-11.8594
赤穂	-11.8595
働きかけ	-11.8595
日のダイヤ改正	-11.8595
nowiki	-11.8595
▁投票率	-11.8595
インド洋	-11.8595
准将	-11.8596
ことを目的として	-11.8597
上洛	-11.8598
負けを喫し	-11.8599
5.5	-11.8601
エルンスト	-11.8602
処女	-11.8605
を負う	-11.8606
判定負け	-11.8607
斐	-11.8608
マウンテン	-11.8608
プレゼン	-11.8608
負債	-11.8609
起こり	-11.861
込んでいる	-11.8611
サヨナラ	-11.8611
ディビジョン	-11.8612
全盛期	-11.8615
と対立し	-11.8615
を称し	-11.8616
総合格闘技	-11.8617
微生物	-11.8617
未遂	-11.8622
に携わった	-11.8623
一般社団法人	-11.8624
円筒	-11.8627
エンタープライズ	-11.8629
出身の元サッカー選手	-11.8629
護衛艦	-11.863
誉	-11.863
結核	-11.8632
古代ローマ	-11.8633
地質学	-11.8637
枠組み	-11.8638
を保つ	-11.8639
YOU	-11.8641
始祖	-11.8643
スコープ	-11.8646
と主張する	-11.865
SON	-11.865
TION	-11.8651
前回比	-11.8652
電動機	-11.8654
大半の	-11.8656
帰投	-11.8659
サブタイトル	-11.8659
ウサギ	-11.866
支局	-11.8662
知られるようになった	-11.8663
car	-11.8664
と合流し	-11.8665
ヒール	-11.8665
樽	-11.8668
殖	-11.867
と伝えられている	-11.8674
潜在	-11.8676
当日有権者数	-11.8677
開閉	-11.8679
ctor	-11.8681
掘削	-11.8684
日中戦争	-11.8689
筑波大学	-11.8692
バレンシア	-11.8694
オフィシャル	-11.8694
を象徴する	-11.8698
マーガレット	-11.8708
メモリー	-11.8711
伯父	-11.8714
提言	-11.8718
支障	-11.8719
毛利氏	-11.8719
0||1	-11.8722
ゆっくり	-11.8725
エストニア	-11.8725
カリブ海	-11.8729
で覆われ	-11.8731
見つかった	-11.8732
盛り込まれ	-11.8734
結ぶ	-11.8737
別荘	-11.8739
アンケート	-11.8739
スマート	-11.8741
ゴードン	-11.8741
商工	-11.8745
スクウェア	-11.8748
▁Qu	-11.8755
秋季	-11.8756
ミャンマー	-11.876
掌握	-11.8761
はあるものの	-11.8761
強硬	-11.8769
先述の	-11.8769
を除けば	-11.877
国防軍	-11.8773
テクニック	-11.8774
oul	-11.8781
にくく	-11.8784
を選択する	-11.8784
ケベック	-11.8785
トロフィー	-11.8787
!?	-11.8789
マイナス	-11.879
ラッシュ時	-11.8791
委任	-11.8793
トランペット	-11.8796
可動	-11.8798
阪神タイガース	-11.8799
ESS	-11.88
を継承し	-11.8802
ルクセンブルク	-11.8802
決済	-11.8802
海上自衛隊	-11.8803
が評価され	-11.8803
ベトナム戦争	-11.8803
格好	-11.8805
決勝進出	-11.8805
を発する	-11.8805
移送	-11.8806
大きくなる	-11.8807
洛	-11.8807
に対抗し	-11.8812
大部分が	-11.8814
利便性	-11.8816
William	-11.8816
素晴らしい	-11.8823
フェルナンド	-11.8826
ポピュラー	-11.883
祈願	-11.8834
2||0	-11.8835
貧しい	-11.8835
フィギュア	-11.8837
文脈	-11.8838
を禁じ	-11.8839
社会福祉	-11.8843
持株会社	-11.8858
ike	-11.8858
臨んだ	-11.886
培養	-11.8862
日本テレビ系列	-11.8868
ってきて	-11.8869
挙兵	-11.8869
燃費	-11.887
を指摘し	-11.887
オペレーティングシステム	-11.8872
広がって	-11.8874
駆けつけ	-11.8874
疲労	-11.8876
原子炉	-11.888
墳丘	-11.888
ition	-11.8881
ヘクタール	-11.8882
紅白歌合戦	-11.8882
薩摩藩	-11.8888
枢	-11.8891
搬送	-11.8894
青銅	-11.8895
遊撃手	-11.89
特設	-11.89
グスタフ	-11.8901
オークランド	-11.8902
為替	-11.8903
却下	-11.8906
受注	-11.8906
単装	-11.8906
帰郷	-11.8908
戸籍	-11.8908
コラボ	-11.8908
レッスン	-11.8908
漫	-11.8909
著しい	-11.8909
母方の	-11.8919
都督	-11.8922
を管轄する	-11.8922
とも言われている	-11.8925
カジノ	-11.8925
推力	-11.8929
に陥る	-11.8933
Xbox	-11.8936
広がった	-11.8945
読売ジャイアンツ	-11.8946
含有	-11.8952
に分割され	-11.8954
モータースポーツ	-11.8956
サントリー	-11.896
ウラジーミル	-11.8964
妖精	-11.8965
人類学	-11.8966
出身のプロ野球選手	-11.8967
承諾	-11.8968
こうえん	-11.897
マイナーチェンジ	-11.8978
軍需	-11.898
打倒	-11.8986
提起	-11.8987
飛ばし	-11.8989
告示	-11.899
ハリケーン	-11.8992
コンサルタント	-11.8992
互いの	-11.9006
クラリネット	-11.9006
を称え	-11.9007
末端	-11.9008
▁you	-11.9013
に備えて	-11.9024
裏切り	-11.9027
を運営する	-11.9027
顕彰	-11.9028
見かけ	-11.903
克服	-11.9037
を追う	-11.9038
穏やか	-11.9047
aka	-11.905
電灯	-11.9052
ステンレス	-11.9053
っておらず	-11.9055
てきて	-11.9056
を推進し	-11.9059
を組織し	-11.906
幹線道路	-11.9062
従兄弟	-11.9064
を攻撃する	-11.9067
ACE	-11.9068
ウズベキスタン	-11.9071
禁じられ	-11.9072
21:00	-11.9074
仕立て	-11.9075
に戻され	-11.9081
を呈し	-11.9082
沖海戦	-11.9083
に売却され	-11.9086
に加わる	-11.9087
dd	-11.909
抜いた	-11.9091
帰属	-11.9095
メルセデス	-11.9099
鎮守府	-11.9099
いっぱい	-11.9105
を選択し	-11.9105
平衡	-11.9106
食べ物	-11.9106
茨	-11.9106
議決	-11.9106
築造	-11.9109
を招いた	-11.9121
を許し	-11.9121
雷撃	-11.9124
に当たった	-11.9128
の持ち主	-11.913
Black	-11.9132
打診	-11.9137
必殺技	-11.9139
直通運転	-11.9139
明るく	-11.9144
ato	-11.9144
低温	-11.9145
フレーズ	-11.9151
搬	-11.9152
ニャン	-11.9156
キン肉マン	-11.9157
噴射	-11.9162
たばこ	-11.9163
クリストファー	-11.9164
本当の	-11.9173
そういった	-11.9173
ワクチン	-11.9175
賃貸	-11.918
列挙	-11.9181
ever	-11.9186
施策	-11.9187
凍	-11.9189
ユネスコ	-11.919
スピーカー	-11.9193
洛陽	-11.9198
圧迫	-11.9213
を作成する	-11.9214
erry	-11.9214
冷凍	-11.9215
を契機に	-11.9216
駆逐	-11.9218
焦	-11.9218
サウジアラビア	-11.9233
市交通局	-11.9235
不具合	-11.9237
貯蔵	-11.9237
寿司	-11.9241
取り入れられ	-11.9247
ヒップホップ	-11.9255
ZERO	-11.9255
を題材にした	-11.9255
基督教	-11.9255
膨張	-11.9257
クラッチ	-11.9258
粛清	-11.9259
NPB	-11.9262
担保	-11.9269
染め	-11.9271
険	-11.9272
中等教育	-11.9276
をつとめた	-11.9278
ください	-11.9281
クライマックス	-11.9285
Christ	-11.9288
が検討され	-11.929
を結んでいる	-11.9299
ニューオーリンズ	-11.9299
ピッツバーグ	-11.9306
ディスコグラフィ	-11.9306
に遭い	-11.931
ヘルメット	-11.9314
ウェスタン	-11.9314
誤差	-11.9317
捕鯨	-11.9318
啓蒙	-11.9318
で勝利し	-11.932
北緯	-11.932
関ヶ原の戦い	-11.9321
詰ま	-11.9322
ブリュッセル	-11.9325
フィレンツェ	-11.9325
オバマ	-11.9328
となってしまった	-11.9335
関東大震災	-11.9336
アミノ酸	-11.9336
を抱き	-11.9336
衣服	-11.9338
赤十字	-11.934
賭	-11.9342
彼自身	-11.9343
スローガン	-11.9346
づけられ	-11.9347
を導入する	-11.9348
生誕	-11.9355
規範	-11.9356
ヒドロキシ	-11.9358
パウロ	-11.9359
投獄	-11.936
停滞	-11.9365
復刻	-11.9366
チャイルド	-11.9366
を拒否し	-11.9371
と出会う	-11.9373
に係る	-11.9382
抜かれ	-11.9382
絶賛	-11.9383
評議員	-11.9386
日本標準時	-11.9388
国分寺	-11.9392
終始	-11.9392
が発覚し	-11.9398
カザフスタン	-11.9398
ative	-11.9408
を担った	-11.941
精力的に	-11.941
締	-11.9414
使徒	-11.942
即座に	-11.9422
を確立した	-11.9426
よく知られている	-11.9427
まとめられ	-11.9438
奇襲	-11.9438
ディフェンス	-11.9443
エンジニアリング	-11.9446
汎	-11.9446
試験に合格	-11.9447
インパクト	-11.9447
を支配する	-11.9448
を放棄し	-11.9448
乱れ	-11.9451
中性子	-11.9451
共鳴	-11.9454
行われていない	-11.9455
於	-11.9458
アクティブ	-11.9458
農林水産	-11.9458
に拠れば	-11.9462
ニュルンベルク	-11.9469
サンパウロ	-11.9471
スペック	-11.9472
振る舞い	-11.9473
を扱った	-11.9473
を表現する	-11.9473
慣例	-11.9475
ジョゼフ	-11.9478
VHS	-11.9484
に派遣され	-11.9489
混血	-11.9491
が指摘されている	-11.9493
を増やす	-11.9495
めぐり	-11.9495
古代ギリシア	-11.9497
裕福な	-11.9504
合唱団	-11.9509
へ向かった	-11.951
を辞め	-11.9514
と比べ	-11.9514
ドラゴンボール	-11.952
は次の通り	-11.952
に力を入れ	-11.9521
ブンデスリーガ	-11.9521
間違え	-11.9521
[...]
