<unk>	0
<pad>	0
xxbos	0
xxfld	0
xxunk	0
xxpad	0
の	-3.19363
、	-3.20315
。	-3.51504
▁	-3.88386
は	-4.03201
が	-4.26922
を	-4.28495
に	-4.36313
・	-4.61167
)	-4.62893
年	-4.68529
(	-4.73676
で	-4.79061
と	-4.86307
.	-5.19587
」	-5.43159
した	-5.44113
「	-5.49
月	-5.49798
▁"	-5.56704
し	-5.59739
から	-5.68888
1	-5.73367
である	-5.76764
2	-5.77687
する	-5.78269
も	-5.78332
や	-5.7999
日	-5.85364
ス	-5.98644
3	-6.00029
として	-6.02261
た	-6.06146
では	-6.21872
る	-6.2465
4	-6.30938
された	-6.31696
』	-6.34518
大	-6.38349
な	-6.39544
『	-6.398
人	-6.42211
ア	-6.42708
い	-6.49192
り	-6.53302
5	-6.53306
ク	-6.55373
ト	-6.55898
には	-6.55943
している	-6.57627
この	-6.58847
7	-6.62492
して	-6.65341
という	-6.6598
8	-6.66399
リ	-6.6903
ラ	-6.70216
か	-6.70703
6	-6.70894
9	-6.72012
中	-6.7213
10	-6.74003
その	-6.74738
年に	-6.76984
く	-6.77346
また	-6.78964
など	-6.791
て	-6.79683
本	-6.81669
ル	-6.82058
市	-6.8262
山	-6.83641
-	-6.8664
第	-6.86941
され	-6.89342
カ	-6.90273
ド	-6.91781
一	-6.92416
上	-6.92796
田	-6.93553
国	-6.95043
マ	-6.961
者	-6.96143
ズ	-6.97052
長	-6.97566
地	-6.99277
ている	-6.99869
される	-7.00449
下	-7.00574
ら	-7.01226
コ	-7.0142
▁-	-7.01702
タ	-7.02227
川	-7.02267
ナ	-7.02754
日本	-7.03387
されている	-7.04846
12	-7.05114
18	-7.07182
フ	-7.07522
家	-7.08314
""	-7.09025
名	-7.10414
み	-7.10563
ロ	-7.11164
き	-7.12225
線	-7.12359
町	-7.12831
エ	-7.12934
戦	-7.13102
水	-7.13271
後	-7.14018
となった	-7.14454
回	-7.16118
同	-7.16359
によって	-7.16377
,	-7.16608
った	-7.17583
法	-7.17816
11	-7.1788
部	-7.18398
日に	-7.19076
高	-7.20064
ミ	-7.20088
ム	-7.20623
新	-7.20636
子	-7.20707
オ	-7.21097
バ	-7.21848
駅	-7.22072
による	-7.22917
前	-7.24343
C	-7.24421
ッ	-7.24701
:	-7.24862
生	-7.25427
内	-7.25631
ブ	-7.2604
三	-7.26121
レ	-7.26179
化	-7.26426
シ	-7.26659
イ	-7.26672
により	-7.26835
数	-7.26961
e	-7.28041
小	-7.28043
位	-7.28215
分	-7.28241
M	-7.28264
であった	-7.28847
S	-7.29802
ン	-7.30103
す	-7.30421
出	-7.30745
体	-7.31189
D	-7.31442
ウ	-7.31551
つ	-7.31951
リー	-7.31979
A	-7.32035
であり	-7.32158
島	-7.33358
s	-7.33372
B	-7.3361
キ	-7.3411
▁(	-7.34413
がある	-7.34482
野	-7.34652
手	-7.35454
へ	-7.35557
していた	-7.35668
まで	-7.37112
東	-7.37475
ニ	-7.37638
会	-7.38394
ため	-7.38552
大学	-7.38862
道	-7.3927
サ	-7.40001
T	-7.40014
う	-7.4094
性	-7.41031
って	-7.42148
ん	-7.42838
学	-7.42869
となる	-7.43151
P	-7.43436
軍	-7.43737
ノ	-7.44206
チ	-7.44323
南	-7.44586
F	-7.44632
用	-7.44745
行	-7.4478
州	-7.44957
的	-7.45271
事	-7.464
北	-7.4648
さ	-7.47279
車	-7.47941
グ	-7.48357
的な	-7.49814
元	-7.50276
所	-7.50444
より	-7.50524
15	-7.50893
20	-7.50959
原	-7.51141
ジ	-7.5143
語	-7.52374
、「	-7.52753
への	-7.53094
西	-7.53105
村	-7.53389
a	-7.53586
物	-7.53931
L	-7.54099
機	-7.54464
見	-7.55664
お	-7.56964
デ	-7.57529
作品	-7.57732
立	-7.57783
放送	-7.58142
プ	-7.58726
ダ	-7.59698
メ	-7.59752
金	-7.59804
E	-7.6012
号	-7.60472
16	-7.60719
正	-7.60775
方	-7.60894
形	-7.60923
目	-7.62595
全	-7.62871
ハ	-7.63121
点	-7.63393
社	-7.63443
ない	-7.63685
面	-7.63731
区	-7.64534
パ	-7.64856
場	-7.65086
ター	-7.65521
にも	-7.65538
王	-7.65642
昭和	-7.65723
ティ	-7.65901
二	-7.66004
不	-7.66172
ネ	-7.66239
でも	-7.67033
だった	-7.67093
時	-7.6763
G	-7.67874
郡	-7.67876
作	-7.68086
いた	-7.68602
神	-7.68712
平	-7.68763
ツ	-7.68792
R	-7.68844
テ	-7.69519
ガ	-7.69597
17	-7.69927
型	-7.70001
約	-7.70111
石	-7.70455
m	-7.70611
ー	-7.70688
城	-7.7071
発	-7.71425
力	-7.71664
公	-7.72375
代	-7.7308
文	-7.73305
世界	-7.73337
外	-7.73511
海	-7.73543
o	-7.73935
式	-7.74331
などの	-7.74905
ま	-7.75075
イン	-7.75263
ていた	-7.75504
モ	-7.75538
しかし	-7.75571
セ	-7.75663
等	-7.75777
▁/	-7.75834
19	-7.76001
H	-7.76331
入	-7.76338
y	-7.76767
木	-7.76961
曲	-7.7708
マン	-7.77332
重	-7.77434
ック	-7.77626
i	-7.77957
にある	-7.78375
ビ	-7.78381
書	-7.79201
映画	-7.79534
30	-7.79577
その後	-7.79708
ット	-7.80318
主	-7.80369
において	-7.80632
月に	-7.80794
天	-7.80939
東京	-7.81332
間	-7.81382
ラー	-7.81466
め	-7.817
実	-7.81801
スト	-7.8189
じ	-7.82933
れ	-7.83111
N	-7.83599
あ	-7.83764
U	-7.84235
W	-7.84695
0	-7.85154
役	-7.85382
明	-7.8568
日本の	-7.85925
こと	-7.86117
13	-7.86121
ディ	-7.86421
県	-7.86455
t	-7.86525
わ	-7.86864
こ	-7.87134
無	-7.87307
K	-7.87307
的に	-7.8766
▁概要	-7.88245
次	-7.89264
られた	-7.89282
アル	-7.89596
14	-7.89624
および	-7.90025
系	-7.90447
世	-7.90621
台	-7.91454
初	-7.91553
期	-7.91639
え	-7.91671
ボ	-7.91727
流	-7.92421
ロー	-7.92548
番組	-7.92947
バー	-7.92998
版	-7.93124
となり	-7.93371
ピ	-7.93475
後に	-7.94083
地域	-7.9456
だ	-7.94565
井	-7.95025
ザ	-7.95075
度	-7.95529
アン	-7.95674
とは	-7.95804
和	-7.95973
知	-7.97102
V	-7.97221
J	-7.97331
r	-7.97523
種	-7.97532
通	-7.97733
活動	-7.97777
合	-7.98107
局	-7.98586
ず	-7.98599
』(	-7.98767
ち	-7.99259
安	-7.99272
における	-7.99391
口	-8.00256
アメリカ	-8.00464
気	-8.0048
信	-8.00722
ゴ	-8.00796
光	-8.01046
ール	-8.01199
旧	-8.01317
官	-8.01546
同年	-8.01749
っている	-8.01812
O	-8.02055
定	-8.02239
理	-8.02737
I	-8.02799
話	-8.02853
ベ	-8.02948
年には	-8.03113
成	-8.0315
ゲーム	-8.03391
er	-8.03737
対	-8.05002
橋	-8.05066
カー	-8.05325
寺	-8.05327
鉄道	-8.05488
馬	-8.05702
有	-8.05721
ソ	-8.05798
各	-8.05923
船	-8.06375
ケ	-8.06465
現	-8.06662
チーム	-8.07042
総	-8.0754
動	-8.07592
多	-8.07801
n	-8.0784
け	-8.08
=	-8.08188
平成	-8.08507
できる	-8.09073
バス	-8.09472
別	-8.09695
さらに	-8.09769
先	-8.09901
電	-8.10133
科	-8.10265
u	-8.1034
勝	-8.1042
ば	-8.1076
集	-8.10798
番	-8.10805
両	-8.10832
白	-8.1094
党	-8.11154
土	-8.11762
サン	-8.11793
について	-8.11911
となっている	-8.12374
風	-8.12438
シリーズ	-8.12485
とする	-8.12653
政	-8.12794
死	-8.1306
制	-8.13081
直	-8.13174
色	-8.13284
年から	-8.13809
賞	-8.1404
む	-8.1415
氏	-8.14328
ワ	-8.14549
▁『	-8.14766
開	-8.15757
進	-8.15802
万	-8.1625
々	-8.16442
リン	-8.16471
着	-8.16493
ラン	-8.16545
隊	-8.16824
義	-8.16849
代表	-8.17127
25	-8.17446
選手	-8.17524
記	-8.17654
シュ	-8.18128
頭	-8.1837
大会	-8.18636
級	-8.18658
音楽	-8.1879
開発	-8.18803
松	-8.1894
院	-8.1932
ヒ	-8.19582
人の	-8.19763
宮	-8.19824
時間	-8.19921
コン	-8.2022
時代	-8.20383
とも	-8.21043
学校	-8.21283
p	-8.21631
ペ	-8.21801
せ	-8.21916
員	-8.22151
っ	-8.2216
b	-8.22241
問題	-8.22285
歌	-8.22618
明治	-8.227
朝	-8.22733
l	-8.22789
X	-8.23043
シーズン	-8.2347
ある	-8.23553
研究	-8.23752
k	-8.2402
プロ	-8.24029
ポ	-8.24096
のみ	-8.24757
艦	-8.24821
取	-8.24831
音	-8.24888
館	-8.24942
教	-8.25069
兵	-8.25099
監督	-8.25124
民	-8.25364
レン	-8.25672
21	-8.26188
リーグ	-8.2628
なかった	-8.26375
ギ	-8.26499
再	-8.2681
心	-8.26844
屋	-8.27047
ヤ	-8.27323
女	-8.27363
50	-8.27384
権	-8.27448
当	-8.27455
会社	-8.27491
真	-8.27765
試合	-8.27775
g	-8.28091
谷	-8.28224
があり	-8.28358
現在	-8.28423
武	-8.29243
中国	-8.2925
%	-8.2928
美	-8.29383
ど	-8.29618
al	-8.29706
門	-8.29728
マー	-8.30087
ホ	-8.30388
レー	-8.305
側	-8.30534
これは	-8.30684
地方	-8.30701
ダー	-8.30881
テレビ	-8.30889
派	-8.30954
津	-8.30963
なお	-8.31072
関係	-8.31317
組	-8.31348
校	-8.31382
産	-8.31696
in	-8.31771
」(	-8.31967
24	-8.31992
ぶ	-8.32022
ar	-8.32165
教育	-8.32185
んだ	-8.32188
に対して	-8.32741
すること	-8.32854
▁S	-8.33048
d	-8.3311
量	-8.33381
論	-8.34124
よう	-8.34234
食	-8.34247
使用	-8.34301
店	-8.34313
ヴィ	-8.34472
c	-8.34644
にて	-8.3466
すると	-8.34779
国際	-8.34902
四	-8.35214
空	-8.3523
室	-8.35252
自	-8.3536
計画	-8.35473
ナー	-8.35749
調	-8.3609
父	-8.3612
されていた	-8.36742
省	-8.36888
られ	-8.37067
ており	-8.37242
十	-8.37245
Y	-8.37346
ソン	-8.37412
都市	-8.37443
現在の	-8.37446
母	-8.37572
22	-8.37629
アルバム	-8.37801
トン	-8.37982
多くの	-8.38291
古	-8.38401
相	-8.38537
年代	-8.38624
星	-8.38656
それ	-8.38834
or	-8.38909
になる	-8.38936
領	-8.3894
アー	-8.3895
他	-8.39176
▁M	-8.39379
23	-8.39472
例	-8.39882
広	-8.39946
になった	-8.40038
戦争	-8.40078
花	-8.40101
最	-8.40524
っていた	-8.4069
士	-8.40745
任	-8.40766
リア	-8.40824
付	-8.40975
当時	-8.41128
条	-8.4127
パー	-8.41285
特	-8.41772
しており	-8.41821
ドイツ	-8.41855
異	-8.41874
ね	-8.42007
事件	-8.4204
変	-8.42135
政府	-8.42296
られる	-8.4231
シー	-8.42539
達	-8.4266
フランス	-8.42682
座	-8.42713
吉	-8.43169
強	-8.43183
優勝	-8.43252
事業	-8.43278
とともに	-8.44347
連	-8.45157
ライ	-8.45287
藤	-8.45333
ことを	-8.45451
中央	-8.45603
品	-8.45724
黒	-8.45772
び	-8.45926
及び	-8.45928
00	-8.45948
太	-8.46215
ること	-8.46307
特に	-8.46446
情報	-8.46479
、『	-8.467
身	-8.4686
そして	-8.46946
社会	-8.47122
フェ	-8.47168
反	-8.47171
これ	-8.47171
28	-8.47294
加	-8.47316
f	-8.47371
ニー	-8.47613
フィ	-8.47645
なく	-8.47842
来	-8.47922
伝	-8.47936
on	-8.4796
26	-8.48263
ッド	-8.48295
務	-8.48442
常	-8.48603
路線	-8.48824
赤	-8.49238
親	-8.4933
岡	-8.49491
文化	-8.49504
愛	-8.49581
波	-8.49693
場合	-8.49762
40	-8.49768
an	-8.49769
造	-8.4982
尾	-8.49909
以降	-8.49947
開始	-8.50012
27	-8.50127
業	-8.50231
族	-8.5035
職	-8.50586
利用	-8.5059
」「	-8.50717
ジェ	-8.50726
▁""	-8.50737
を持つ	-8.50851
販売	-8.50874
だが	-8.51615
スター	-8.51653
撃	-8.51724
w	-8.51942
とした	-8.52015
治	-8.52122
他の	-8.52134
もある	-8.52226
増	-8.52314
路	-8.524
今	-8.52413
火	-8.52427
カル	-8.52453
サー	-8.52466
ひ	-8.52496
イギリス	-8.52621
男	-8.52633
歳	-8.52741
があった	-8.5289
河	-8.52938
グループ	-8.53015
レイ	-8.53102
ックス	-8.53201
類	-8.53537
つの	-8.53659
女性	-8.53685
楽	-8.53831
器	-8.53864
地区	-8.53893
en	-8.53899
発売	-8.53994
団	-8.54
表	-8.54054
29	-8.54073
米	-8.54344
渡	-8.54603
と呼ばれる	-8.54619
もの	-8.54641
ことから	-8.54888
システム	-8.55042
在	-8.55067
ことが	-8.55299
八	-8.55405
退	-8.55458
久	-8.55893
年間	-8.56007
向	-8.56055
春	-8.56116
リング	-8.56348
▁B	-8.57089
攻撃	-8.57271
所属	-8.57396
後の	-8.5748
100	-8.57489
好	-8.5751
青	-8.5753
と共に	-8.57556
ーン	-8.57614
ヌ	-8.57886
京	-8.57982
技術	-8.58276
ファ	-8.58332
出演	-8.58552
基	-8.58834
ヘ	-8.58888
説	-8.59053
住	-8.59159
だけ	-8.5937
記録	-8.59471
については	-8.59867
ように	-8.59909
言	-8.59956
戸	-8.59972
オー	-8.5998
▁また	-8.60246
切	-8.60291
ルー	-8.60431
半	-8.60517
を受け	-8.60555
利	-8.60661
施設	-8.60884
師	-8.61137
薬	-8.6156
命	-8.61848
破	-8.62043
断	-8.62083
宗	-8.6241
弾	-8.62461
五	-8.62639
起	-8.62656
近	-8.62728
製	-8.62768
タイ	-8.62812
ジャ	-8.62888
通り	-8.62949
関	-8.63029
清	-8.63439
としては	-8.6354
ゲ	-8.63584
よ	-8.63775
字	-8.63982
夫	-8.64086
したが	-8.64104
ガー	-8.64156
エル	-8.64225
経済	-8.64271
ビー	-8.64392
車両	-8.64411
デビュー	-8.6448
江	-8.64691
ゼ	-8.64754
都	-8.64771
藩	-8.64778
ほか	-8.64783
福	-8.64818
部分	-8.65042
志	-8.65042
▁A	-8.65115
画	-8.65229
製造	-8.65242
機関	-8.65348
走	-8.65659
!	-8.65811
単	-8.66051
制作	-8.66072
世紀	-8.66129
解	-8.66136
聖	-8.66162
参加	-8.6617
シャ	-8.66216
ただし	-8.66228
円	-8.6625
re	-8.66457
工	-8.66548
砲	-8.66675
組織	-8.66734
ノー	-8.66897
沢	-8.67127
史	-8.67241
堂	-8.67341
日の	-8.67609
〜	-8.67774
出身	-8.67864
を行う	-8.67955
に関する	-8.68095
ではなく	-8.68131
残	-8.68211
le	-8.68241
ロシア	-8.68291
末	-8.68327
モデル	-8.68388
ベル	-8.68566
いる	-8.68867
急	-8.68879
決	-8.69032
取り	-8.69036
▁この	-8.69078
レス	-8.69246
海軍	-8.69405
英	-8.69449
出場	-8.69529
に対する	-8.70407
生産	-8.70653
崎	-8.70729
配	-8.70784
根	-8.71062
エン	-8.71065
高校	-8.71165
全国	-8.71285
特徴	-8.71576
御	-8.71644
中に	-8.71667
▁C	-8.71721
人物	-8.72055
ところ	-8.72228
ぎ	-8.72284
交	-8.72377
属	-8.72739
開催	-8.72852
させ	-8.72981
足	-8.72996
源	-8.73004
意	-8.7304
クラブ	-8.73112
建設	-8.7314
31	-8.73146
ロン	-8.73195
年まで	-8.73241
企業	-8.73245
丸	-8.7332
ハイ	-8.73365
られている	-8.73383
当時の	-8.73425
ふ	-8.73513
視	-8.73733
岩	-8.73794
▁P	-8.73819
従	-8.7392
機能	-8.73937
結果	-8.73977
角	-8.74035
巻	-8.74125
越	-8.74168
いて	-8.74203
永	-8.74224
生活	-8.74738
といった	-8.74952
佐	-8.74959
同じ	-8.75106
首	-8.75114
センター	-8.75311
使	-8.75349
ーズ	-8.75395
構造	-8.75434
以上	-8.7554
図	-8.75764
||	-8.75863
カン	-8.75887
鉄	-8.76144
良	-8.76205
60	-8.76467
質	-8.76551
乗	-8.76642
群	-8.76668
または	-8.76724
管理	-8.76753
主義	-8.76828
の中で	-8.76963
守	-8.76992
列車	-8.77001
変更	-8.77001
千	-8.77013
運動	-8.77069
させる	-8.77098
"")	-8.77112
チェ	-8.77193
大きな	-8.77297
ic	-8.773
ぐ	-8.77398
豊	-8.77497
落	-8.77502
こう	-8.77541
ほど	-8.77638
向け	-8.77645
際	-8.77688
非	-8.77892
製作	-8.78071
主に	-8.78173
内容	-8.78219
部隊	-8.78241
交通	-8.78247
ろ	-8.7825
高等学校	-8.78381
右	-8.78592
技	-8.7861
蔵	-8.78728
状	-8.79127
それぞれ	-8.7914
モン	-8.79266
v	-8.79282
転	-8.79367
端	-8.7937
格	-8.79475
エンジン	-8.7948
結	-8.79529
とされる	-8.79596
is	-8.79599
選	-8.79607
ニア	-8.79817
独立	-8.79851
しく	-8.79861
決定	-8.8
ホーム	-8.80111
年度	-8.80166
～	-8.80225
シングル	-8.80245
居	-8.80413
at	-8.80416
バイ	-8.80422
km	-8.80441
園	-8.80458
称	-8.80713
声	-8.80772
送	-8.80786
株式会社	-8.80797
契約	-8.80802
者の	-8.8094
素	-8.81114
イタリア	-8.81187
極	-8.81192
ジョン	-8.81398
航空	-8.81541
港	-8.8157
森	-8.81602
率	-8.81741
速	-8.81766
日から	-8.81851
調査	-8.81885
マル	-8.81943
ビル	-8.82012
ジュ	-8.82021
勝利	-8.82113
葉	-8.823
最高	-8.82349
ドル	-8.82349
2000	-8.82397
左	-8.82421
状態	-8.82579
バン	-8.8262
留	-8.82774
時に	-8.82785
ハー	-8.82956
登場	-8.82999
自由	-8.83008
翌	-8.83105
夏	-8.83158
修	-8.83447
入れ	-8.8351
評価	-8.83672
失	-8.8387
ると	-8.84089
感	-8.84128
キャラクター	-8.84142
収録	-8.84181
させた	-8.8419
何	-8.84263
前に	-8.84278
のような	-8.84371
▁F	-8.84491
観	-8.84505
層	-8.84507
帝国	-8.84743
コー	-8.84824
保	-8.84872
個	-8.8494
改	-8.84966
える	-8.8497
かった	-8.85199
委員会	-8.85503
ニュー	-8.85588
一般	-8.8565
場所	-8.85728
祭	-8.8575
ザー	-8.85799
ブル	-8.85829
を経て	-8.86026
トリ	-8.86232
ヴ	-8.86317
満	-8.86413
スタ	-8.86428
h	-8.86442
未	-8.86563
テン	-8.86899
ながら	-8.86964
悪	-8.86976
▁D	-8.87034
敵	-8.87229
のように	-8.87237
商	-8.87255
熱	-8.87287
▁歴史	-8.87497
'	-8.87501
設置	-8.87589
の一部	-8.87723
坂	-8.87805
病	-8.88108
そう	-8.88122
されて	-8.88221
のため	-8.8824
ガン	-8.88297
シン	-8.88339
血	-8.88503
界	-8.88538
設計	-8.88693
アイ	-8.88939
th	-8.88941
林	-8.88963
べ	-8.89062
大阪	-8.89135
▁L	-8.89155
順	-8.8945
道路	-8.89618
節	-8.89651
生まれ	-8.89669
鳥	-8.89685
副	-8.89711
ヴァ	-8.89748
しい	-8.89774
ッチ	-8.8986
教会	-8.89913
Z	-8.89932
ファン	-8.90017
以下の	-8.90124
雄	-8.90244
かつて	-8.90306
球	-8.90406
伊	-8.90449
ものの	-8.90513
人間	-8.90529
協会	-8.90529
低	-8.90648
接	-8.90654
特別	-8.91035
報	-8.91036
80	-8.91095
以下	-8.91248
列	-8.91529
ch	-8.91599
一方	-8.91705
人が	-8.91742
経	-8.91849
キー	-8.91857
it	-8.91927
営	-8.91986
ユ	-8.92001
プラ	-8.92115
タイトル	-8.92236
差	-8.92344
運行	-8.92463
告	-8.92482
彼は	-8.92496
キャ	-8.92501
パン	-8.92528
移	-8.92542
たち	-8.92882
人口	-8.92915
付け	-8.92975
されており	-8.93007
友	-8.93053
打	-8.93088
客	-8.93259
ハン	-8.93272
紙	-8.93403
計	-8.93439
女子	-8.93479
のために	-8.9386
クリ	-8.93974
圧	-8.94033
へと	-8.9407
目的	-8.94111
装	-8.94551
引	-8.94583
バル	-8.9472
us	-8.94805
ために	-8.95022
勢	-8.95317
▁G	-8.95346
街	-8.95574
のうち	-8.95641
跡	-8.95682
周辺	-8.95743
殺	-8.9585
&	-8.95866
表記	-8.9592
レース	-8.95984
ローマ	-8.96057
設定	-8.9616
要	-8.96161
を受けた	-8.96169
ランド	-8.96234
収	-8.96293
現在は	-8.9632
小学校	-8.96461
秋	-8.96572
管	-8.96594
国家	-8.96713
農	-8.96749
妻	-8.96809
関連	-8.96823
芸	-8.96957
段	-8.96961
張	-8.97045
▁「	-8.97076
▁18	-8.97159
おり	-8.97348
▁T	-8.97497
草	-8.975
ざ	-8.97619
再び	-8.97778
忠	-8.97824
構成	-8.97919
料	-8.98166
夜	-8.9823
これらの	-8.98233
ヨーロッパ	-8.98285
大きく	-8.98406
章	-8.98418
最も	-8.98468
ing	-8.98508
-1	-8.98515
経営	-8.98547
域	-8.98592
アニメ	-8.98681
団体	-8.98703
対象	-8.98765
期間	-8.98817
六	-8.98841
を行った	-8.98962
ol	-8.99322
FC	-8.99419
初の	-8.99494
存在	-8.99732
ような	-8.99766
運転	-8.99772
初めて	-8.99782
私	-8.99798
公開	-8.99804
el	-8.99857
チャ	-8.99888
東京都	-8.99933
▁なお	-8.99939
歩	-8.99948
これを	-8.99953
)」	-9.00069
に対し	-9.00127
盤	-9.00132
建	-9.00136
1990	-9.00192
横	-9.00245
置	-9.00366
政治	-9.00373
英語	-9.00468
70	-9.00468
持	-9.00659
ダイ	-9.00684
得	-9.00689
敗	-9.00698
プレ	-9.0092
デン	-9.00964
羽	-9.01049
引き	-9.01057
ことで	-9.01058
像	-9.01123
ブラ	-9.01124
しない	-9.01371
小説	-9.01456
んで	-9.01501
z	-9.01524
ジョ	-9.01529
そ	-9.0154
里	-9.01545
マイ	-9.01552
誌	-9.01613
サービス	-9.01683
学生	-9.0174
ッシュ	-9.01814
連続	-9.0186
徳	-9.01878
遠	-9.01957
高い	-9.01976
グラ	-9.01993
スポーツ	-9.021
方法	-9.02105
さん	-9.02117
国内	-9.0213
オン	-9.02153
諸	-9.02421
タン	-9.0249
最初の	-9.02506
デザイン	-9.02765
能	-9.02885
科学	-9.02919
カード	-9.02983
アメリカ合衆国	-9.03007
2012	-9.03152
しか	-9.03175
からは	-9.0334
陽	-9.03439
などを	-9.03553
にかけて	-9.03577
トル	-9.0359
よりも	-9.03611
ものである	-9.03612
90	-9.0364
府	-9.03641
あるいは	-9.03696
ウス	-9.03724
若	-9.0373
様	-9.03838
などが	-9.04022
介	-9.04043
バンド	-9.0409
中学校	-9.04096
様々な	-9.04101
積	-9.04209
mm	-9.0442
北海道	-9.04602
樹	-9.04752
サイ	-9.04762
第一	-9.04848
内の	-9.0485
防	-9.04986
et	-9.0499
文字	-9.05047
ro	-9.05059
自動車	-9.05164
月には	-9.05228
案	-9.05236
天皇	-9.05297
司	-9.05414
形式	-9.05514
とき	-9.05548
ダン	-9.05616
者は	-9.05703
郷	-9.05732
2016	-9.05742
浦	-9.05756
なり	-9.05841
湖	-9.05884
ダム	-9.05973
名は	-9.05986
環境	-9.05997
令	-9.06051
席	-9.06061
データ	-9.06102
卒業	-9.06106
総合	-9.06208
議会	-9.06302
であったが	-9.06475
休	-9.06497
2004	-9.06513
シア	-9.06537
においては	-9.06792
指定	-9.06807
野球	-9.06872
ではない	-9.0693
倉	-9.0693
減	-9.06949
ショ	-9.06992
ート	-9.06998
廃	-9.071
額	-9.07226
宇宙	-9.07236
を含む	-9.07278
応	-9.07389
受け	-9.07456
が多い	-9.0751
ップ	-9.0752
之	-9.08012
紀	-9.08075
望	-9.08106
運営	-9.08143
超	-9.0817
家の	-9.08174
戦闘	-9.08228
教授	-9.08329
舞台	-9.08329
などで	-9.08373
メンバー	-9.08419
名称	-9.08443
共	-9.08579
軽	-9.08592
典	-9.08623
養	-9.08668
会議	-9.0867
本作	-9.08676
便	-9.08708
適	-9.08804
入り	-9.08929
オリンピック	-9.09061
早	-9.0909
記念	-9.09112
編	-9.09121
工業	-9.09171
大統領	-9.09314
売	-9.09351
服	-9.09425
板	-9.09458
難	-9.09559
支援	-9.09632
中の	-9.09642
返	-9.09669
一部	-9.09726
者が	-9.09727
追	-9.09774
▁H	-9.09779
ラジオ	-9.09813
st	-9.09817
スーパー	-9.09869
▁経歴	-9.10024
彼の	-9.10092
にあった	-9.10102
当初	-9.10157
セン	-9.1028
日には	-9.10318
全体	-9.10342
連合	-9.10378
を務めた	-9.10453
延	-9.10482
浜	-9.10518
値	-9.10542
指	-9.10597
覚	-9.10643
神社	-9.10759
セル	-9.10789
国民	-9.10812
編成	-9.1091
陸軍	-9.10939
こともある	-9.11075
出身の	-9.11119
ほとんど	-9.1113
トラ	-9.11282
賀	-9.11391
岸	-9.1154
になっている	-9.11672
陣	-9.11714
陸	-9.11766
ra	-9.11803
材	-9.11806
1980	-9.11897
支配	-9.11943
投	-9.11946
助	-9.12018
シェ	-9.12048
興	-9.12067
2015	-9.12119
飛行	-9.12129
枚	-9.12317
帯	-9.12351
時代の	-9.12374
位置	-9.12438
そのため	-9.12603
公園	-9.12629
最終	-9.12687
以来	-9.12706
習	-9.12735
トップ	-9.12752
異なる	-9.12963
状況	-9.12975
es	-9.1298
出版	-9.13004
与	-9.13046
支	-9.13156
ワー	-9.1316
2014	-9.13204
細	-9.13366
れば	-9.13426
選挙	-9.13501
示	-9.13644
絵	-9.13748
▁4	-9.13753
x	-9.13787
為	-9.13791
京都	-9.13836
限	-9.13854
戦で	-9.13859
百	-9.13907
周	-9.14005
建築	-9.14036
cm	-9.14182
クス	-9.14191
銃	-9.14193
発生	-9.14248
宝	-9.14285
自分	-9.14295
500	-9.14393
劇	-9.14425
2017	-9.14488
短	-9.14507
トゥ	-9.14526
なる	-9.14551
自然	-9.147
奪	-9.14751
共同	-9.14836
制度	-9.1486
想	-9.14877
多く	-9.15054
ご	-9.15082
乱	-9.15161
庁	-9.15172
漫画	-9.15257
導入	-9.15257
輪	-9.15287
放	-9.15304
らず	-9.15312
ゆ	-9.15426
必要	-9.15439
味	-9.15447
1999	-9.15451
距離	-9.15511
骨	-9.15537
階	-9.1554
ぼ	-9.15662
容	-9.15686
CD	-9.15788
予定	-9.1582
▁E	-9.15828
瀬	-9.15876
行政	-9.15917
クラ	-9.15956
参	-9.16017
変化	-9.16034
ッツ	-9.16193
立て	-9.16241
ドラマ	-9.16277
産業	-9.16296
よく	-9.16406
作戦	-9.16471
インド	-9.16698
受	-9.16818
リスト	-9.16864
スク	-9.16875
スペイン	-9.16929
能力	-9.16986
運	-9.16991
程度	-9.17052
密	-9.17065
少	-9.17098
専門	-9.17247
学者	-9.17252
ステ	-9.17275
ri	-9.17296
採用	-9.17371
げ	-9.17416
フリー	-9.1745
フォー	-9.17672
ネット	-9.17686
たい	-9.17722
輸送	-9.17876
サッカー	-9.17984
将	-9.18078
成功	-9.18287
ング	-9.18302
時期	-9.18365
大正	-9.18366
に入	-9.18485
撮影	-9.18499
種類	-9.18542
演奏	-9.18562
秀	-9.18587
内に	-9.18669
言語	-9.18708
設立	-9.18713
市立	-9.18946
表示	-9.18972
クロ	-9.19015
老	-9.19038
絶	-9.19059
ジー	-9.19136
企画	-9.19196
上で	-9.19238
登録	-9.19541
銀行	-9.19666
展開	-9.19749
▁来歴	-9.19838
発展	-9.19881
チャー	-9.19981
韓国	-9.20023
遊	-9.20119
華	-9.20198
予	-9.20297
優	-9.20313
理由	-9.20359
精	-9.20448
数は	-9.20506
共和国	-9.20626
運用	-9.20857
になり	-9.20883
上げ	-9.20937
七	-9.20939
郎	-9.20961
物語	-9.20992
ウィ	-9.21067
廃止	-9.21113
核	-9.21177
の一つ	-9.21183
評	-9.21197
▁W	-9.21201
以後	-9.21227
上の	-9.21256
2003	-9.21284
比	-9.21297
ピー	-9.21322
▁第	-9.21327
考え	-9.21355
枠	-9.21384
酸	-9.21425
したもの	-9.2143
弟	-9.21468
発行	-9.21529
仮	-9.21551
メン	-9.21605
方面	-9.21607
れる	-9.21664
布	-9.21721
月から	-9.21886
める	-9.22027
JR	-9.22033
射	-9.22035
片	-9.22099
税	-9.22103
可能	-9.22104
非常に	-9.22126
_	-9.222
新聞	-9.22259
選手権	-9.22303
終了	-9.22321
試験	-9.22434
ード	-9.22478
あり	-9.22487
銀	-9.22573
ヨ	-9.22597
除	-9.22648
成績	-9.22769
警察	-9.22817
われ	-9.22897
劇場	-9.22968
電気	-9.22997
並	-9.23106
通常	-9.2311
装置	-9.23116
過	-9.23226
移動	-9.2323
を見	-9.23368
合併	-9.23378
表現	-9.23468
を取り	-9.23473
幸	-9.23509
区間	-9.23552
人気	-9.23584
規模	-9.23708
ベン	-9.23767
寄	-9.23925
内で	-9.23956
納	-9.24004
アップ	-9.24033
強い	-9.24116
ジャー	-9.24151
アジア	-9.24253
を中心に	-9.24349
せん	-9.24372
に伴い	-9.24409
肉	-9.24433
のある	-9.24441
護	-9.24568
発売された	-9.2464
仕	-9.24961
当初は	-9.24967
自身	-9.2499
日まで	-9.25092
通信	-9.25192
とし	-9.2521
完成	-9.25245
遺	-9.25261
歴史	-9.25315
としている	-9.2536
突	-9.25372
ニューヨーク	-9.25394
▁of	-9.25394
>	-9.25527
酒	-9.2555
補	-9.25562
1998	-9.25601
リス	-9.25677
1970	-9.25681
全て	-9.25756
ed	-9.25824
降	-9.25841
作曲	-9.25978
組み	-9.25992
持ち	-9.26006
南部	-9.26126
見られる	-9.26129
軍の	-9.26186
競技	-9.26429
玉	-9.26527
”	-9.2655
等の	-9.26631
2005	-9.26639
ライン	-9.26669
深	-9.26795
欠	-9.26913
フォ	-9.26916
am	-9.26922
連邦	-9.26924
姿	-9.26941
方式	-9.26954
200	-9.26971
に位置する	-9.26998
ブリ	-9.27067
頃	-9.27067
ほぼ	-9.27132
かい	-9.27262
洋	-9.2731
製品	-9.27317
整備	-9.27369
飛	-9.27468
房	-9.27586
35	-9.27623
なか	-9.2765
事故	-9.27701
泉	-9.27737
2002	-9.27737
スキー	-9.27737
略	-9.27763
ライブ	-9.2777
議員	-9.27875
<	-9.2791
相手	-9.27932
題	-9.28011
行動	-9.28029
出し	-9.28063
巡	-9.28068
動物	-9.28118
思	-9.28127
中心	-9.28129
していたが	-9.28135
するため	-9.28304
形で	-9.28326
演	-9.2856
工場	-9.28563
現代	-9.28572
il	-9.28582
著	-9.28658
(""	-9.28745
帝	-9.28815
市の	-9.28821
ヶ	-9.28857
活躍	-9.2887
経験	-9.2887
ホー	-9.28884
喜	-9.28959
付近	-9.29026
新しい	-9.29033
IC	-9.29088
ロック	-9.29123
池	-9.2916
住民	-9.29167
幅	-9.29175
倒	-9.29229
イベント	-9.29269
であるが	-9.29279
裏	-9.29305
テル	-9.29353
ルド	-9.29391
キング	-9.29407
対応	-9.29471
時点で	-9.29502
になって	-9.29581
散	-9.29594
タル	-9.29757
プレー	-9.29774
するために	-9.29805
NA	-9.29827
ティー	-9.29854
以上の	-9.29939
香	-9.29947
学部	-9.29955
塩	-9.29957
せず	-9.29971
批判	-9.30033
没	-9.30052
込み	-9.30066
写真	-9.30128
男性	-9.30244
したこと	-9.30249
太郎	-9.30294
Q	-9.30369
どう	-9.30395
ワン	-9.30438
45	-9.30764
述	-9.30769
出した	-9.30926
1997	-9.30968
栄	-9.31046
2011	-9.31067
クラス	-9.31118
折	-9.31203
景	-9.31227
最大	-9.3124
ピン	-9.31314
準	-9.31364
帰	-9.31382
分け	-9.31433
症	-9.31549
人々	-9.31658
代目	-9.31676
発表	-9.31686
担当	-9.31756
兄	-9.31776
まった	-9.31781
切り	-9.3196
九州	-9.32276
フル	-9.32363
を行い	-9.32379
の第	-9.32394
ラス	-9.32425
と同じ	-9.32504
丁目	-9.32523
政権	-9.32531
雲	-9.32558
まり	-9.32718
乗り	-9.32743
2001	-9.32746
ディー	-9.32796
個人	-9.3283
もあり	-9.32949
条件	-9.32959
戦後	-9.33063
+	-9.33071
頼	-9.33105
1996	-9.33297
効果	-9.33319
割	-9.33323
築	-9.33378
までの	-9.33378
祖	-9.33391
▁日本	-9.33597
近く	-9.33773
戻	-9.33823
部門	-9.33851
反対	-9.33946
将軍	-9.34014
カップ	-9.34061
少年	-9.34065
終	-9.34089
術	-9.3422
阿	-9.34223
保護	-9.34228
復	-9.34379
文学	-9.34385
竹	-9.34467
宿	-9.34538
時代に	-9.34568
時の	-9.3458
政策	-9.3459
紹介	-9.34596
できない	-9.34649
ir	-9.34666
害	-9.34793
違い	-9.34844
過去	-9.34894
いている	-9.34949
朝鮮	-9.35027
1995	-9.35128
ur	-9.35258
un	-9.35318
衆	-9.35404
会長	-9.35554
縁	-9.35586
病院	-9.35603
ライト	-9.35612
上に	-9.35712
ペン	-9.35792
毛	-9.3586
線の	-9.35904
横浜	-9.35923
仏	-9.36018
初代	-9.3602
礼	-9.3602
指揮	-9.36031
The	-9.36052
消	-9.36078
れた	-9.36102
訳	-9.36106
情	-9.36116
児	-9.36149
王国	-9.36213
読	-9.36219
麻	-9.36251
したため	-9.36379
余	-9.36537
艦隊	-9.36637
ミー	-9.3664
ファー	-9.36671
リオ	-9.36701
連載	-9.36753
決勝	-9.36878
圏	-9.36884
に参加	-9.3697
ガス	-9.37013
彼女	-9.37145
彼	-9.37167
を受けて	-9.37209
発見	-9.37226
」、「	-9.37246
兼	-9.37467
キン	-9.37547
拡大	-9.376
罪	-9.37748
雑誌	-9.37887
プレイ	-9.37918
はこの	-9.37974
待	-9.38098
項	-9.38124
ウル	-9.38127
▁2010	-9.38192
具	-9.38208
48	-9.38218
初期	-9.38272
大臣	-9.38299
2013	-9.38305
の間	-9.38349
分類	-9.38402
によれば	-9.38413
スタン	-9.38459
出す	-9.38514
地球	-9.3856
パリ	-9.38592
始	-9.38625
旗	-9.3872
ーク	-9.38726
直接	-9.3874
メートル	-9.38754
子供	-9.38784
シャー	-9.38863
はない	-9.38938
クト	-9.38955
幕	-9.39012
方向	-9.39038
龍	-9.39097
系統	-9.39141
例えば	-9.39169
提供	-9.39278
かな	-9.39479
含	-9.39576
国道	-9.39606
楽曲	-9.39639
間の	-9.39756
1994	-9.39791
流れ	-9.3991
離	-9.39925
国の	-9.39991
ミン	-9.40072
牧	-9.4016
プリ	-9.4022
搭載	-9.40321
中で	-9.40394
グル	-9.40442
九	-9.40457
家族	-9.40503
講	-9.40589
奥	-9.40595
願	-9.40639
打ち	-9.4068
殿	-9.40709
翌年	-9.40777
ことがある	-9.40781
壁	-9.40791
亜	-9.40814
富	-9.40818
費	-9.40855
立ち	-9.4086
続け	-9.40937
去	-9.40938
タイム	-9.40988
モー	-9.41013
以外	-9.4105
にとって	-9.41112
芸術	-9.4114
弁	-9.41166
ベース	-9.41222
映像	-9.41309
2010	-9.4142
▁O	-9.4142
一方で	-9.41427
▁R	-9.41456
が多く	-9.41532
めた	-9.41564
などに	-9.41612
霊	-9.41632
隠	-9.41647
番号	-9.41673
ようになった	-9.41713
▁2009	-9.41718
名前	-9.41761
ad	-9.41779
イー	-9.41796
続	-9.41803
盛	-9.41843
皇	-9.41915
rep	-9.41922
エー	-9.42056
地元	-9.42062
茶	-9.42115
によると	-9.42117
するなど	-9.42311
価	-9.42424
工事	-9.42453
議	-9.4247
as	-9.42493
仁	-9.42499
“	-9.42502
激	-9.42548
▁その後	-9.42565
作家	-9.42584
得点	-9.42586
ソフト	-9.42601
博	-9.42607
セント	-9.42913
協力	-9.42958
▁2008	-9.42976
俳優	-9.43035
軍事	-9.43061
漢	-9.43064
イル	-9.43095
ロス	-9.43112
ント	-9.43121
to	-9.43128
封	-9.43138
ヴェ	-9.43249
に出	-9.43281
平均	-9.43303
後は	-9.43346
専用	-9.43383
の大	-9.43397
トー	-9.43485
北部	-9.43643
開業	-9.43682
生まれた	-9.4374
なら	-9.43741
コース	-9.43779
編集	-9.4378
隆	-9.43811
としても	-9.43811
算	-9.43882
ゾ	-9.43889
32	-9.43913
メーカー	-9.43938
果	-9.43939
だったが	-9.43954
ーム	-9.44081
えた	-9.44134
江戸	-9.44138
1992	-9.44208
オリジナル	-9.44212
敗れ	-9.44216
テーマ	-9.4423
公式	-9.44274
1993	-9.44278
各地	-9.44399
注	-9.44405
フレ	-9.44435
死去	-9.4453
途中	-9.44583
書き	-9.44779
王座	-9.44808
標準	-9.44838
弱	-9.44849
増加	-9.44865
重要な	-9.44889
ことは	-9.44904
ケン	-9.44989
ことになる	-9.45117
塚	-9.45255
最後の	-9.45288
条約	-9.45337
辺	-9.45406
▁xx	-9.45451
メイン	-9.45451
指導	-9.45468
名を	-9.4547
なった	-9.45516
済	-9.4565
デル	-9.45659
ベスト	-9.45663
の一	-9.45728
エス	-9.45741
航	-9.45825
ストーリー	-9.4585
ゲン	-9.45854
▁N	-9.45879
アフリカ	-9.459
一覧	-9.45918
問	-9.45943
ビン	-9.45967
NHK	-9.46021
定義	-9.46073
ショー	-9.46093
1960	-9.46112
統合	-9.46149
たが	-9.46184
多数	-9.4626
系列	-9.46279
庫	-9.46482
の中	-9.46485
近年	-9.46495
秒	-9.4652
ボール	-9.466
第二	-9.46608
被	-9.46661
独	-9.4667
もう	-9.4669
▁V	-9.46715
給	-9.46725
念	-9.46733
備	-9.46744
▁2007	-9.46988
配置	-9.47065
2018	-9.47087
チョ	-9.47217
彦	-9.47257
印	-9.47295
湾	-9.47315
弘	-9.47355
採	-9.47403
倍	-9.47437
可	-9.47449
が行われた	-9.47455
2008	-9.47467
育	-9.47547
日本語	-9.47636
ラム	-9.47658
放送された	-9.47669
2007	-9.47676
襲	-9.47685
の影響	-9.47738
誕生	-9.47752
仕事	-9.47806
植物	-9.47823
照	-9.47847
冷	-9.47853
を獲得	-9.47862
大型	-9.47883
ナン	-9.47948
1991	-9.47955
冠	-9.47976
隻	-9.48139
38	-9.48196
を参照	-9.48197
ボー	-9.48208
ユー	-9.48248
とう	-9.48393
元年	-9.48569
トロ	-9.4865
規定	-9.48751
ホール	-9.48762
候補	-9.48775
チュ	-9.48809
広く	-9.4886
前の	-9.48878
分野	-9.48916
いで	-9.48926
捕	-9.48928
台湾	-9.48953
市民	-9.49021
労働	-9.49035
孫	-9.49053
それを	-9.49062
業務	-9.49165
細胞	-9.49199
メディア	-9.49208
革命	-9.49214
市内	-9.49235
タイプ	-9.49266
2009	-9.493
魚	-9.49396
液	-9.49509
形態	-9.49606
程	-9.49621
→	-9.4963
博士	-9.49753
結婚	-9.49779
自身の	-9.49782
36	-9.49799
すべて	-9.49863
基本	-9.49865
標	-9.49925
はその	-9.4997
1989	-9.49992
バック	-9.50004
救	-9.50009
魔	-9.50039
筆	-9.50049
市場	-9.50064
かり	-9.50086
BC	-9.50107
オープン	-9.50121
解説	-9.50169
▁2017	-9.50279
ボン	-9.50306
ケー	-9.50324
ブランド	-9.50354
原因	-9.50389
行われた	-9.50432
場合は	-9.50445
エイ	-9.50445
雪	-9.50447
曜	-9.50455
フォン	-9.5051
まる	-9.50575
荷	-9.50609
ション	-9.50733
ナイ	-9.50761
女優	-9.50818
ていない	-9.50853
ロンドン	-9.50915
件	-9.50945
就	-9.51037
店舗	-9.51078
完全	-9.51206
防衛	-9.51241
翼	-9.51242
空港	-9.514
ブルー	-9.51427
同様	-9.51462
ポー	-9.51478
以外の	-9.51501
ろう	-9.51551
振	-9.51614
反応	-9.51644
ウォー	-9.51774
力を	-9.51778
普通	-9.51818
雨	-9.51823
土地	-9.51886
温	-9.51898
検	-9.51931
にあたる	-9.51953
商品	-9.5198
そのまま	-9.52004
電子	-9.52151
勝ち	-9.52201
用の	-9.52223
以前	-9.52258
55	-9.52279
民族	-9.52318
AN	-9.52338
ナル	-9.52339
デー	-9.52382
されていない	-9.52414
筋	-9.52457
日本では	-9.52494
西部	-9.52532
支持	-9.52632
引退	-9.52649
クル	-9.52658
康	-9.5267
次の	-9.52694
観光	-9.53006
▁2016	-9.53025
負	-9.53046
研究所	-9.53098
勢力	-9.53146
緑	-9.5325
求め	-9.53486
混	-9.5349
ter	-9.53497
広島	-9.53592
かつ	-9.53669
自ら	-9.53671
障害	-9.53691
ファイ	-9.53707
墓	-9.53714
限定	-9.53722
暦	-9.53812
の戦い	-9.53842
顔	-9.53856
することが	-9.53858
▁2011	-9.5386
背	-9.53866
装備	-9.53872
37	-9.53881
油	-9.53889
疑	-9.53907
いずれも	-9.5393
拠点	-9.53943
33	-9.53959
詩	-9.54105
MA	-9.5413
営業	-9.54182
甲	-9.54338
結成	-9.54361
行為	-9.54396
AR	-9.54454
▁しかし	-9.54472
に所属	-9.545
人は	-9.54512
原作	-9.5459
されること	-9.54607
速度	-9.54644
コンピュータ	-9.54684
事務所	-9.54694
ON	-9.54774
マス	-9.54825
てきた	-9.54867
300	-9.54914
江戸時代	-9.54967
獲得	-9.54984
レコード	-9.54999
ブレ	-9.55009
ニュース	-9.55051
招	-9.55076
言葉	-9.55255
ぬ	-9.55292
っており	-9.55297
派遣	-9.55388
選択	-9.55415
づ	-9.55424
オス	-9.55437
説明	-9.55448
宇	-9.55494
しようと	-9.55504
大な	-9.55513
ステージ	-9.5558
2006	-9.55618
理論	-9.55633
課	-9.5581
わり	-9.5586
不明	-9.56021
名の	-9.5603
オル	-9.5603
犬	-9.56031
軸	-9.56063
te	-9.56063
写	-9.56069
旅	-9.56078
関東	-9.56154
ていたが	-9.56209
高速	-9.56264
のための	-9.56377
法律	-9.56416
かけ	-9.56449
ポン	-9.56449
受賞	-9.56454
報告	-9.56481
でもある	-9.56541
竜	-9.56559
法人	-9.566
ニック	-9.56657
第二次世界大戦	-9.56681
ソー	-9.56732
地に	-9.56766
主人公	-9.56812
安定	-9.56829
ay	-9.5685
▁m	-9.56874
用いられる	-9.56942
ヴァー	-9.56971
1988	-9.57008
ウム	-9.57026
ER	-9.57114
破壊	-9.57131
らない	-9.57153
公演	-9.57198
卒業後	-9.57278
本部	-9.57328
とされている	-9.57474
因	-9.57479
以降は	-9.57521
そこで	-9.57532
だと	-9.5759
慶	-9.57667
姓	-9.57769
ギャ	-9.57853
確認	-9.57885
替え	-9.57886
ネー	-9.57905
成立	-9.57919
矢	-9.57939
所有	-9.58093
制御	-9.58104
万人	-9.58108
ことが多い	-9.58126
ミニ	-9.5815
証	-9.58175
実施	-9.58226
ボル	-9.5823
彼ら	-9.5824
つか	-9.58249
宗教	-9.58262
策	-9.58271
ソ連	-9.58418
チン	-9.58446
善	-9.58523
系の	-9.58599
ほ	-9.58688
-0	-9.58695
▁2006	-9.58726
あった	-9.58921
処理	-9.58943
地上	-9.58961
荒	-9.58987
であること	-9.58992
ロード	-9.59095
創設	-9.59109
恵	-9.59111
um	-9.59154
同時に	-9.59154
建物	-9.59199
影響	-9.59214
統一	-9.59253
フラ	-9.59302
...	-9.59328
ation	-9.59382
誤	-9.59423
34	-9.59479
1987	-9.59491
指摘	-9.59505
実現	-9.59597
-2	-9.5962
浅	-9.59714
専	-9.59747
j	-9.59764
▁2012	-9.59852
幼	-9.5988
まれ	-9.59925
置かれ	-9.59974
▁2013	-9.60011
それら	-9.60031
続く	-9.60044
されたが	-9.60062
したり	-9.60142
ジャン	-9.60234
デュ	-9.60248
ビデオ	-9.60275
のこと	-9.60332
許	-9.60468
記載	-9.60478
海外	-9.60557
同社	-9.60594
認められ	-9.60644
成長	-9.60644
子の	-9.60689
同盟	-9.60759
パル	-9.60763
化学	-9.60835
配信	-9.60852
主要	-9.60884
砂	-9.60916
医	-9.6092
精神	-9.60924
処	-9.60978
ia	-9.60982
舞	-9.61032
兄弟	-9.61061
クレ	-9.61159
ても	-9.61184
スタジオ	-9.61211
内閣	-9.61255
om	-9.61269
を持ち	-9.61272
を行っている	-9.61276
に至る	-9.61288
?	-9.61424
▁2015	-9.61435
していない	-9.61526
住宅	-9.61599
あまり	-9.61601
自分の	-9.6163
推	-9.61688
ツアー	-9.61723
歴	-9.61729
綱	-9.61741
ティング	-9.61753
のもの	-9.61783
II	-9.61801
la	-9.6181
実験	-9.61826
ようになる	-9.61835
豪	-9.61872
アレ	-9.61935
▁K	-9.61957
が出	-9.61958
セット	-9.61985
ポイント	-9.61998
グリ	-9.62043
39	-9.62073
サル	-9.62082
傷	-9.62155
作業	-9.62166
架	-9.62176
少ない	-9.62251
神戸	-9.62265
購入	-9.62519
要素	-9.6258
沼	-9.6262
けん	-9.62698
1986	-9.62741
▁the	-9.62823
東部	-9.62835
欧州	-9.62849
することで	-9.62864
IS	-9.62874
追い	-9.62918
似	-9.62919
図書館	-9.62967
に就任	-9.62973
行き	-9.63012
主演	-9.63119
氏の	-9.63127
まだ	-9.63189
聞	-9.63263
側の	-9.63268
ます	-9.63282
オブ	-9.63287
エア	-9.63301
ラル	-9.6333
厚	-9.63355
かん	-9.63363
スカ	-9.63389
RA	-9.63408
意味	-9.6341
メイ	-9.63414
化した	-9.63443
夢	-9.63466
充	-9.63475
しょう	-9.635
万円	-9.63529
伯	-9.63532
マーク	-9.63534
トリー	-9.63588
1985	-9.63702
健	-9.63712
ここ	-9.63723
可能性	-9.63747
剤	-9.63752
ニング	-9.63793
ドゥ	-9.63805
投票	-9.63896
柄	-9.63921
紀元前	-9.63928
則	-9.64128
RO	-9.64142
レッド	-9.64179
一時	-9.64204
ここで	-9.64229
閉	-9.64263
掲載	-9.64266
発表された	-9.64281
達成	-9.64299
を受ける	-9.64331
んでいる	-9.64359
アス	-9.64391
カナダ	-9.64425
商業	-9.64483
移籍	-9.6449
AT	-9.64494
機構	-9.64544
接続	-9.64614
トラック	-9.6462
違	-9.64636
ヴァン	-9.64689
社長	-9.647
トレ	-9.64748
丘	-9.64844
古代	-9.64861
アナ	-9.64938
合い	-9.65061
となって	-9.65068
辞	-9.65069
時には	-9.65082
することを	-9.65083
をもって	-9.65087
カラ	-9.65163
追加	-9.65236
を示す	-9.65238
確	-9.65333
境	-9.65343
を果たした	-9.65349
対戦	-9.6539
作成	-9.65495
ac	-9.65596
歌手	-9.65744
▁地理	-9.65766
単位	-9.65839
サイト	-9.65878
DVD	-9.65888
このため	-9.65911
ヒット	-9.65922
重要	-9.65951
剣	-9.65992
思い	-9.65993
を出	-9.66023
狭	-9.66026
逆	-9.66043
脱	-9.66044
含まれ	-9.6608
尊	-9.66113
男子	-9.66205
かれ	-9.66235
加入	-9.66294
純	-9.66341
の間に	-9.66356
集団	-9.66356
メント	-9.66388
ビア	-9.66554
するが	-9.66573
TO	-9.66589
ィ	-9.66637
▁2014	-9.66648
を担当	-9.66653
CM	-9.66744
他に	-9.66853
完	-9.66865
娘	-9.66868
決め	-9.66881
参戦	-9.66887
リリース	-9.66947
浮	-9.66975
os	-9.67057
までは	-9.67102
週	-9.67185
いい	-9.67202
窓	-9.67244
学園	-9.67245
ジョージ	-9.67245
制限	-9.67261
談	-9.67314
名古屋	-9.67332
冬	-9.67443
主張	-9.67486
側に	-9.67507
▁J	-9.67521
米国	-9.67529
合わせ	-9.6754
目の	-9.67553
ul	-9.67559
温泉	-9.67591
NE	-9.67636
コーナー	-9.67668
シティ	-9.67684
記述	-9.67684
毎	-9.67758
新たな	-9.67774
改造	-9.67937
スコ	-9.67957
体制	-9.6797
面積	-9.67979
1984	-9.67994
共通	-9.68017
ST	-9.6821
と考え	-9.68223
アク	-9.68231
存	-9.68239
ジン	-9.68261
基地	-9.68288
TV	-9.68342
ヘル	-9.68387
報道	-9.6839
改革	-9.68442
一部の	-9.68497
鹿	-9.68526
性能	-9.68532
これに	-9.68565
が存在する	-9.68565
このような	-9.68608
タウン	-9.6861
移転	-9.68635
国立	-9.68642
継	-9.68658
アド	-9.68666
医療	-9.68673
料理	-9.68678
44	-9.68733
年より	-9.68736
自体	-9.6874
BS	-9.68793
性を	-9.68868
自動	-9.68945
SS	-9.68991
デイ	-9.68995
迫	-9.69073
通称	-9.69073
ホテル	-9.69135
ウェ	-9.69195
オランダ	-9.69245
パイ	-9.69268
生き	-9.69378
那	-9.69384
ドン	-9.6939
連盟	-9.69425
暗	-9.6946
スは	-9.69473
分離	-9.69473
ノン	-9.6952
際に	-9.69575
鶴	-9.69578
▁※	-9.696
仕様	-9.69606
58	-9.69618
IN	-9.69618
最後	-9.69633
静	-9.69656
プル	-9.69689
黄	-9.69714
犯	-9.69766
脳	-9.69774
序	-9.69874
クー	-9.69883
せい	-9.69917
軌道	-9.69959
アラ	-9.69968
季	-9.69975
部の	-9.69981
』『	-9.69989
記事	-9.7009
ゴー	-9.70163
に入る	-9.70166
毎年	-9.7021
桜	-9.7024
賛	-9.70262
君	-9.70274
つく	-9.70285
基準	-9.70353
これが	-9.70398
ける	-9.70508
減少	-9.70524
資料	-9.70538
を獲得した	-9.70607
られていた	-9.70619
失敗	-9.707
ウェイ	-9.70701
400	-9.70709
虫	-9.70732
植	-9.70771
を結ぶ	-9.7082
幹	-9.70829
寿	-9.7091
ンズ	-9.70931
活動を	-9.70935
堀	-9.70977
別の	-9.70988
直後	-9.70998
復活	-9.71064
歳で	-9.71087
エネルギー	-9.71091
展	-9.71131
リュ	-9.71189
刊行	-9.71196
コード	-9.71201
メル	-9.7125
を務め	-9.71272
これら	-9.71276
宣	-9.71325
でき	-9.71412
ことができる	-9.71445
最大の	-9.71456
扱い	-9.71506
範囲	-9.71531
委員	-9.71623
長い	-9.71765
軍は	-9.71832
バラ	-9.71858
雷	-9.71882
オーストラリア	-9.71896
を見せ	-9.71921
臣	-9.71925
農業	-9.72002
奇	-9.72048
プロジェクト	-9.72063
75	-9.7208
聴	-9.72104
裁	-9.72113
ワールド	-9.72136
行われる	-9.7216
首都	-9.72175
仲	-9.72256
世の	-9.72295
の中に	-9.72303
コーチ	-9.72325
se	-9.72335
要求	-9.7239
スタイル	-9.72413
炎	-9.72537
無い	-9.72546
に出場	-9.72565
付き	-9.72629
大陸	-9.72656
分布	-9.72661
一人	-9.72693
47	-9.72744
継承	-9.72783
ne	-9.72793
皇帝	-9.72794
らせ	-9.72806
1983	-9.72813
ペル	-9.7282
パラ	-9.72843
べき	-9.72865
1950	-9.72886
億	-9.72936
を指す	-9.7302
美術	-9.73023
と呼ぶ	-9.73044
やま	-9.73045
可能な	-9.73115
建造	-9.73121
近代	-9.73122
かわ	-9.73158
だい	-9.7316
フラン	-9.73206
禁	-9.73236
導	-9.73267
歯	-9.73272
アンド	-9.73318
が行われ	-9.73377
刊	-9.73384
空間	-9.73448
それまで	-9.73472
頂	-9.73485
呼び	-9.73495
幕府	-9.73499
半島	-9.73526
レベル	-9.73545
向上	-9.73558
br	-9.73575
予選	-9.73621
kg	-9.73669
の娘	-9.73743
登	-9.73746
アメリカの	-9.73767
ot	-9.73773
ザン	-9.73775
警	-9.73847
安全	-9.73862
らい	-9.73936
底	-9.73936
がいる	-9.73992
茂	-9.74006
の場合	-9.74021
磁	-9.7403
派の	-9.74059
いった	-9.74098
1982	-9.74138
65	-9.74241
全ての	-9.74288
▁2005	-9.7431
46	-9.74355
ーション	-9.74422
ミュージック	-9.74479
富士	-9.74489
観測	-9.74496
禁止	-9.74502
生物	-9.74537
李	-9.74593
民主党	-9.74605
至	-9.74609
設	-9.74613
もあった	-9.74653
いく	-9.74698
ようになり	-9.74699
爆	-9.74701
復帰	-9.7477
64	-9.74882
内部	-9.74951
暴	-9.75035
限り	-9.75052
ヶ月	-9.75085
解散	-9.75086
実際	-9.75095
レギュラー	-9.75109
US	-9.75124
苦	-9.75177
が可能	-9.75202
ent	-9.75203
生徒	-9.75206
交換	-9.75231
関西	-9.75257
54	-9.7534
高く	-9.75387
フィー	-9.75463
知られている	-9.75516
電車	-9.75657
を記録	-9.75668
のほか	-9.75671
1945	-9.75674
ッカー	-9.75712
競馬	-9.75783
まず	-9.75821
存在した	-9.75861
露	-9.75926
とその	-9.7593
OS	-9.75951
間に	-9.75963
自治体	-9.76032
読み	-9.76072
段階	-9.76079
湯	-9.76086
しばしば	-9.76093
オリ	-9.76186
年代に	-9.76287
新たに	-9.76341
マッ	-9.76348
背景	-9.76395
強く	-9.76398
の研究	-9.76415
▁I	-9.76459
網	-9.76496
落ち	-9.76505
id	-9.76522
智	-9.76541
を挙げ	-9.76555
大阪府	-9.76558
機械	-9.76595
▁略歴	-9.76695
少女	-9.76792
機体	-9.76796
譲	-9.76808
の中心	-9.769
ドラ	-9.76905
のち	-9.76914
▁人物	-9.76929
42	-9.77071
恋	-9.77086
脚	-9.77129
ポリ	-9.77186
を集め	-9.77191
となっていた	-9.77196
コミック	-9.77204
特殊	-9.77209
姫	-9.77362
ポーランド	-9.77406
憲法	-9.77423
首相	-9.77451
クション	-9.7746
88	-9.77466
諸島	-9.77491
ig	-9.77499
作用	-9.77516
を発表	-9.77622
イングランド	-9.77631
複数の	-9.77637
潜	-9.77656
闘	-9.77752
操作	-9.77767
もので	-9.77771
史上	-9.77788
ほう	-9.7785
ことに	-9.77853
になると	-9.77874
に出演	-9.77897
株	-9.77988
貞	-9.77998
名が	-9.78
の間で	-9.78035
柳	-9.78046
須	-9.78047
99	-9.78061
命令	-9.78075
してきた	-9.78081
の名前	-9.78099
本名	-9.78104
停止	-9.78117
責任	-9.78119
Ch	-9.78141
さい	-9.78182
レット	-9.78221
した後	-9.78226
牛	-9.78307
プログラム	-9.78345
がない	-9.78386
シーン	-9.78413
更に	-9.78415
最終的に	-9.78416
かに	-9.78432
スタート	-9.78439
訓練	-9.78447
敬	-9.7858
競走	-9.78615
本線	-9.78638
太陽	-9.78643
東北	-9.78647
ユニット	-9.78688
イメージ	-9.78707
裁判	-9.78741
第三	-9.78783
ょ	-9.78797
労	-9.78816
昇格	-9.78869
カリ	-9.78886
対立	-9.79044
奏	-9.79071
ニコ	-9.79107
車体	-9.79112
1972	-9.79214
シル	-9.79243
寛	-9.79308
益	-9.79325
強化	-9.79328
1979	-9.79357
なっている	-9.79361
月まで	-9.7937
フェル	-9.79412
定期	-9.79453
えて	-9.79465
ウィン	-9.79499
and	-9.79516
貨物	-9.79517
つき	-9.79532
裁判所	-9.79534
ルート	-9.79536
の歴史	-9.79542
ut	-9.79555
飲	-9.79556
43	-9.7956
ドー	-9.79585
微	-9.79623
杯	-9.79672
我	-9.79714
貴族	-9.79716
有名	-9.79733
78	-9.79737
ッグ	-9.79752
ベー	-9.79782
レート	-9.79817
展示	-9.79846
んでいた	-9.79887
もしくは	-9.79952
芝	-9.80021
市出身	-9.80055
中継	-9.80063
州の	-9.80064
わせ	-9.80099
投手	-9.80149
を務める	-9.8015
福岡	-9.80157
いち	-9.80227
ゴール	-9.80302
ヴォ	-9.80307
日本人	-9.80339
傾向	-9.80565
組合	-9.80567
めて	-9.80576
継続	-9.80586
厳	-9.80606
ウン	-9.80634
塁	-9.80656
RE	-9.80721
進出	-9.80733
貴	-9.80748
鎮	-9.80775
判断	-9.8088
機器	-9.80928
プリン	-9.80998
ow	-9.81031
ワイ	-9.81043
動き	-9.81182
にあり	-9.81216
仙台	-9.81221
に変更	-9.81228
設けられ	-9.81243
一つ	-9.81293
炭	-9.81301
プロレス	-9.81305
CO	-9.81344
1981	-9.81355
主催	-9.81398
ie	-9.81489
本来	-9.81512
師団	-9.81557
到着	-9.81594
交流	-9.81597
前後	-9.81648
SA	-9.817
続いて	-9.81711
宣言	-9.81737
のひとつ	-9.8175
に対応	-9.81755
唐	-9.81764
ていなかった	-9.81802
会員	-9.81903
ソロ	-9.81914
を含め	-9.8196
ダル	-9.82141
しなかった	-9.82194
乳	-9.82241
われた	-9.82248
地下	-9.82352
羅	-9.82354
文書	-9.82367
ゴン	-9.825
1975	-9.82552
誘	-9.82569
せる	-9.82623
陰	-9.82717
od	-9.82729
▁s	-9.82772
創	-9.82773
デス	-9.82817
-3	-9.82833
銅	-9.82943
グレ	-9.82957
比較的	-9.83009
するという	-9.83023
コル	-9.83056
同じく	-9.83059
夕	-9.83064
ポート	-9.83072
対策	-9.83079
ときに	-9.8309
いわゆる	-9.83117
の後	-9.83121
を意味する	-9.83134
nd	-9.83215
延長	-9.83267
ティン	-9.83415
指名	-9.83469
イギリスの	-9.83484
抜	-9.83507
困難	-9.83547
キュ	-9.83567
帰国	-9.83571
避	-9.83593
ストン	-9.83618
型の	-9.8362
56	-9.8362
裕	-9.83636
41	-9.83659
全日本	-9.83659
カイ	-9.83698
主な	-9.8371
テー	-9.83785
デジタル	-9.83818
鉱	-9.83852
焼	-9.839
任務	-9.83932
博物館	-9.83939
伝え	-9.83946
アム	-9.83999
輝	-9.84063
PC	-9.84098
ウィリアム	-9.84149
海岸	-9.84197
使われる	-9.84234
毒	-9.84238
行う	-9.84247
わる	-9.84273
のもと	-9.8435
シャル	-9.84367
までに	-9.84407
ぜ	-9.84421
初期の	-9.84443
することができる	-9.84467
通過	-9.84477
ハウス	-9.84479
ネス	-9.84482
使い	-9.84563
しま	-9.84623
灯	-9.8471
床	-9.8477
脚本	-9.84771
1978	-9.84828
49	-9.84876
地震	-9.84899
ぞ	-9.84949
発足	-9.84979
判定	-9.84995
連絡	-9.85048
あたり	-9.85058
眼	-9.85111
溶	-9.85131
しゃ	-9.85184
免	-9.85222
担	-9.85254
世代	-9.85274
由	-9.85296
ぶり	-9.85348
と考えられている	-9.85423
挙	-9.85449
替	-9.85499
1973	-9.8553
59	-9.85587
統	-9.85634
しん	-9.85664
詞	-9.85666
憲	-9.85668
シュー	-9.85705
マリ	-9.85705
政治家	-9.85716
占領	-9.8573
俗	-9.85762
医学	-9.85768
普及	-9.85783
囲	-9.85787
保存	-9.85841
注目	-9.85858
正式	-9.85867
を開始した	-9.85874
の名称	-9.85895
ケット	-9.85962
録	-9.85971
ポル	-9.85997
マク	-9.86051
塔	-9.86076
57	-9.86125
入団	-9.8616
ブー	-9.86222
ガル	-9.86223
基本的に	-9.86262
自己	-9.86265
行われ	-9.86281
セー	-9.86298
計算	-9.86311
歳の	-9.86372
×	-9.864
推進	-9.86482
愛知県	-9.8649
判	-9.86589
領域	-9.86592
被害	-9.86607
稲	-9.86678
父親	-9.86698
っと	-9.86715
飯	-9.86766
を設立	-9.86837
KO	-9.86865
うち	-9.86876
提案	-9.86881
ハル	-9.86882
地名	-9.86909
感じ	-9.86935
教師	-9.86951
ることができる	-9.8704
合わせて	-9.87048
ちゃん	-9.87114
においても	-9.87138
治療	-9.87229
学科	-9.87253
で行われた	-9.87281
レッ	-9.87283
離れ	-9.87286
イス	-9.87347
操	-9.87355
▁U	-9.8751
既に	-9.8751
確保	-9.87531
600	-9.87537
性の	-9.87547
いくつかの	-9.87549
思想	-9.87664
活	-9.87667
小型	-9.87743
AC	-9.8778
腹	-9.87812
れて	-9.87855
部に	-9.8786
婚	-9.87902
1976	-9.87909
長官	-9.87933
に近い	-9.87942
、2007	-9.87985
卵	-9.87985
わずか	-9.88062
同一	-9.88133
るため	-9.88136
オフ	-9.88203
供給	-9.88258
逮捕	-9.88269
込む	-9.88289
モード	-9.88344
CA	-9.88345
1974	-9.88362
皮	-9.88387
通算	-9.88446
登場する	-9.88463
に移籍	-9.88474
ページ	-9.88513
を通じて	-9.8854
止め	-9.88563
飾	-9.88564
負け	-9.88566
ピアノ	-9.8859
亀	-9.88595
声優	-9.88657
沈	-9.88684
学院	-9.88726
存在する	-9.88738
沖	-9.8879
言い	-9.8882
丹	-9.88835
、2008	-9.88858
意見	-9.88951
改良	-9.88979
リッ	-9.89
カール	-9.89055
アリ	-9.89092
宅	-9.89102
固	-9.8911
ta	-9.89214
68	-9.89216
ンド	-9.89292
踏	-9.89301
1969	-9.89308
全く	-9.89352
高等	-9.8939
オーストリア	-9.89403
いていた	-9.89425
180	-9.89453
電力	-9.89541
1971	-9.89644
可能である	-9.89653
儀	-9.89669
ni	-9.89673
演出	-9.89699
衣	-9.89707
当選	-9.89748
ムー	-9.8975
維持	-9.89765
腕	-9.89766
権を	-9.89801
勇	-9.89835
ケル	-9.8985
神奈川県	-9.89871
1968	-9.89888
するもの	-9.89905
1000	-9.89982
キリスト教	-9.90012
尚	-9.90016
家庭	-9.90042
二人	-9.90055
整	-9.90073
98	-9.90106
バージョン	-9.9011
刑	-9.90131
資格	-9.90184
スー	-9.90184
也	-9.90197
ベルト	-9.90208
月号	-9.90225
パス	-9.90229
意識	-9.90256
ゼン	-9.9026
臨	-9.90271
概念	-9.90289
インターネット	-9.90312
]	-9.90341
貫	-9.90356
なし	-9.9041
挑戦	-9.90446
に位置し	-9.90447
じょう	-9.90448
俊	-9.90516
知られ	-9.90538
▁大	-9.9056
▁2018	-9.90589
カラー	-9.90607
OR	-9.90613
雑	-9.90613
ネル	-9.90675
コロ	-9.90728
役割	-9.90753
ョ	-9.90754
の名	-9.9082
多い	-9.90859
GP	-9.90873
試	-9.90882
、2009	-9.909
たもの	-9.90921
51	-9.90921
オール	-9.90924
選出	-9.9103
後期	-9.91035
協	-9.91041
贈	-9.91045
続き	-9.91057
スタッフ	-9.91076
刀	-9.91112
と同	-9.91116
設備	-9.91149
小さな	-9.91184
滅	-9.91193
ということ	-9.91198
知事	-9.91205
改正	-9.9123
資金	-9.91309
▁St	-9.91392
てしまう	-9.91397
』、『	-9.91413
ゲスト	-9.91433
監	-9.91454
ごとに	-9.91494
▁km	-9.91529
価格	-9.91533
載	-9.91551
これにより	-9.91558
プレイヤー	-9.91568
部屋	-9.91605
たり	-9.91632
レオ	-9.91633
こうした	-9.91695
描	-9.91714
これまで	-9.91745
更新	-9.91767
停	-9.918
まま	-9.9183
本塁打	-9.91841
らなかった	-9.91886
にして	-9.91937
1977	-9.92057
本社	-9.92073
カメラ	-9.92096
85	-9.92097
昌	-9.92097
、2010	-9.92153
残り	-9.92165
この時	-9.92179
度の	-9.92183
は大	-9.92192
及	-9.92193
移行	-9.92201
実行	-9.92346
チュー	-9.9239
発生した	-9.92418
されていたが	-9.92461
保険	-9.92464
目標	-9.92466
ベイ	-9.92468
AL	-9.92472
li	-9.92473
奉	-9.92479
抗	-9.92494
一度	-9.92557
SP	-9.92559
パーク	-9.92601
行った	-9.92612
ine	-9.92621
[	-9.92629
に入り	-9.92649
ちょう	-9.92689
命名	-9.92701
ただ	-9.92817
アメリカ合衆国の	-9.92819
の元	-9.92831
アウト	-9.92848
すれば	-9.92894
設立された	-9.92898
一定	-9.92953
彩	-9.9297
▁h	-9.9303
名誉	-9.93111
出力	-9.93118
PS	-9.9315
効	-9.93202
86	-9.93234
秘	-9.93239
回転	-9.93274
加盟	-9.93287
すこと	-9.93293
長男	-9.93327
!!	-9.93352
起用	-9.93353
TA	-9.934
セイ	-9.93426
に属する	-9.93436
ものが	-9.93454
高さ	-9.9351
ことも	-9.93528
階級	-9.93536
ou	-9.93548
76	-9.93593
執筆	-9.93611
以	-9.93826
かつては	-9.93856
リュー	-9.93946
ホル	-9.9395
制定	-9.94039
梅	-9.9409
ドロ	-9.94111
が必要	-9.94129
立場	-9.94286
本人	-9.94293
伝統	-9.94294
功	-9.94342
77	-9.94353
95	-9.94371
周囲	-9.94381
管轄	-9.94467
選ばれ	-9.94471
旅客	-9.94482
孝	-9.94489
指導者	-9.9449
化された	-9.94515
荘	-9.94517
再開	-9.94539
それは	-9.94553
人を	-9.94576
統治	-9.94595
進学	-9.94597
開設	-9.94611
拠	-9.94616
鬼	-9.94685
箱	-9.94696
券	-9.94715
改め	-9.94726
後述	-9.9473
杉	-9.94757
唯一の	-9.94833
始まった	-9.94834
だけで	-9.94862
拝	-9.94867
を採用し	-9.94904
押し	-9.94934
すなわち	-9.94954
BA	-9.94973
、2006	-9.94978
痛	-9.94983
その他の	-9.95006
訴	-9.95024
われる	-9.95032
律	-9.95049
熊	-9.95094
に登場する	-9.95112
ディア	-9.95142
しても	-9.95174
認定	-9.95212
危険	-9.95272
▁本	-9.95281
ard	-9.95297
供	-9.95364
現在では	-9.95365
謝	-9.95375
振り	-9.95391
▁その他	-9.95417
の一人	-9.95422
62	-9.95445
息子	-9.95458
!」	-9.95461
わった	-9.95467
劉	-9.95469
だけでなく	-9.95538
物質	-9.95569
ゲー	-9.95582
できなかった	-9.95591
札幌	-9.95632
なければならない	-9.95695
駐	-9.95697
フォード	-9.95784
呼	-9.95785
伝説	-9.95789
800	-9.95815
ha	-9.95832
在籍	-9.95873
週間	-9.95873
的には	-9.95912
▁()	-9.9595
潮	-9.95959
自治	-9.96013
アナウンサー	-9.96014
ころ	-9.96033
53	-9.96044
開幕	-9.96164
52	-9.96165
撤退	-9.96213
ドリ	-9.96226
リック	-9.96236
▁2004	-9.96241
ブラジル	-9.96256
ておらず	-9.96268
種の	-9.96327
ジャパン	-9.96353
施行	-9.96399
込んだ	-9.96402
その他	-9.96418
と結婚	-9.96447
包	-9.96447
晴	-9.96469
続けた	-9.96501
ごう	-9.96504
十分	-9.96524
ランキング	-9.96525
プロデューサー	-9.96542
あげ	-9.96545
に由来する	-9.96553
抱	-9.96554
!』	-9.96557
刻	-9.96564
フェン	-9.96623
メキシコ	-9.96638
作詞	-9.96653
期待	-9.9666
太平洋	-9.96733
なくなった	-9.96744
しながら	-9.96799
1967	-9.96804
レーション	-9.96961
ずつ	-9.96985
製の	-9.97013
ph	-9.97046
排	-9.97085
呼称	-9.97094
柱	-9.97103
公共	-9.97123
競	-9.97131
大量	-9.97141
答	-9.97159
1964	-9.97162
▁de	-9.97169
数が	-9.9717
金属	-9.97185
ゲル	-9.97231
63	-9.97318
氷	-9.97348
対抗	-9.9735
かなり	-9.97365
できた	-9.97397
途	-9.97434
頃に	-9.97458
ver	-9.97466
ソフトウェア	-9.97482
やすい	-9.97532
色の	-9.97538
貸	-9.9757
79	-9.97599
民間	-9.97619
出来	-9.97627
なども	-9.9763
いだ	-9.97636
由来	-9.97664
穴	-9.97691
クロス	-9.97709
笑	-9.97729
▁生涯	-9.97854
掛け	-9.97888
実際に	-9.97929
分割	-9.97932
立つ	-9.97943
けた	-9.97957
についても	-9.9796
たちは	-9.98006
きょう	-9.98012
ともに	-9.9806
エリア	-9.98111
区別	-9.98135
如	-9.98153
球団	-9.98164
艇	-9.98168
ニュ	-9.98187
co	-9.98196
交渉	-9.98228
当時は	-9.98269
ドイツの	-9.98287
勤務	-9.98305
ルイ	-9.98306
票	-9.98311
を引き	-9.98359
形状	-9.98396
頃から	-9.98408
爵	-9.9844
を始め	-9.98587
鳴	-9.98588
鏡	-9.98598
課程	-9.98613
形成	-9.98631
完全に	-9.98724
既	-9.98762
電話	-9.98763
の開発	-9.98768
おお	-9.98813
ケース	-9.9882
消費	-9.98848
多数の	-9.98943
鑑	-9.98947
南北	-9.98992
ネットワーク	-9.98994
96	-9.99005
を得	-9.99025
加えて	-9.99038
薄	-9.99084
結局	-9.9915
たか	-9.99152
枝	-9.99161
参照	-9.99184
を使用し	-9.99186
定め	-9.99193
国鉄	-9.99204
を実施	-9.99233
と言う	-9.99251
買	-9.99277
権利	-9.99404
覆	-9.99482
機会	-9.99537
貨	-9.99547
年以降	-9.99612
硬	-9.99622
サイド	-9.99679
外国	-9.9968
児童	-9.99695
民主	-9.99802
適用	-9.99861
方針	-9.99938
基礎	-9.99947
フランスの	-9.99957
兵庫県	-9.99963
損	-9.99993
よし	-10
哲学	-10.0005
ニャ	-10.0008
者として	-10.0009
戦車	-10.0011
LE	-10.0013
▁Co	-10.0018
なければ	-10.0022
菌	-10.0024
ュ	-10.0024
中止	-10.0026
1944	-10.0027
澤	-10.003
洗	-10.003
旅行	-10.0033
殺害	-10.004
TBS	-10.0042
集落	-10.0042
サラ	-10.0047
嘉	-10.0048
武器	-10.0048
就任	-10.0055
弥	-10.006
その後も	-10.0067
ことにより	-10.0067
となっており	-10.0069
を卒業	-10.0073
です	-10.0075
をはじめ	-10.009
の子	-10.0097
チャン	-10.0099
兵器	-10.0101
それに	-10.0102
略称	-10.0107
固定	-10.011
検討	-10.0117
ものであった	-10.0124
始まり	-10.0126
阪神	-10.0129
ab	-10.0132
編入	-10.0133
ワード	-10.0139
一般に	-10.0141
ion	-10.0142
駒	-10.0142
慣	-10.0143
からなる	-10.0145
今日	-10.0147
ていく	-10.0151
de	-10.0152
おか	-10.0152
識	-10.0155
平和	-10.0156
em	-10.0157
ag	-10.0157
大きい	-10.0161
トラン	-10.0164
ge	-10.0167
大学の	-10.0168
ウェル	-10.0174
共に	-10.0178
句	-10.0187
取締役	-10.0188
ものは	-10.0193
前半	-10.0196
ティック	-10.0196
投げ	-10.0196
還	-10.02
邦	-10.0201
連隊	-10.0205
用語	-10.0205
を取得	-10.0206
を用いて	-10.0208
玄	-10.0218
ry	-10.0219
まとめ	-10.0219
1965	-10.0222
合計	-10.0229
衛	-10.023
ヒル	-10.023
日本で	-10.0236
過ぎ	-10.0239
を得た	-10.0241
率いる	-10.0245
ポール	-10.025
などがある	-10.0252
環	-10.0253
低い	-10.0257
カス	-10.0271
するよう	-10.0272
ブルク	-10.0277
合流	-10.0279
AS	-10.028
摂	-10.0281
繋	-10.029
ツァ	-10.0292
ッキー	-10.0293
トンネル	-10.0294
ak	-10.0301
独自の	-10.0304
年にかけて	-10.0304
を起こし	-10.0314
発言	-10.0326
登場した	-10.0327
MS	-10.0328
停車	-10.034
ごと	-10.0341
換	-10.0349
61	-10.0352
スウェーデン	-10.0352
行く	-10.0355
ジュニア	-10.0355
市長	-10.0355
と同様	-10.0356
ストラ	-10.0356
ルール	-10.0358
芸能	-10.0369
合成	-10.0373
練習	-10.0376
ボード	-10.0376
1966	-10.0379
従来の	-10.0383
日付	-10.0384
年頃	-10.0386
快	-10.0387
れている	-10.0388
テレビドラマ	-10.0388
込まれ	-10.0391
op	-10.0395
るようになった	-10.04
のメンバー	-10.0405
ヴェル	-10.0408
資	-10.0411
DE	-10.0413
債	-10.0414
AM	-10.0415
不足	-10.0422
66	-10.0425
態	-10.0426
鋼	-10.0428
号線	-10.0434
ハード	-10.0434
BO	-10.0434
つけ	-10.0436
信号	-10.0441
影	-10.0446
を有する	-10.0451
攻	-10.0453
終了後	-10.0454
埼玉県	-10.0458
ブラック	-10.0458
を認め	-10.0459
準備	-10.0459
ダンス	-10.0462
ッジ	-10.0462
と同様に	-10.0464
経緯	-10.0465
エリ	-10.0466
経由	-10.048
処分	-10.0486
EC	-10.0488
69	-10.0489
im	-10.0493
アイドル	-10.0495
尉	-10.0496
ブロ	-10.0499
いう	-10.0501
67	-10.0501
沿い	-10.0503
諸国	-10.0507
進行	-10.0509
の際に	-10.0512
次郎	-10.0518
少なく	-10.0526
社の	-10.0527
各種	-10.0534
現象	-10.0534
あい	-10.0535
学会	-10.0535
考	-10.0551
祝	-10.0552
双	-10.0552
長さ	-10.0558
メダル	-10.056
洞	-10.0563
ミル	-10.0566
共産党	-10.0573
MI	-10.0583
戦い	-10.0587
1940	-10.0587
航空機	-10.0588
ツェ	-10.0588
EN	-10.059
のちに	-10.059
区域	-10.0596
アカデミー	-10.0599
規制	-10.0603
部長	-10.0603
やがて	-10.0605
を目指し	-10.0606
こともあり	-10.0608
テスト	-10.0612
崩壊	-10.0622
解放	-10.0624
金融	-10.0629
斎	-10.0632
関数	-10.0635
られて	-10.0636
単独	-10.0641
拡張	-10.0642
東海	-10.0642
tr	-10.0648
発射	-10.065
原則	-10.0662
っていない	-10.0662
使用された	-10.0662
すでに	-10.0663
大阪市	-10.0665
するための	-10.0666
前作	-10.0667
エピソード	-10.0669
生息	-10.0672
日より	-10.0677
執行	-10.0679
▁2000	-10.0684
会場	-10.0687
に取り	-10.0697
)4	-10.0699
誰	-10.07
良い	-10.0702
愛称	-10.0705
まつ	-10.0707
作られた	-10.0714
していく	-10.0717
テイ	-10.0721
一郎	-10.0724
ベルク	-10.0731
酸化	-10.0736
物を	-10.0737
目に	-10.0738
使われ	-10.074
奈	-10.074
回復	-10.0744
ディス	-10.075
ma	-10.0751
を使って	-10.0752
ell	-10.0752
駆逐艦	-10.0759
始め	-10.0763
始めた	-10.0764
事実	-10.0767
サイズ	-10.0772
きた	-10.0772
度目の	-10.0773
Al	-10.0778
UN	-10.0778
怒	-10.0783
試み	-10.0785
籍	-10.0786
コス	-10.0786
司令官	-10.0787
場合もある	-10.0794
が設置され	-10.0796
パート	-10.0797
後も	-10.0799
植民地	-10.0801
ユニ	-10.0806
する事	-10.0816
認識	-10.0819
1963	-10.082
みな	-10.082
理事	-10.0834
沖縄	-10.0836
注意	-10.0839
嫌	-10.0839
ill	-10.0845
地点	-10.0845
テレ	-10.0847
妹	-10.0855
ブロック	-10.0856
敷	-10.086
改善	-10.086
であるため	-10.0862
col	-10.0863
ひろ	-10.0867
随	-10.0867
燃料	-10.0868
毎日	-10.0873
然	-10.0874
ケイ	-10.0874
に加え	-10.0877
陥	-10.0878
検査	-10.0883
各国	-10.0886
耐	-10.0888
世は	-10.0891
と同時に	-10.0896
政党	-10.0901
空軍	-10.0901
前身	-10.0902
送り	-10.0902
詳	-10.0907
手法	-10.0911
スル	-10.0915
執	-10.0915
時は	-10.0917
たちの	-10.0917
性格	-10.0918
徒	-10.0918
譜	-10.0919
後半	-10.092
てい	-10.0921
取引	-10.0925
フジテレビ	-10.0925
結び	-10.0927
僧	-10.0928
田中	-10.0935
理解	-10.0936
始まる	-10.0936
すべての	-10.0939
斉	-10.094
チャート	-10.0944
全員	-10.0946
仲間	-10.0948
煙	-10.0951
74	-10.0954
解決	-10.0963
察	-10.0965
分析	-10.0975
推定	-10.0979
アクセス	-10.0986
伏	-10.0987
侵攻	-10.0999
地帯	-10.0999
の結果	-10.0999
古墳	-10.1002
に関しては	-10.1003
必要な	-10.1006
財	-10.1007
侯	-10.1009
マリア	-10.1012
SE	-10.1018
結合	-10.1019
グロ	-10.1019
許可	-10.102
を加え	-10.102
叙	-10.102
1930	-10.1029
遅	-10.1029
を除く	-10.1029
鈴木	-10.1032
人口は	-10.1036
遺跡	-10.1036
楽器	-10.1038
最初に	-10.1042
それぞれの	-10.1043
致	-10.1044
ニン	-10.1045
碑	-10.1046
を得る	-10.1047
盗	-10.1048
審査	-10.1049
組み合わせ	-10.1057
模	-10.1058
人民	-10.1061
の一種	-10.1061
直前	-10.1062
イオン	-10.1063
伊勢	-10.1069
数多く	-10.1075
na	-10.1078
必要がある	-10.1082
無く	-10.1083
開通	-10.1089
名義	-10.1091
人に	-10.1101
プロ野球	-10.1101
当たり	-10.1109
伴	-10.1111
偽	-10.1114
押	-10.1117
ヤマ	-10.1118
古い	-10.1119
からも	-10.112
1962	-10.1122
を結成	-10.1127
妙	-10.1128
ってきた	-10.1128
を進め	-10.1129
相互	-10.113
垣	-10.1134
ドア	-10.1134
千葉	-10.1135
▁2003	-10.1136
狙	-10.1137
いない	-10.1148
フィールド	-10.1154
わか	-10.1154
機関車	-10.1155
戦隊	-10.1158
低下	-10.1161
早く	-10.1162
工学	-10.1162
承	-10.1163
di	-10.1166
グランプリ	-10.1166
らが	-10.1168
io	-10.1173
ダウン	-10.1177
曹	-10.1182
規格	-10.1184
グリーン	-10.1185
使用される	-10.1188
ノル	-10.1192
来た	-10.1194
ベルリン	-10.1194
ヴァル	-10.1195
を記録した	-10.1196
歩兵	-10.1198
千葉県	-10.1198
貿易	-10.1207
すぎ	-10.1216
衛星	-10.1217
否定	-10.1218
三郎	-10.1224
オーバー	-10.1226
描かれ	-10.123
外交	-10.1234
、2005	-10.1243
併	-10.1243
議論	-10.1243
に入った	-10.1247
カトリック	-10.125
者である	-10.125
くなる	-10.1252
抵抗	-10.1254
代わりに	-10.1255
健康	-10.1257
当て	-10.1258
つまり	-10.1259
河川	-10.1263
▁c	-10.1269
録音	-10.1273
ビュー	-10.1276
リアン	-10.1277
は以下の通り	-10.1278
庄	-10.1283
年生	-10.1294
移住	-10.1299
複数	-10.13
滝	-10.1306
に転	-10.1306
体育	-10.1306
スペシャル	-10.1311
を歴任	-10.1313
戦略	-10.1314
上位	-10.1325
ディング	-10.1326
織	-10.1326
死亡	-10.1327
サッカー選手	-10.1329
新設	-10.1332
明らかに	-10.1333
クライ	-10.1335
。2010	-10.1339
1943	-10.1342
▁0	-10.1344
ソング	-10.1344
舎	-10.1345
町の	-10.1353
披露	-10.1355
香港	-10.1355
泰	-10.1361
mi	-10.1361
発表した	-10.1366
るために	-10.1367
急行	-10.1367
先発	-10.137
1947	-10.1372
ジェイ	-10.1373
翻訳	-10.1374
比較	-10.1375
メー	-10.138
提出	-10.1382
を与え	-10.1395
RI	-10.1395
1961	-10.1395
アーティスト	-10.1398
紅	-10.14
けい	-10.1401
ミサイル	-10.1403
を果たす	-10.1404
とされ	-10.1405
▁#	-10.1407
元々	-10.1413
買収	-10.1414
現役	-10.1415
前述の	-10.1428
扱う	-10.1433
コンサート	-10.1434
遅れ	-10.1435
づけ	-10.1436
友人	-10.1436
中村	-10.1447
街道	-10.1448
1941	-10.1449
婦	-10.145
沿	-10.1451
エフ	-10.1452
雅	-10.1456
畑	-10.146
も多い	-10.1467
冊	-10.1468
ファイル	-10.1472
論文	-10.148
身長	-10.1486
を備え	-10.1488
神経	-10.1495
呉	-10.1498
亡	-10.1498
調整	-10.1499
犯罪	-10.15
に就任した	-10.15
lo	-10.1504
で構成され	-10.151
文献	-10.151
有効	-10.1512
通常の	-10.1513
メジャー	-10.1513
すべき	-10.1518
登場人物	-10.1521
擁	-10.1522
特急	-10.1531
末期	-10.1536
1942	-10.1537
all	-10.1544
消滅	-10.1546
統計	-10.1546
広告	-10.1547
すぐに	-10.1548
響	-10.1549
労働者	-10.1555
になっていた	-10.1555
開催された	-10.1557
範	-10.1559
中世	-10.1562
高度	-10.1564
ロール	-10.1564
迎え	-10.1565
SC	-10.1565
ME	-10.1565
ナイト	-10.157
ごろ	-10.157
危機	-10.1579
死去した	-10.1579
測	-10.158
確立	-10.1583
棄	-10.1585
扱	-10.1589
旋	-10.1591
分子	-10.1592
争	-10.1595
踊	-10.1595
東西	-10.1596
著作	-10.1597
装甲	-10.16
旨	-10.1602
生成	-10.1607
証明	-10.1612
ヤー	-10.1621
価値	-10.1622
ポジションは	-10.1626
それが	-10.1626
のまま	-10.1626
コール	-10.1628
ヘッド	-10.1636
三菱	-10.1638
と対戦し	-10.164
込んで	-10.1641
マシン	-10.1642
峰	-10.1643
どちら	-10.1643
ラウンド	-10.1644
関係者	-10.1645
ペー	-10.1646
を迎え	-10.1646
複	-10.1649
とされた	-10.1653
梁	-10.1655
ガイ	-10.1662
ギリシャ	-10.1663
最初	-10.1666
息	-10.1672
ギター	-10.1676
サポート	-10.1681
1958	-10.1681
信仰	-10.1684
はなく	-10.1685
反乱	-10.1686
吉田	-10.1694
審	-10.17
▁and	-10.1702
特定	-10.1704
カバー	-10.1706
職員	-10.1706
長期	-10.1706
依頼	-10.1711
中間	-10.1712
筑	-10.1713
150	-10.1715
の存在	-10.1725
糸	-10.1726
事実上	-10.1727
にわたって	-10.1727
が高い	-10.173
/	-10.1732
隣	-10.1737
教え	-10.1738
トム	-10.1739
スペース	-10.1744
項目	-10.1745
▁17	-10.175
1948	-10.1751
誠	-10.1753
集合	-10.1754
むら	-10.1755
全米	-10.1756
長く	-10.1758
に属し	-10.1759
ダブル	-10.1765
潜水艦	-10.1765
左右	-10.1768
)3	-10.1769
山口	-10.1771
と呼ばれ	-10.1771
同様に	-10.1775
掘	-10.178
。2008	-10.1781
穂	-10.1784
獄	-10.1785
強制	-10.1794
カット	-10.1798
スティー	-10.18
ate	-10.1802
収入	-10.1802
ers	-10.1806
の一つである	-10.1806
浪	-10.1807
中学	-10.1809
有名な	-10.1813
ものと	-10.1819
MO	-10.182
1959	-10.182
支払	-10.1821
フライ	-10.1822
上記の	-10.1823
過程	-10.1828
IT	-10.1829
ネーム	-10.1832
レル	-10.1836
拒否	-10.1836
タレント	-10.1837
オート	-10.1839
ワールドカップ	-10.1839
医師	-10.1841
浄	-10.1843
日間	-10.1843
藤原	-10.1846
作曲家	-10.1846
べく	-10.1847
ボーイ	-10.1849
されたもの	-10.1852
だろう	-10.1855
キシ	-10.1855
即	-10.1856
長崎	-10.1861
コンビ	-10.1863
およそ	-10.1866
ジョー	-10.1868
漁	-10.1869
王者	-10.1869
スクール	-10.1875
呂	-10.1875
イヤー	-10.1875
母親	-10.1878
子が	-10.1881
提	-10.1882
紫	-10.1882
閣	-10.1885
、2011	-10.1893
表面	-10.1897
画家	-10.1898
サウンド	-10.1898
ミュ	-10.1899
狩	-10.19
THE	-10.1902
の場合は	-10.1903
-6	-10.1905
させて	-10.1905
土曜	-10.1915
とも呼ばれる	-10.1918
構	-10.1922
現地	-10.1923
簡	-10.1923
はじめ	-10.1925
公開された	-10.1926
アイルランド	-10.1927
新人	-10.1927
ばかり	-10.1935
新潟	-10.1935
なもの	-10.194
。2007	-10.1942
年齢	-10.1946
欲	-10.1946
講師	-10.1947
係	-10.1948
初め	-10.1955
▁in	-10.1956
食品	-10.1957
1946	-10.1957
空気	-10.1958
染	-10.1961
戦では	-10.1963
飛び	-10.1965
輸入	-10.197
キャリア	-10.1971
徳川	-10.1972
est	-10.1973
西側	-10.1975
託	-10.1975
天文	-10.1984
逃げ	-10.1984
たこと	-10.1984
居住	-10.199
滑	-10.1997
吹	-10.2001
名で	-10.2003
ほどの	-10.2006
上昇	-10.2006
。2009	-10.2008
かせ	-10.2011
彼らは	-10.2012
逆に	-10.2013
貢献	-10.2019
▁あらすじ	-10.2027
幾	-10.2027
発達	-10.2029
なん	-10.203
練	-10.2033
菊	-10.2034
ジア	-10.2038
パワー	-10.2039
子は	-10.2042
必	-10.2043
側面	-10.2048
チャンピオン	-10.2051
ツィ	-10.2051
pe	-10.2052
ハンガリー	-10.2058
ヨー	-10.2058
歴代	-10.2059
たま	-10.2059
で開催された	-10.206
負傷	-10.206
ウォ	-10.2061
走行	-10.2062
市にある	-10.2069
付けられた	-10.2072
昇	-10.2073
さまざまな	-10.2074
hi	-10.2075
資本	-10.2078
インター	-10.2081
ホン	-10.2084
画面	-10.2086
投入	-10.2087
と考えられる	-10.2091
-4	-10.2093
1949	-10.2095
の息子	-10.2096
巣	-10.2096
動作	-10.2109
現在も	-10.2111
の意味	-10.2112
1955	-10.2116
スキ	-10.2117
できず	-10.2118
悲	-10.2121
に終わった	-10.2123
繁	-10.2126
月より	-10.2129
大使	-10.2131
刺	-10.2142
を用いた	-10.2144
海上	-10.215
えき	-10.215
新宿	-10.2152
ものを	-10.2155
回戦	-10.2156
地下鉄	-10.2156
肥	-10.2157
放送されていた	-10.2158
1956	-10.2158
合格	-10.2158
財政	-10.216
ミス	-10.2161
弟子	-10.2163
ミング	-10.2166
投資	-10.2168
ことになった	-10.2168
位の	-10.2168
護衛	-10.2169
向き	-10.2169
のみで	-10.2169
王子	-10.2169
1920	-10.2174
まさ	-10.2175
まれた	-10.2175
ap	-10.2177
に基づく	-10.2177
脇	-10.2177
ロイ	-10.2178
助け	-10.2179
規則	-10.2181
イラスト	-10.2183
つつ	-10.2185
DS	-10.2189
au	-10.2193
期に	-10.2194
援	-10.2198
▁In	-10.22
佐藤	-10.2203
概	-10.2204
保有	-10.2207
承認	-10.2209
札	-10.2209
ロケット	-10.221
性質	-10.2212
ではないか	-10.2213
北京	-10.2215
LA	-10.2216
集中	-10.2218
ワシントン	-10.2223
LO	-10.2225
サブ	-10.2226
英国	-10.2238
下げ	-10.2239
国王	-10.2241
阪	-10.2242
判決	-10.2249
川の	-10.2255
賞を受賞	-10.2255
モノ	-10.2255
交差点	-10.2256
規	-10.2261
寺院	-10.2266
テロ	-10.2266
学習	-10.2269
ワーク	-10.227
寄せ	-10.2273
山田	-10.2276
億円	-10.2278
したのは	-10.2278
特定の	-10.2287
ub	-10.2289
ブレーキ	-10.2291
占め	-10.2296
持つ	-10.2304
一族	-10.2305
兵士	-10.2306
よい	-10.2306
場合には	-10.2307
シャン	-10.231
惑星	-10.2312
ive	-10.2315
残る	-10.2328
膜	-10.2332
続いた	-10.2339
エジプト	-10.2339
art	-10.234
との関係	-10.2341
創業	-10.2341
が行われる	-10.2349
毎週	-10.235
文庫	-10.2351
同士	-10.2353
ポルトガル	-10.2353
認	-10.2354
岐	-10.2356
ist	-10.2358
脈	-10.236
一番	-10.2363
祥	-10.2369
レーベル	-10.237
このとき	-10.238
1952	-10.2382
罰	-10.2388
十字	-10.2389
髪	-10.239
700	-10.2391
邸	-10.2395
況	-10.24
ho	-10.24
ビット	-10.24
ギー	-10.2401
解釈	-10.2409
じゃ	-10.241
é	-10.2411
縦	-10.2411
作り	-10.2417
レーター	-10.242
モーター	-10.242
守備	-10.2421
▁2002	-10.2421
福岡県	-10.2441
添	-10.2443
再建	-10.2448
大規模な	-10.2451
こそ	-10.2452
チャンネル	-10.2452
トライ	-10.2456
見える	-10.2457
抑え	-10.2457
中華人民共和国	-10.2462
事態	-10.2469
手がけ	-10.2471
業界	-10.2477
事務	-10.2478
卿	-10.2479
で最も	-10.2488
いずれ	-10.249
取得	-10.2492
自転車	-10.2493
ボス	-10.2494
プラン	-10.2494
国会	-10.2494
彼女は	-10.2499
を表す	-10.2499
知識	-10.25
閉鎖	-10.2505
アクション	-10.2512
1954	-10.2521
スイス	-10.2523
連れ	-10.2527
フロ	-10.253
リンク	-10.2531
終わり	-10.2533
キャン	-10.2534
常に	-10.2534
HO	-10.2535
てくる	-10.2544
打率	-10.2544
ズム	-10.2545
自らの	-10.2547
昭	-10.255
見られ	-10.2551
世界選手権	-10.2552
バート	-10.2554
武装	-10.2557
岳	-10.2558
も多く	-10.256
たちが	-10.2561
を得て	-10.2563
区分	-10.2564
請	-10.2568
▁主な	-10.2584
span	-10.2584
スタジアム	-10.2591
当駅	-10.2592
FM	-10.2593
臨時	-10.2595
チー	-10.2597
際には	-10.2599
に帰	-10.26
箇所	-10.2609
主要な	-10.2613
菜	-10.2616
希望	-10.262
吸収	-10.2625
業者	-10.2625
山本	-10.2629
ユダヤ人	-10.2632
象	-10.2633
回り	-10.2633
に関して	-10.2635
姉妹	-10.2639
沿岸	-10.2639
ローズ	-10.2642
原子	-10.2645
掛	-10.265
無料	-10.265
はほとんど	-10.2653
芳	-10.2663
手段	-10.2671
糖	-10.2671
才	-10.2673
寝	-10.268
寄り	-10.2681
を用いる	-10.2687
FA	-10.2689
営業所	-10.269
マッチ	-10.2692
と思われる	-10.27
DA	-10.2701
静岡県	-10.2704
という意味	-10.2705
、2013	-10.2707
川崎	-10.2708
次第に	-10.2711
ゆう	-10.2712
粉	-10.2713
求	-10.2713
が存在し	-10.2714
麗	-10.2718
▁(""	-10.2718
に成功した	-10.2721
軍人	-10.2724
育成	-10.2725
衝突	-10.2727
革	-10.273
▁formula	-10.2731
上げた	-10.2733
義務	-10.274
ネイ	-10.274
を搭載し	-10.2744
リーダー	-10.2747
賢	-10.2749
中部	-10.2753
1957	-10.2763
大和	-10.2764
拳	-10.2765
稿	-10.2769
昇進	-10.2769
。2006	-10.2769
束	-10.278
崩	-10.2786
取った	-10.2786
スティ	-10.279
されない	-10.2791
媒	-10.2792
予備	-10.2792
後継	-10.2794
却	-10.2803
1953	-10.2804
有力	-10.2807
アント	-10.2807
リウス	-10.2812
きっかけ	-10.2813
ヌス	-10.2813
起源	-10.2818
扉	-10.2819
おう	-10.2823
故	-10.2828
にもかかわらず	-10.2832
握	-10.2833
正式に	-10.2838
国境	-10.2838
▁2001	-10.2843
南西	-10.2843
抜け	-10.2847
sh	-10.2849
個体	-10.285
もない	-10.285
シス	-10.2853
争い	-10.2853
WA	-10.2857
建設された	-10.2859
TE	-10.2863
顕	-10.2869
獣	-10.2873
ラント	-10.2877
食べ	-10.2879
ユーザー	-10.2895
インタビュー	-10.2897
アメリカン	-10.2897
を発表した	-10.2897
著書	-10.2897
構想	-10.2898
を使用する	-10.2899
深夜	-10.2904
°	-10.2908
ビジネス	-10.2918
lu	-10.2925
しょ	-10.2926
仏教	-10.2931
再生	-10.2936
傘下	-10.2939
かく	-10.2939
万ドル	-10.294
マイル	-10.2941
一般的に	-10.2945
駆	-10.2945
類似	-10.2946
うえ	-10.2947
ロング	-10.2948
ブラン	-10.2956
話題	-10.2962
藩主	-10.2968
丁	-10.2969
もっとも	-10.2969
怪	-10.2971
させること	-10.2975
一般的な	-10.2984
青年	-10.2994
武蔵	-10.2995
メモリ	-10.2996
ハム	-10.2999
現存	-10.3
差し	-10.3001
境界	-10.3003
大きさ	-10.3005
発電所	-10.3005
ものであり	-10.3005
ジャック	-10.3007
文化財	-10.301
ci	-10.3011
ランク	-10.3012
姉	-10.3012
プロダクション	-10.3014
摩	-10.3017
恩	-10.3022
開発された	-10.3022
生命	-10.3025
袋	-10.3025
従来	-10.3025
松本	-10.3029
リズム	-10.3033
僚	-10.3033
改修	-10.3038
かない	-10.304
仙	-10.3042
として活動	-10.3045
伸	-10.3046
美術館	-10.3048
様式	-10.3049
様子	-10.3053
壊	-10.3053
発見された	-10.3055
AV	-10.3064
気候	-10.3077
同時	-10.3078
1939	-10.3079
悪化	-10.3083
出た	-10.3085
議長	-10.3085
相撲	-10.3085
シート	-10.3085
栽培	-10.3088
陳	-10.3091
参考	-10.3101
患者	-10.3101
1951	-10.3101
現実	-10.3103
探	-10.3105
現場	-10.3107
ハウ	-10.3107
流れる	-10.3112
わない	-10.3112
縮	-10.3115
ヤン	-10.3117
淡	-10.3119
自身が	-10.3119
使用されている	-10.3123
以前は	-10.3126
駅舎	-10.313
入れた	-10.3133
峠	-10.3134
大学院	-10.3135
料金	-10.3137
ゲイ	-10.3139
Windows	-10.3139
てしまった	-10.314
以前の	-10.3141
与え	-10.3142
保守	-10.315
普	-10.3151
cc	-10.3156
出現	-10.316
ヒュー	-10.316
スピ	-10.3162
肩	-10.3173
免許	-10.3183
重量	-10.3183
収録されている	-10.3183
を終え	-10.3184
長野県	-10.3185
を超える	-10.3189
を収め	-10.3189
眠	-10.3192
共演	-10.3194
勤	-10.3197
戦艦	-10.3198
棒	-10.32
創立	-10.3202
発電	-10.3202
–	-10.3204
容易	-10.3206
標高	-10.3209
バーグ	-10.321
銭	-10.3211
るなど	-10.3222
ベトナム	-10.3227
プライ	-10.323
かる	-10.323
AP	-10.3232
ッサ	-10.3235
主力	-10.3235
養子	-10.3237
齢	-10.324
テレビアニメ	-10.3243
軍団	-10.3249
ウェア	-10.3254
徐々に	-10.3254
たため	-10.3261
マスター	-10.3261
実質	-10.3262
るもの	-10.3273
るように	-10.3279
盛ん	-10.3279
ホワイト	-10.3282
no	-10.3283
formula	-10.3286
言う	-10.3287
を変え	-10.3288
奈良	-10.3295
引き続き	-10.3299
ess	-10.33
消防	-10.3304
日本国内	-10.3321
寒	-10.3321
携	-10.3334
捜査	-10.3335
他にも	-10.3337
要請	-10.3339
CE	-10.3352
深い	-10.3352
ドラゴン	-10.3352
協定	-10.3353
輸出	-10.3354
のことである	-10.3354
栗	-10.3355
変換	-10.3357
隔	-10.3359
歌詞	-10.336
単行本	-10.3362
獲	-10.3364
換え	-10.3368
進む	-10.3374
メール	-10.3374
東洋	-10.3375
ヒト	-10.3377
弁護士	-10.3377
見る	-10.338
爆発	-10.3383
えない	-10.3384
伸び	-10.3391
即位	-10.3392
ギリシア	-10.3394
ェ	-10.3395
公立	-10.3397
子会社	-10.3397
を設け	-10.3398
ボイ	-10.34
古典	-10.3405
郵便局	-10.3411
モスクワ	-10.3414
垂	-10.3416
戦線	-10.3417
使用する	-10.3421
北西	-10.3422
MP	-10.3423
さえ	-10.3424
トルコ	-10.3428
帳	-10.3429
することになった	-10.3433
に復帰	-10.3434
駅前	-10.3434
インディ	-10.3439
駅間	-10.3441
サム	-10.3443
吸	-10.3443
フー	-10.3443
かれた	-10.3444
もあって	-10.3446
qu	-10.3448
締	-10.3449
宮崎	-10.345
と同じく	-10.345
耳	-10.3451
謀	-10.3453
影響を与え	-10.3454
知られる	-10.3461
相当	-10.3463
が担当	-10.3465
活躍した	-10.3465
熟	-10.3466
アート	-10.3467
ant	-10.3468
書籍	-10.3471
興行	-10.3472
ment	-10.3474
する場合	-10.3478
キャラ	-10.3479
の下で	-10.3485
ッカ	-10.3485
と呼ばれた	-10.3489
続ける	-10.3492
魔法	-10.3496
イング	-10.3498
劇団	-10.35
ヴァイ	-10.35
胸	-10.35
天正	-10.3503
磨	-10.3504
触	-10.3504
▁Re	-10.3507
ディオ	-10.3511
指示	-10.3514
繰り返し	-10.3514
していった	-10.3516
庭	-10.3518
昼	-10.352
TR	-10.3522
事情	-10.3523
将来	-10.3524
演劇	-10.3526
委員長	-10.3526
留学	-10.3529
最多	-10.3529
フィン	-10.3536
逸	-10.3538
感染	-10.3542
ev	-10.3544
剛	-10.3546
少し	-10.3549
妃	-10.3554
に参加した	-10.3554
祀	-10.3555
索	-10.3562
灰	-10.3564
緒	-10.3565
極めて	-10.3566
ッター	-10.3569
すぐ	-10.3569
TI	-10.3569
混乱	-10.3571
を持って	-10.3574
されなかった	-10.3574
枚目	-10.3585
棟	-10.3585
卒	-10.3586
キロ	-10.3588
PO	-10.3591
働	-10.3594
両者	-10.3597
葬	-10.3601
コミュニティ	-10.3607
申し	-10.361
ud	-10.3612
家臣	-10.3612
ロサンゼルス	-10.3614
訪れ	-10.3617
売却	-10.3618
これらは	-10.3621
1937	-10.3622
ながらも	-10.3625
活用	-10.3626
するまで	-10.3634
届	-10.3635
してしまう	-10.3638
高橋	-10.3642
補助	-10.3645
こちら	-10.3648
に分かれ	-10.3652
を探	-10.3659
そのもの	-10.366
事業者	-10.3664
ライフ	-10.367
売り	-10.3675
外国人	-10.3676
を挙げた	-10.3679
出走	-10.3685
をつけ	-10.3689
銘	-10.3689
機種	-10.3692
征	-10.3693
代理	-10.3696
ていった	-10.3696
使われている	-10.3703
詳細	-10.3703
ロボット	-10.3705
ドラフト	-10.3712
られており	-10.3712
伊藤	-10.3715
DO	-10.3715
えば	-10.3717
転換	-10.3722
を訪れ	-10.3725
国勢調査	-10.373
を作る	-10.3738
放射	-10.3741
威	-10.3742
週刊	-10.3743
ディスク	-10.3748
清水	-10.375
オペラ	-10.3751
を求める	-10.3755
劣	-10.3759
自衛隊	-10.3759
保持	-10.376
場面	-10.3762
ーナ	-10.3769
☆	-10.3773
ノイ	-10.3774
入学	-10.3776
北東	-10.378
160	-10.378
徴	-10.3781
葛	-10.3786
作った	-10.3788
わず	-10.379
ヴィン	-10.379
神話	-10.3791
放映	-10.3793
噴	-10.3794
av	-10.3795
社会主義	-10.3796
起き	-10.3799
IA	-10.3805
した場合	-10.3806
虎	-10.381
明らか	-10.3813
金曜	-10.3815
趣味	-10.3818
書かれ	-10.3821
を使う	-10.3822
司会	-10.3827
数学	-10.3828
兵衛	-10.3828
CH	-10.3829
上陸	-10.3833
人類	-10.3834
が多かった	-10.3837
フランク	-10.3838
フィルム	-10.3838
蒸気	-10.3843
恐	-10.385
鎖	-10.3851
ce	-10.3855
かず	-10.3857
傍	-10.3861
モンゴル	-10.3861
濃	-10.3864
旭	-10.3864
シリア	-10.3867
ティア	-10.3868
上げる	-10.387
新幹線	-10.3872
ヘン	-10.3872
マラ	-10.3872
離脱	-10.3874
ラッシュ	-10.3879
そこに	-10.3879
桂	-10.3887
ight	-10.3887
まち	-10.3888
リリースされた	-10.3892
警備	-10.3895
討	-10.3898
1938	-10.39
ターミナル	-10.39
と述べている	-10.3907
蓮	-10.3912
山脈	-10.3916
逃	-10.3916
攻め	-10.3922
守護	-10.3926
を通して	-10.3933
好き	-10.3933
出された	-10.3936
唯一	-10.3938
休止	-10.3939
働き	-10.394
ジャンプ	-10.3943
らしい	-10.3952
堅	-10.3953
無線	-10.3958
敗北	-10.396
東側	-10.396
|	-10.3962
実際には	-10.3964
修正	-10.3965
マニ	-10.3966
小惑星	-10.3971
本拠地	-10.3974
ウィル	-10.3981
を表明	-10.3985
1936	-10.3988
洲	-10.3988
軒	-10.3993
構築	-10.3997
坊	-10.3999
トゥー	-10.4
動画	-10.4001
掲げ	-10.4009
敏	-10.401
所在地	-10.4012
作目	-10.4014
上映	-10.4015
格闘	-10.4016
うこと	-10.4017
フォル	-10.4017
償	-10.4018
キル	-10.4025
模様	-10.4032
を示し	-10.4034
を超え	-10.4035
自宅	-10.4038
浩	-10.4039
イスラエル	-10.404
発着	-10.4045
グラン	-10.4046
流行	-10.4047
台車	-10.4048
IP	-10.405
次元	-10.405
刑事	-10.4053
に入学	-10.4055
カッ	-10.4056
施	-10.4057
を描いた	-10.4058
そのような	-10.4065
合意	-10.4071
解体	-10.4071
未来	-10.4074
得意	-10.4083
授	-10.4084
戦死	-10.4086
モル	-10.4087
希	-10.4087
体験	-10.4089
しかしながら	-10.4094
を果たし	-10.4095
画像	-10.4096
ハリ	-10.4098
トーク	-10.4099
時代から	-10.4103
利益	-10.4105
用途	-10.4105
状態で	-10.4107
県道	-10.4109
世紀に	-10.411
訪問	-10.4113
競馬場	-10.4115
まって	-10.4117
SO	-10.4118
フィル	-10.412
月場所	-10.4123
称号	-10.4124
一致	-10.4125
バーン	-10.4128
両方	-10.413
付けられ	-10.4135
ることとなった	-10.4136
電鉄	-10.4136
〈	-10.4138
〉	-10.414
ヌー	-10.4142
KA	-10.4147
ることになった	-10.4161
繰り	-10.4167
販	-10.417
SF	-10.4171
祖父	-10.4171
預	-10.4172
ストロ	-10.4175
子孫	-10.4176
スペ	-10.418
アイテム	-10.4182
ウクライナ	-10.4183
包囲	-10.4184
参謀	-10.4184
ect	-10.4185
ゾン	-10.4185
効率	-10.4187
吾	-10.4188
周年	-10.4191
を持っている	-10.4196
を中心とした	-10.4197
身体	-10.4198
この頃	-10.4199
じん	-10.4201
離れた	-10.4209
An	-10.4211
権力	-10.4213
授与	-10.4216
武田	-10.4218
記憶	-10.4224
一緒に	-10.4224
られない	-10.4225
登板	-10.4225
描写	-10.4226
GA	-10.4226
若い	-10.4233
提携	-10.4234
をリリース	-10.4235
トランス	-10.4237
廃止された	-10.4237
訴え	-10.4238
陵	-10.4238
予算	-10.4239
進化	-10.4244
ly	-10.4245
戦闘機	-10.4247
SI	-10.4248
世帯	-10.4249
奴隷	-10.4252
ロバート	-10.4253
揚	-10.4258
八幡	-10.426
彼が	-10.4261
との間に	-10.4261
具体的	-10.4266
ran	-10.4267
ステークス	-10.4269
を行っていた	-10.4272
ッタ	-10.4273
もともと	-10.4284
借	-10.4286
ついた	-10.429
付けた	-10.4291
かけて	-10.4292
与えられた	-10.4293
陸上	-10.4297
シング	-10.4298
ベラ	-10.4302
亭	-10.4305
;	-10.4306
遠征	-10.4306
主体	-10.4307
ビス	-10.4313
小林	-10.4315
モア	-10.4316
かかる	-10.4316
興味	-10.432
輔	-10.432
殺人	-10.4323
に従事	-10.433
エクス	-10.4332
付属	-10.4337
マリー	-10.4339
として活躍	-10.4339
燃	-10.4342
創刊	-10.4344
偏	-10.4345
れない	-10.4348
を始めた	-10.435
加藤	-10.4352
弦	-10.4355
交代	-10.4361
be	-10.4361
支え	-10.4361
買い	-10.4365
あき	-10.4366
北側	-10.4369
故障	-10.4372
材料	-10.4372
するようになった	-10.4374
ジェン	-10.4374
信頼	-10.4376
日発売	-10.4379
であれば	-10.4387
名古屋市	-10.4388
湿	-10.4392
測定	-10.4395
幻	-10.4396
最近	-10.4396
の戦いで	-10.4399
場合がある	-10.44
進められ	-10.4402
敷地	-10.4403
人工	-10.4408
ff	-10.4408
巻き	-10.4409
man	-10.4421
体重	-10.4422
マイクロ	-10.4423
に進出	-10.4428
ことができ	-10.443
に相当する	-10.4433
福祉	-10.4433
TS	-10.4434
脂	-10.4436
タール	-10.4443
屈	-10.4445
流域	-10.445
外部	-10.4454
に当たる	-10.4463
斜	-10.4471
侍	-10.4472
恐れ	-10.4473
撮	-10.4479
下部	-10.4482
が増え	-10.4482
韓	-10.4482
予想	-10.4483
狂	-10.4486
欧	-10.4487
ジム	-10.4487
が行われている	-10.4489
DI	-10.4491
5%	-10.4491
終了した	-10.4497
を作り	-10.45
召	-10.4502
鹿児島	-10.4502
研究者	-10.4505
費用	-10.4507
占	-10.4508
半分	-10.4514
の多くは	-10.4515
市街地	-10.4516
中心部	-10.4516
per	-10.4517
アニメーション	-10.4519
つけた	-10.4522
に伴う	-10.4523
差別	-10.4524
起こった	-10.4531
盛り	-10.4532
聖書	-10.4532
広場	-10.4535
捨て	-10.454
mo	-10.4541
案内	-10.4541
プロデュース	-10.4543
鎌倉	-10.4554
訴訟	-10.4556
建てられ	-10.4557
ネタ	-10.4557
わけ	-10.4558
家督	-10.456
柔	-10.456
トーナメント	-10.4562
年代後半	-10.4562
ity	-10.4563
沙	-10.4564
ルイス	-10.4564
駆け	-10.4564
ガール	-10.4564
姿勢	-10.4566
次男	-10.4566
その結果	-10.4567
ターン	-10.4572
塗	-10.4578
四国	-10.4579
ke	-10.458
ドライバー	-10.4586
ぷ	-10.459
爆撃	-10.4591
日本テレビ	-10.4592
行われている	-10.4593
入口	-10.4595
政治的	-10.4595
卓	-10.4597
曽	-10.4605
象徴	-10.4606
大幅に	-10.4608
追放	-10.4609
ペイ	-10.4612
晋	-10.4613
備え	-10.4622
職業	-10.4627
コピー	-10.4628
1933	-10.4631
日本代表	-10.4631
午後	-10.4634
夫人	-10.4637
マグ	-10.4637
赴	-10.4638
を残し	-10.464
up	-10.4641
存在しない	-10.4645
出て	-10.4645
を持った	-10.4645
襲撃	-10.4646
パイロット	-10.4646
であったため	-10.4648
に任命され	-10.4649
に応じて	-10.4651
を残した	-10.4653
そんな	-10.466
置き	-10.4663
ないため	-10.4663
蘇	-10.4667
どこ	-10.4667
一般的	-10.4669
岐阜県	-10.4672
京都府	-10.4672
概要	-10.4672
単純	-10.4674
スパイ	-10.4676
キャスト	-10.4678
詳細は	-10.4681
締結	-10.4681
月末	-10.4686
ステーション	-10.4686
改札	-10.4689
温度	-10.4692
西武	-10.4692
選手権大会	-10.4693
なかったため	-10.4693
動機	-10.4695
ジャンル	-10.47
数字	-10.4704
ビッグ	-10.4708
いわ	-10.4708
天然	-10.4709
惑	-10.4709
暗殺	-10.4712
も存在する	-10.4713
巨	-10.4719
秘密	-10.4719
両親	-10.4722
泳	-10.4724
石油	-10.4725
がなされ	-10.4726
iv	-10.4727
で初めて	-10.4727
音声	-10.4733
ex	-10.4734
巡洋艦	-10.4737
献	-10.4738
印刷	-10.474
ng	-10.4743
公認	-10.4743
といわれる	-10.4743
書いた	-10.4743
連結	-10.4744
者たち	-10.4745
リオン	-10.475
ソウル	-10.4754
機動	-10.4759
了	-10.476
答え	-10.4762
上海	-10.4767
維	-10.4769
を有し	-10.4771
グラス	-10.4773
流通	-10.4774
激しい	-10.4775
依存	-10.4776
ガラス	-10.4779
短い	-10.4785
our	-10.4785
と主張し	-10.4787
こく	-10.4787
崇	-10.4787
資源	-10.4789
をもつ	-10.479
ロウ	-10.4793
関与	-10.4793
インターチェンジ	-10.4794
ほん	-10.4794
半ば	-10.4794
進み	-10.4795
熊本	-10.4796
によるもの	-10.4797
でもあった	-10.4802
てしまい	-10.4806
one	-10.4806
泊	-10.4806
士官	-10.4814
触れ	-10.4817
不可能	-10.482
完了	-10.4823
笠	-10.4823
ファッション	-10.4824
球場	-10.4824
観客	-10.4825
甘	-10.4826
定着	-10.483
公表	-10.4832
に生まれる	-10.4839
裂	-10.4846
措置	-10.4847
インディアン	-10.4847
教皇	-10.4854
勧	-10.4858
しばらく	-10.4859
打撃	-10.4859
えん	-10.4859
GE	-10.4861
復興	-10.4862
領土	-10.4866
加工	-10.4868
関心	-10.487
ヴィー	-10.4874
たとえば	-10.4875
として知られる	-10.4878
1932	-10.4883
忍	-10.4886
残っている	-10.4886
カリフォルニア州	-10.4891
分岐	-10.4894
ドーム	-10.4896
準決勝	-10.4896
久保	-10.4901
と称し	-10.4902
スポンサー	-10.4903
トロン	-10.4904
暮らし	-10.4913
第一次世界大戦	-10.4914
最優秀	-10.4915
遺伝子	-10.4916
つける	-10.4918
近い	-10.4922
操縦	-10.4923
殖	-10.4925
に基づいて	-10.4928
ピア	-10.4931
ゲート	-10.4936
バスケットボール	-10.4936
伝えられ	-10.4937
啓	-10.4938
を目指す	-10.4942
ヘンリー	-10.4944
秋田	-10.4946
更	-10.4948
分裂	-10.4948
防止	-10.4949
部品	-10.4951
血液型	-10.4954
西日本	-10.4956
ミュージシャン	-10.4967
同期	-10.4968
放送局	-10.4972
1934	-10.4974
生涯	-10.4976
ber	-10.498
張り	-10.498
軟	-10.4986
止	-10.4988
リャ	-10.4992
こともあった	-10.4993
再度	-10.4993
親王	-10.4994
降伏	-10.4997
III	-10.5001
越え	-10.5015
払	-10.5016
小さい	-10.5017
ミッション	-10.5018
掃	-10.5019
署	-10.5021
1935	-10.5025
テニス	-10.5026
イスラム	-10.5026
務めた	-10.5026
童	-10.5029
岡山	-10.5033
St	-10.5035
通行	-10.5037
出来る	-10.5039
ユース	-10.5045
コスト	-10.5047
負担	-10.5054
男女	-10.5057
例として	-10.5058
ack	-10.506
クラシック	-10.5062
学んだ	-10.5062
フォーク	-10.5069
チャイ	-10.5069
順位	-10.507
リード	-10.5082
FIFA	-10.5082
通じ	-10.5085
記号	-10.5085
棋	-10.5089
com	-10.5091
譲渡	-10.5101
影響を受け	-10.5102
整理	-10.5103
伝承	-10.5108
if	-10.511
ならない	-10.511
ヘイ	-10.5113
分解	-10.5115
したものである	-10.5116
フランス語	-10.5119
南東	-10.512
池田	-10.5122
帰還	-10.5122
キュー	-10.5123
ベルギー	-10.5129
描かれている	-10.5133
勲	-10.5135
福島	-10.5136
Sh	-10.5139
北朝鮮	-10.5139
援助	-10.5141
大字	-10.5151
午前	-10.516
手紙	-10.5162
定められ	-10.5163
ik	-10.5163
作者	-10.5166
番目の	-10.5171
ごく	-10.5172
ガンダム	-10.5181
之助	-10.5182
継ぎ	-10.5183
幹部	-10.5185
体系	-10.5186
ian	-10.5188
祐	-10.5188
der	-10.5188
全長	-10.5191
広島県	-10.5192
エンディング	-10.5193
直線	-10.5193
に入って	-10.5199
功績	-10.5201
中期	-10.5202
モリ	-10.5203
驚	-10.5209
日本軍	-10.5212
ウィーン	-10.5214
ちなみに	-10.5214
繁殖	-10.5215
哲	-10.5216
絵画	-10.5217
LI	-10.5223
症状	-10.5227
に達し	-10.5228
埋め	-10.5236
そこ	-10.5236
申請	-10.5236
に際して	-10.5238
南側	-10.5238
成立した	-10.5239
抽	-10.5241
ウッド	-10.5242
パーソナリティ	-10.5243
漢字	-10.5245
取材	-10.5246
―	-10.5252
経済学	-10.5258
先行	-10.5258
フィリピン	-10.5258
みられる	-10.5261
されるようになった	-10.5263
ってしまった	-10.5264
専攻	-10.5268
恒	-10.5274
ビジョン	-10.5274
age	-10.528
積極的に	-10.5282
バトル	-10.5286
ペット	-10.5288
申	-10.5288
議席	-10.5289
並び	-10.5292
来日	-10.5294
ことができた	-10.5297
シカゴ	-10.5297
映	-10.53
騎士	-10.53
GO	-10.5302
歴史的	-10.5306
蘭	-10.5307
督	-10.5308
災	-10.5309
セレ	-10.5315
ハンド	-10.5316
優先	-10.5316
司法	-10.5318
1928	-10.5319
に向けて	-10.532
グランド	-10.5323
かれる	-10.5324
翌日	-10.5325
採用された	-10.5329
朱	-10.5332
ストリート	-10.5334
用いられ	-10.5335
で知られる	-10.5342
一切	-10.5344
レール	-10.5345
隣接する	-10.5347
匠	-10.5352
込	-10.5355
ロゴ	-10.536
まい	-10.5361
シェル	-10.5361
1931	-10.537
バッハ	-10.5374
少将	-10.5379
意図	-10.5379
ならば	-10.5379
山城	-10.5381
井上	-10.5386
ED	-10.5389
謡	-10.5392
が挙げられる	-10.5394
大手	-10.5395
又は	-10.5396
ギュ	-10.5397
サンド	-10.5403
出馬	-10.5403
躍	-10.5407
イラン	-10.5413
ジャズ	-10.5413
なくなる	-10.5415
ワイン	-10.5416
IV	-10.5418
ボディ	-10.5423
自社	-10.5425
ソル	-10.5427
用意	-10.5429
高速道路	-10.543
経過	-10.5435
当主	-10.5435
漫画家	-10.5438
新規	-10.544
推薦	-10.5445
顧問	-10.5446
起こる	-10.5447
ラグビー	-10.5451
出場した	-10.5452
ないこと	-10.5456
ユーロ	-10.5456
上野	-10.546
認め	-10.5463
滞在	-10.5467
線路	-10.5471
バイパス	-10.5477
ローカル	-10.5481
柔道	-10.5484
書かれた	-10.5487
記者	-10.5488
遂	-10.5488
プール	-10.5489
5000	-10.5491
良く	-10.5494
掌	-10.5495
筒	-10.5495
アメリカ軍	-10.5496
病気	-10.5498
千代	-10.551
茨城県	-10.5511
ゆき	-10.5515
do	-10.5518
手術	-10.5519
上部	-10.5524
違反	-10.5526
枚目のシングル	-10.5528
孤	-10.553
と言われている	-10.553
透	-10.5532
1929	-10.5533
時点	-10.5533
吹き	-10.5539
を最後に	-10.554
猫	-10.5542
ゼル	-10.5544
配備	-10.5547
ブラウン	-10.5548
ブック	-10.5552
暖	-10.5557
ナショナル	-10.5559
誘導	-10.5559
選抜	-10.5561
屋根	-10.5563
開催される	-10.5565
振興	-10.5572
oc	-10.5577
さま	-10.5577
ジェット	-10.5579
育て	-10.5579
編曲	-10.558
pp	-10.5581
を置く	-10.5583
退団	-10.5588
独自	-10.5589
現れる	-10.5593
慶長	-10.5593
桃	-10.5593
月刊	-10.5596
ast	-10.5598
ウイ	-10.5598
詰め	-10.5598
デモ	-10.5599
連携	-10.56
コメント	-10.5604
コンセプト	-10.5604
ライセンス	-10.5605
郊外	-10.5612
オープニング	-10.5615
切れ	-10.5616
住居	-10.5618
ミュー	-10.5619
ソニー	-10.562
宋	-10.5623
スコットランド	-10.5627
暴力	-10.5631
コムーネ	-10.5631
辞任	-10.5635
長に就任	-10.5639
ディン	-10.5639
少数	-10.564
相続	-10.5646
賞を受賞した	-10.5646
もいる	-10.5653
が発生し	-10.5654
人たち	-10.5658
タッグ	-10.5658
デンマーク	-10.5659
ip	-10.5659
ショップ	-10.5664
針	-10.567
過ごし	-10.567
桑	-10.5672
国外	-10.5673
東日本	-10.5676
イェ	-10.5678
ワイド	-10.5679
170	-10.568
朗	-10.5683
ボクシング	-10.5687
呼ばれ	-10.5692
現在でも	-10.5692
勃発	-10.5699
削	-10.57
巨人	-10.5701
得られる	-10.5702
確定	-10.5702
豆	-10.5705
合う	-10.5708
需要	-10.5709
マイケル	-10.571
発掘	-10.5713
を使った	-10.5714
んじ	-10.5715
双方	-10.5719
初回	-10.5722
残った	-10.5722
屋敷	-10.573
込め	-10.5732
かけた	-10.5733
を与える	-10.5734
先端	-10.5735
実績	-10.5737
ヨン	-10.5739
乗車	-10.5742
行われていた	-10.5742
の方が	-10.5753
アマチュア	-10.5753
貯	-10.5755
エレ	-10.5755
ソース	-10.5756
祈	-10.5756
輩	-10.5758
コート	-10.576
戦時	-10.5767
深く	-10.5774
突き	-10.5775
暮	-10.5788
のみならず	-10.5789
:""	-10.579
かける	-10.5791
移民	-10.5798
苦し	-10.5803
遇	-10.5806
尋	-10.5807
務め	-10.5807
災害	-10.5808
魂	-10.5813
収容	-10.5816
行なわれ	-10.5817
ハイム	-10.5818
調べ	-10.5818
准	-10.5819
珍	-10.5821
渡辺	-10.5822
しゅ	-10.5824
In	-10.5825
上演	-10.5825
松平	-10.5834
付ける	-10.5835
騎兵	-10.5836
クリア	-10.5839
てくれ	-10.5839
ドイツ語	-10.5839
酷	-10.5839
立った	-10.584
新潟県	-10.5841
ass	-10.5842
両編成	-10.5843
ボタン	-10.5843
勅	-10.5843
滞	-10.5846
菅	-10.5846
広げ	-10.5848
合同	-10.5849
試合に出場し	-10.585
修道院	-10.585
悟	-10.585
起きた	-10.5852
の大半	-10.5858
ポスト	-10.5858
ec	-10.586
王朝	-10.5867
利用者	-10.5868
専門学校	-10.5871
を設置し	-10.5875
駿	-10.5876
郭	-10.5877
貝	-10.5877
再編	-10.5878
出発	-10.5881
ファル	-10.5884
桁	-10.5897
否	-10.5898
ナム	-10.59
スコット	-10.5909
きゅう	-10.5912
連覇	-10.5914
1927	-10.5914
選挙区	-10.5918
ッパー	-10.5919
水素	-10.592
入手	-10.5921
宏	-10.5924
チェン	-10.5925
頭部	-10.5926
へ移籍	-10.5929
ものがある	-10.5932
修了	-10.5932
和田	-10.5936
トヨタ	-10.5936
モール	-10.5937
後方	-10.5939
成分	-10.5939
ツー	-10.5943
絶対	-10.5947
大賞	-10.5952
接触	-10.5955
ov	-10.5956
であろう	-10.5957
》	-10.5959
ではなかった	-10.596
《	-10.5961
固有	-10.5966
と言われる	-10.5969
ちゃ	-10.5971
ang	-10.5972
石川	-10.5975
優秀	-10.5976
物理学	-10.598
を利用して	-10.5981
選挙で	-10.5984
近郊	-10.5989
スピード	-10.599
国防	-10.599
上がり	-10.5992
佐賀	-10.5993
を始める	-10.5995
主流	-10.5998
1924	-10.6005
脱出	-10.6006
白い	-10.6009
SU	-10.6017
当該	-10.6017
レコーディング	-10.6019
使われた	-10.6024
最低	-10.6024
軌	-10.6024
方言	-10.6025
時計	-10.6025
複合	-10.6029
キャンパス	-10.6033
烈	-10.6033
陶	-10.6035
焼き	-10.6036
エース	-10.6037
ラップ	-10.6042
皆	-10.6044
株式	-10.6056
気象	-10.6061
IR	-10.6064
ich	-10.6079
銀河	-10.608
渋谷	-10.608
言及	-10.609
処刑	-10.6091
任意	-10.6098
フィンランド	-10.6099
塾	-10.6099
ob	-10.6101
駆動	-10.6101
震	-10.6109
派生	-10.6111
マルチ	-10.6113
酵素	-10.6114
違う	-10.6114
ウェー	-10.6118
相談	-10.6119
を率いて	-10.6127
司教	-10.6127
立候補	-10.6128
咲	-10.6128
総督	-10.6133
攻略	-10.6133
批評	-10.6134
緩	-10.6135
別名	-10.6139
嶋	-10.6141
寧	-10.6142
募	-10.6146
緊急	-10.6151
猛	-10.6151
乃	-10.6151
チェコ	-10.6155
▁沿革	-10.6158
賃	-10.616
放送時間	-10.616
印象	-10.616
大学教授	-10.6161
下記の	-10.6162
を見て	-10.6163
直通	-10.6166
ヴォル	-10.6167
プロイセン	-10.6173
紋	-10.6176
クルー	-10.6178
ゴルフ	-10.6178
晩年	-10.618
以内	-10.618
この時期	-10.6181
研	-10.6182
競争	-10.6187
渓	-10.6192
堤	-10.6197
該当	-10.6198
嫡	-10.6201
柏	-10.6203
事例	-10.6203
大学大学院	-10.6203
ロイド	-10.6205
を担当した	-10.6206
に基づき	-10.6207
鷹	-10.6209
ませ	-10.6209
を重ね	-10.6214
撤去	-10.6215
自殺	-10.6217
例外	-10.6218
に仕え	-10.6219
インチ	-10.6222
梨	-10.6222
証拠	-10.6229
IG	-10.623
続編	-10.6231
取り入れ	-10.6232
NO	-10.6234
ide	-10.6238
シオ	-10.6242
っぱ	-10.6249
1925	-10.6249
一連の	-10.6251
手掛け	-10.6252
クレジット	-10.6256
実用	-10.6261
収集	-10.6262
瞬	-10.6262
フロント	-10.6264
人員	-10.6265
任命	-10.6266
到達	-10.6267
耕	-10.6267
昔	-10.6268
一軍	-10.6268
魚雷	-10.6269
ox	-10.6279
防御	-10.6281
公国	-10.6283
ブレー	-10.6284
と言われ	-10.6289
附属	-10.6293
候	-10.6293
さない	-10.6293
女王	-10.6296
1918	-10.6297
委	-10.6299
竣工	-10.6299
このうち	-10.6301
入力	-10.6305
したがって	-10.6305
されず	-10.6306
診断	-10.6308
このように	-10.6311
サウス	-10.6311
溝	-10.6314
ていて	-10.6318
脱退	-10.6318
提唱	-10.6318
司令部	-10.6326
解消	-10.6326
着用	-10.6327
奨	-10.633
公式戦	-10.633
NS	-10.6331
あらゆる	-10.6334
メガ	-10.6336
回目の	-10.6341
携帯電話	-10.6342
干	-10.6342
逃れ	-10.6344
福島県	-10.6347
優れた	-10.635
込まれた	-10.635
テレビ朝日	-10.6354
敗退	-10.6361
試作	-10.6361
生じる	-10.6364
ウイルス	-10.6369
一帯	-10.6369
リウム	-10.6375
終戦	-10.6376
3000	-10.6377
資産	-10.6379
res	-10.6382
損害	-10.6382
社員	-10.6383
座席	-10.6383
足利	-10.6387
した際に	-10.6392
歳以上	-10.6395
死刑	-10.6396
道具	-10.6401
ケーブル	-10.6401
主導	-10.6403
チャールズ	-10.6406
監視	-10.6408
書店	-10.6411
宮城県	-10.6412
短編	-10.6413
甲板	-10.6415
端末	-10.642
ジェームズ	-10.6421
支部	-10.6422
1923	-10.6426
に分類される	-10.6428
蓄	-10.6428
経路	-10.6429
軍隊	-10.6432
キャッチ	-10.6437
特性	-10.6438
代替	-10.6439
推測	-10.6458
に変更された	-10.6461
克	-10.6468
尽	-10.647
前期	-10.6471
実装	-10.6474
要因	-10.6475
尼	-10.6476
コレクション	-10.6476
EX	-10.6478
割り	-10.6478
ID	-10.6479
学術	-10.648
広がり	-10.6485
広い	-10.6486
応用	-10.649
を示した	-10.6491
を持っていた	-10.6502
謎	-10.6502
son	-10.6502
侵入	-10.6502
タンク	-10.6507
自民党	-10.6515
往復	-10.6519
テキサス	-10.652
可能性がある	-10.6523
魏	-10.6525
セミ	-10.6526
織田	-10.6526
ドール	-10.653
懐	-10.6534
ゴールド	-10.6535
トレード	-10.6535
辛	-10.654
シュタイン	-10.6542
在学中	-10.6548
ロット	-10.655
見解	-10.6558
今後	-10.656
近隣	-10.656
を代表する	-10.6561
迎	-10.6563
用いられた	-10.6568
丈	-10.6568
ノール	-10.657
使う	-10.657
弓	-10.657
ica	-10.6571
子ども	-10.6577
在住	-10.6578
修理	-10.6579
金沢	-10.6583
1919	-10.6586
かどうか	-10.6588
融	-10.6592
私立	-10.6592
それ以外	-10.6593
扱われ	-10.6596
解析	-10.6601
防御率	-10.6603
圧力	-10.6605
自動車道	-10.6608
ヴィル	-10.6609
パートナー	-10.6609
を迎えた	-10.6618
享年	-10.662
地形	-10.6621
西洋	-10.6621
蒲	-10.6622
黄色	-10.6627
打ち上げ	-10.663
慎	-10.6635
発音	-10.6635
想定	-10.6641
終わる	-10.6641
ブーム	-10.6642
中将	-10.6643
根拠	-10.6643
辰	-10.6643
退職	-10.6649
右衛門	-10.6652
公式サイト	-10.6654
椎	-10.6654
ひとつ	-10.6654
観察	-10.6658
しつつ	-10.6662
抜き	-10.6663
柴	-10.6664
粒子	-10.6665
ユダヤ	-10.6665
主題歌	-10.6665
と比べ	-10.6666
発明	-10.6667
搬	-10.6669
森林	-10.6671
舟	-10.6672
紛争	-10.6673
財産	-10.6673
ゼロ	-10.6673
密度	-10.6675
号機	-10.6675
マックス	-10.6677
平野	-10.6678
ものもある	-10.6678
宣伝	-10.6681
動力	-10.6683
瑞	-10.6685
セルビア	-10.6686
名の由来	-10.6689
に選出された	-10.669
特許	-10.6697
互	-10.6697
コメディ	-10.6698
ナンバー	-10.67
雇用	-10.6705
共有	-10.6705
パソコン	-10.6705
用いる	-10.6708
委託	-10.6708
大将	-10.6709
ことはなかった	-10.6709
リーグ戦	-10.6711
書記	-10.6715
射撃	-10.6716
スカイ	-10.6722
拡	-10.6727
誇	-10.6728
司馬	-10.6729
モンテ	-10.673
渋	-10.6731
であっても	-10.6733
と改称	-10.6733
磐	-10.6736
爆弾	-10.6738
出来事	-10.674
呈	-10.6744
が開始された	-10.6746
見え	-10.6746
されてきた	-10.6751
を除き	-10.6752
町にある	-10.6758
してしまった	-10.6767
倫	-10.6772
壇	-10.6773
殻	-10.6774
迷	-10.6774
三重県	-10.6776
文明	-10.6777
ニョ	-10.6779
離婚	-10.6781
拓	-10.6784
五郎	-10.6793
することとなった	-10.6794
麦	-10.6794
最新	-10.6796
異常	-10.6798
大佐	-10.6801
捕虜	-10.6801
ice	-10.6805
ふく	-10.6805
括	-10.6808
1926	-10.681
浴	-10.681
イラク	-10.6813
ハート	-10.6814
月曜	-10.6815
アイス	-10.6816
そのうち	-10.6821
フットボール	-10.6822
運航	-10.6822
全域	-10.6823
盾	-10.6825
ものだった	-10.6826
死亡した	-10.6828
成果	-10.683
日に行われた	-10.6834
鼻	-10.6834
不可	-10.6835
に次ぐ	-10.6836
市町村	-10.6837
1922	-10.6837
フレーム	-10.6838
騒	-10.684
貧	-10.684
パターン	-10.6846
東映	-10.6849
ちゅう	-10.685
猟	-10.685
国際空港	-10.6857
陸上競技	-10.6857
ャ	-10.6859
ゴールデン	-10.6861
再現	-10.6862
ウォル	-10.687
二つの	-10.687
径	-10.687
膨	-10.6874
火災	-10.6877
ライダー	-10.6881
ty	-10.6882
応援	-10.6886
祭り	-10.6887
アルゼンチン	-10.6892
KI	-10.6893
代表的な	-10.6894
メッセージ	-10.6895
尻	-10.6898
回衆議院議員総選挙	-10.6901
揃	-10.6909
火山	-10.6912
悩	-10.6916
に選ばれた	-10.6918
進んだ	-10.692
訪	-10.6921
釜	-10.6922
衡	-10.6931
du	-10.6935
ヒン	-10.6937
賞受賞	-10.6937
キャンプ	-10.6938
リップ	-10.694
ジャケット	-10.6945
ボックス	-10.6948
鈴	-10.6949
騎	-10.6949
騎手	-10.695
跡地	-10.6956
庶	-10.6957
po	-10.6957
権限	-10.6959
送信	-10.6959
ローン	-10.6959
失われ	-10.6966
含む	-10.6968
約束	-10.6975
安打	-10.6977
募集	-10.6979
ランプ	-10.698
釣	-10.6982
カレッジ	-10.6983
無かった	-10.6985
腰	-10.6985
題材	-10.6988
社名	-10.6991
あら	-10.6995
北米	-10.6996
と称され	-10.7
こうして	-10.7002
ウェスト	-10.701
全面	-10.7012
No	-10.7014
He	-10.7017
ft	-10.7018
沖縄県	-10.7019
出演者	-10.7024
GI	-10.7027
モンスター	-10.7031
しゅう	-10.7032
抗議	-10.7034
実業家	-10.7034
要塞	-10.7036
ノルウェー	-10.7036
三角	-10.7038
但	-10.7038
開拓	-10.704
海峡	-10.7047
基盤	-10.7047
未満	-10.7048
に貢献した	-10.705
を喫し	-10.705
授業	-10.705
後任	-10.7054
警察署	-10.7057
していること	-10.7059
晶	-10.706
禅	-10.706
シップ	-10.7061
リチャード	-10.7062
必ず	-10.7063
ace	-10.7063
クイズ	-10.7064
海洋	-10.7067
を使用した	-10.7067
記述する	-10.707
テュ	-10.7078
幼少	-10.708
を行うこと	-10.7081
という言葉	-10.7083
〜』	-10.7083
促進	-10.7089
クラウ	-10.7089
ヴォー	-10.7095
az	-10.7098
木村	-10.7105
履	-10.7106
中央部	-10.7106
寸	-10.7108
高級	-10.7111
肢	-10.7113
と語っている	-10.7116
挟	-10.7124
蜂	-10.7126
突然	-10.7127
砦	-10.713
UEFA	-10.7131
じゅ	-10.7132
を図る	-10.7134
鋭	-10.7149
均	-10.715
硫	-10.7151
訓	-10.7151
ファミリー	-10.7152
マイナー	-10.716
と呼ばれている	-10.7161
を形成し	-10.7174
じゅう	-10.7176
生態	-10.7179
ではあるが	-10.7183
難しい	-10.7183
反発	-10.7183
フィリップ	-10.7183
都道府県	-10.7185
旅団	-10.7193
枢	-10.7196
ついに	-10.7197
受信	-10.7197
高松	-10.7199
岡山県	-10.72
をはじめとする	-10.7202
引退後	-10.7203
戦国時代	-10.7203
少なくとも	-10.7206
静岡	-10.7208
遷	-10.7208
ヴェン	-10.7214
始める	-10.7214
詩人	-10.7221
業績	-10.7227
斬	-10.7229
郵便	-10.723
多摩	-10.7231
パッケージ	-10.7232
乙	-10.7233
ライオン	-10.7234
演技	-10.7238
課題	-10.7239
打点	-10.724
塗装	-10.7241
シナリオ	-10.7247
神宮	-10.7249
毛利	-10.7251
ヤング	-10.7251
回路	-10.7266
航路	-10.7266
表彰	-10.7266
船団	-10.7268
ame	-10.7269
稼	-10.727
用いられている	-10.7271
選定	-10.7272
河内	-10.7272
が設置されている	-10.7272
かね	-10.7275
胴	-10.728
群馬県	-10.7282
催	-10.7289
1917	-10.7292
ポップ	-10.7292
空襲	-10.7293
存続	-10.7294
勘	-10.7294
篇	-10.7294
飼育	-10.7304
本編	-10.7306
読者	-10.7307
亡命	-10.7313
その際	-10.7314
錦	-10.7315
嵐	-10.732
終結	-10.7327
いろ	-10.733
に比べ	-10.7332
まん	-10.7333
第二次	-10.7333
ベリー	-10.7339
一丁目	-10.734
ようになっている	-10.7344
鉱山	-10.7345
アプリケーション	-10.7347
解除	-10.7348
秩	-10.735
を描く	-10.7351
ツール	-10.7353
時間帯	-10.7354
徹	-10.7354
1914	-10.7357
巨大な	-10.7357
マガジン	-10.7357
原題	-10.7361
スミス	-10.7367
ヴェー	-10.7367
冒険	-10.737
クイーン	-10.7371
現行	-10.7374
教徒	-10.7377
降り	-10.738
太田	-10.738
意思	-10.7385
経歴	-10.7387
ボーカル	-10.7387
空母	-10.7388
所在	-10.7388
乗り入れ	-10.739
炉	-10.7402
有限	-10.7406
主題	-10.7413
テレビ番組	-10.7413
連勝	-10.7415
僕	-10.7417
それでも	-10.7417
原理	-10.7427
周波数	-10.7428
装着	-10.7429
pl	-10.7429
証言	-10.743
ure	-10.7432
一貫	-10.744
犠牲	-10.7446
近鉄	-10.7447
遣	-10.7448
落語	-10.745
に所属していた	-10.7453
を守る	-10.746
アラブ	-10.7461
乾	-10.7463
飼	-10.7468
斗	-10.7472
ハワイ	-10.7474
ピーター	-10.7478
寮	-10.7478
打者	-10.748
決意	-10.7482
若干	-10.7483
非難	-10.7488
校舎	-10.7489
tion	-10.7494
損傷	-10.7499
しりつ	-10.7501
腐	-10.7503
が必要である	-10.7504
保安	-10.7506
決定戦	-10.7506
奉行	-10.7508
こん	-10.751
古くから	-10.751
リニューアル	-10.7511
ディズニー	-10.7511
君主	-10.7516
初出場	-10.7517
室内	-10.7518
なくなり	-10.7519
腸	-10.7521
ブログ	-10.7523
航海	-10.7524
投稿	-10.7532
1921	-10.7533
食べる	-10.7533
ファイナル	-10.7535
ディーゼル	-10.7537
ポンド	-10.7538
秦	-10.7539
モンド	-10.754
位置づけ	-10.754
ドライブ	-10.7541
出席	-10.7545
正規	-10.7546
隣接	-10.7552
故郷	-10.7555
受験	-10.7555
積み	-10.7556
建立	-10.7557
聞き	-10.7561
向かい	-10.7565
ライバル	-10.7567
不動産	-10.7567
に比べて	-10.7568
請求	-10.7573
原子力	-10.7573
不満	-10.7579
ove	-10.7582
往	-10.7584
やすく	-10.7585
を構成する	-10.7585
レーダー	-10.7592
教員	-10.7594
商人	-10.7595
を受けている	-10.7602
パフォーマンス	-10.7604
メタル	-10.7615
早稲田大学	-10.762
移管	-10.7626
に師事	-10.7628
エンド	-10.7628
会館	-10.7629
明け	-10.7632
粘	-10.7635
ING	-10.7636
登山	-10.7637
粋	-10.7638
京都市	-10.764
一旦	-10.7642
揺	-10.7647
年ぶりに	-10.7648
を決めた	-10.765
フェリー	-10.7652
戦士	-10.7658
盆	-10.7658
になっており	-10.766
提示	-10.7667
を抱え	-10.7668
実施された	-10.7671
を元に	-10.7684
いくつか	-10.7686
先頭	-10.7688
を務めていた	-10.7688
置き換え	-10.7688
接近	-10.7692
若手	-10.7694
を失った	-10.7697
疾患	-10.7699
団地	-10.7703
宜	-10.7705
肺	-10.771
演じた	-10.7717
太平洋戦争	-10.7718
訂	-10.7718
バージニア	-10.7719
蓋	-10.772
とは異なり	-10.7721
補給	-10.7722
戯	-10.7725
1900	-10.7726
並ぶ	-10.7726
賞金	-10.7732
司令	-10.7735
オンライン	-10.774
指揮官	-10.7741
ポリス	-10.7745
代わり	-10.7749
立ち上げ	-10.7754
当局	-10.7756
初演	-10.7758
ブリッジ	-10.7759
の一員	-10.7766
ソビエト連邦	-10.7768
代藩主	-10.777
バレーボール	-10.7775
前提	-10.7783
コロンビア	-10.7783
借り	-10.7786
とする説	-10.7788
転向	-10.7791
易	-10.7793
史料	-10.7794
制覇	-10.7806
養成	-10.7806
厳しい	-10.781
遺産	-10.7812
似ている	-10.7815
覇	-10.7821
自主	-10.7821
レストラン	-10.7824
素材	-10.7829
求められ	-10.7833
満州	-10.7836
フリードリヒ	-10.7838
喫	-10.7843
反映	-10.7845
に改称	-10.7847
鍵	-10.7851
を除いて	-10.7862
テープ	-10.7863
禄	-10.7868
ナチス	-10.7873
そこから	-10.7873
依	-10.7876
ヒトラー	-10.7882
部族	-10.7884
タイヤ	-10.7898
小さく	-10.7899
電波	-10.7902
上杉	-10.7905
鹿児島県	-10.7913
バイエルン	-10.7916
モチーフ	-10.7917
支店	-10.7923
続けている	-10.7927
地図	-10.7927
ヒー	-10.7927
に転じ	-10.7928
麓	-10.7928
VI	-10.793
に至った	-10.7931
茎	-10.7935
あなた	-10.7938
夜間	-10.794
船舶	-10.7945
討ち	-10.7946
伯爵	-10.7951
オーディション	-10.7952
ドイツ軍	-10.7953
に含まれる	-10.7954
けんどう	-10.7956
ボストン	-10.7956
創作	-10.7958
の大部分	-10.7958
ファースト	-10.7967
リスク	-10.7971
欧米	-10.7972
▁駅構造	-10.7975
英雄	-10.7977
移植	-10.7981
佳	-10.7982
詰	-10.7982
降格	-10.7985
出資	-10.7986
農民	-10.7989
泥	-10.7991
縄	-10.8
怪我	-10.8006
起点	-10.801
ストーン	-10.801
払い	-10.8014
論理	-10.8025
桐	-10.8029
炭素	-10.8032
陥落	-10.8032
グラフィック	-10.8034
を用い	-10.8041
を演じ	-10.8041
質量	-10.8042
確率	-10.8042
揮	-10.8047
オフィス	-10.805
気温	-10.8054
気筒	-10.8056
理事長	-10.806
を提供し	-10.8061
ase	-10.8062
▁for	-10.8075
助教授	-10.8078
放棄	-10.8078
國	-10.8082
霧	-10.8085
シンガポール	-10.8086
侵	-10.8086
尿	-10.8092
に戻り	-10.8093
ヒーロー	-10.8095
官僚	-10.8097
浴び	-10.8098
東京都出身	-10.8099
ツォ	-10.8102
平安時代	-10.8102
熊本県	-10.8103
伝統的な	-10.8114
ドゥー	-10.8116
塞	-10.8118
割合	-10.8118
連合軍	-10.812
大西洋	-10.8121
宇都宮	-10.8124
疑問	-10.8128
にわたり	-10.8129
削減	-10.8131
ボート	-10.8131
縮小	-10.8136
グラム	-10.814
デザイナー	-10.8141
停留所	-10.8156
快速	-10.8157
ミュージカル	-10.8159
哨戒	-10.8164
と述べた	-10.8165
感情	-10.8169
孔	-10.817
を与えた	-10.8172
危	-10.8172
虚	-10.8177
左衛門	-10.8178
数々の	-10.8178
珠	-10.8185
動員	-10.8186
社会的	-10.8201
重視	-10.8202
レンジャー	-10.8202
を理由に	-10.8206
匹	-10.8206
しまう	-10.8212
与えられる	-10.8222
閥	-10.8235
プロモーション	-10.8239
あくまで	-10.824
鮮	-10.824
に移り	-10.8242
邪	-10.8242
運賃	-10.8243
量産	-10.8243
著名な	-10.8244
に戻った	-10.8244
強力な	-10.8247
揚げ	-10.8254
短縮	-10.8257
剰	-10.826
学研究科	-10.826
肝	-10.8261
腫	-10.8262
癌	-10.8263
トレーニング	-10.8263
涼	-10.8265
都市圏	-10.8274
胞	-10.8274
キロメートル	-10.8276
参議院	-10.828
プロセス	-10.8285
ord	-10.829
衰退	-10.8291
告げ	-10.8293
誓	-10.8297
に戻る	-10.8302
将棋	-10.8305
凍	-10.8308
頻	-10.8312
ディレクター	-10.8314
容量	-10.8317
廃車	-10.832
宮殿	-10.8323
慰	-10.8323
わけではない	-10.8323
挑	-10.8327
班	-10.8328
署名	-10.8329
メトロ	-10.8334
出版社	-10.8334
徳島	-10.8336
楊	-10.8338
臓	-10.8339
数値	-10.834
乗客	-10.834
ことになり	-10.8352
オーケストラ	-10.8357
Cl	-10.8361
タワー	-10.8363
ヤード	-10.8363
会計	-10.8366
近畿	-10.8372
奏者	-10.8372
ダイヤ	-10.8376
青森県	-10.8379
っぽ	-10.838
増え	-10.8382
国籍	-10.8383
認知	-10.8384
篠	-10.8384
広域	-10.8387
富山	-10.839
検出	-10.8392
敗戦	-10.8395
釈	-10.8396
循環	-10.8396
遺体	-10.8397
控え	-10.84
教室	-10.8402
績	-10.8402
フロリダ	-10.8403
回避	-10.8408
チェンジ	-10.8415
岐阜	-10.8416
暫定	-10.8419
現れた	-10.8422
日に発売された	-10.8423
夷	-10.8424
描き	-10.8437
ロイヤル	-10.8437
審議	-10.8438
継ぐ	-10.8439
ってくる	-10.8443
退任	-10.8444
を防ぐ	-10.8449
アンダー	-10.8453
に沿って	-10.8454
Ph	-10.8463
売上	-10.8467
論争	-10.847
恋愛	-10.8472
畜	-10.8473
ock	-10.8475
綿	-10.8476
決議	-10.8479
堺	-10.8484
褐色	-10.8485
勧め	-10.8485
起こり	-10.8487
売り上げ	-10.8496
を発見し	-10.8502
化合物	-10.8508
総裁	-10.851
ゾーン	-10.8512
ach	-10.8514
唱	-10.8514
相模	-10.8516
絡	-10.852
雀	-10.8521
を占める	-10.8521
が生じ	-10.8522
ドラム	-10.8523
装飾	-10.8525
にあたって	-10.8527
開館	-10.8527
ah	-10.8532
甲子園	-10.8534
通貨	-10.8534
回収	-10.8535
ゃ	-10.8536
NBA	-10.8537
絞	-10.8539
1,000	-10.854
埋葬	-10.8541
ction	-10.8541
ies	-10.8545
ポジション	-10.8554
評論家	-10.8556
独特の	-10.8558
を目的として	-10.8565
を利用した	-10.8566
夫婦	-10.857
を行って	-10.8571
潤	-10.8575
疫	-10.8575
美しい	-10.8575
ンブルク	-10.8577
運河	-10.8579
急速に	-10.859
工作	-10.8592
を展開し	-10.8595
終盤	-10.8595
籠	-10.86
に本社を置く	-10.8607
を機に	-10.861
ダービー	-10.8611
の一環として	-10.8611
架空の	-10.8613
落とし	-10.8613
菓子	-10.8616
対決	-10.8618
天保	-10.8619
を利用する	-10.8628
カリフォルニア	-10.8632
賜	-10.8634
庁舎	-10.8635
僅	-10.8637
ナポレオン	-10.8637
指揮者	-10.8637
ラジオ番組	-10.864
甲斐	-10.8642
幣	-10.8645
といえる	-10.8648
旬	-10.8651
播	-10.8653
競走馬	-10.8657
ステップ	-10.8658
オールスター	-10.8664
逆転	-10.8665
慢	-10.8668
運輸	-10.8679
レーン	-10.868
準優勝	-10.8687
歳の時に	-10.8693
混合	-10.8694
ようやく	-10.8695
尺	-10.8699
RPG	-10.8703
戒	-10.8706
出会い	-10.8707
管区	-10.8709
インドネシア	-10.871
兆	-10.8712
ライター	-10.8717
ロッテ	-10.8718
コミュニケーション	-10.8733
琴	-10.8736
タンパク質	-10.8737
音源	-10.8739
議会議員	-10.8739
慈	-10.8742
遭	-10.8742
療法	-10.8745
を余儀なくされ	-10.8746
トラブル	-10.875
ance	-10.8757
ひとり	-10.8758
Web	-10.876
着陸	-10.8761
学問	-10.8761
疎	-10.8762
ウィー	-10.8764
=""2""|-||	-10.8764
iz	-10.8774
比例	-10.8776
享	-10.8776
ってしまう	-10.8783
羊	-10.8783
審判	-10.8783
衝撃	-10.8784
傾	-10.8788
上がる	-10.8792
以外にも	-10.88
げん	-10.8802
山梨県	-10.8802
に指定されている	-10.8803
以下のような	-10.8805
撤	-10.8805
協議会	-10.8806
end	-10.8808
行列	-10.8808
排除	-10.8808
併設	-10.8813
挿入	-10.8814
東宝	-10.8814
ブルック	-10.8815
扇	-10.8819
戦術	-10.8823
を兼ね	-10.8826
証券	-10.8829
武士	-10.8831
が追加され	-10.8832
サイクル	-10.8839
インターナショナル	-10.8839
ことが出来る	-10.8841
競輪	-10.8853
やはり	-10.8864
山口県	-10.8864
鼓	-10.8865
磯	-10.8876
変動	-10.8879
豊富	-10.8884
横須賀	-10.8885
α	-10.8885
終点	-10.8891
ヘビー級	-10.8897
りょう	-10.8898
稀	-10.8899
金メダル	-10.89
巨大	-10.8903
ラテン語	-10.8909
と考えられ	-10.8911
ガイド	-10.8911
変わり	-10.8912
衰	-10.8914
中華民国	-10.8916
ark	-10.8917
山岳	-10.8917
観音	-10.8921
ニュージーランド	-10.8922
合唱	-10.8923
征服	-10.8924
態度	-10.8934
ong	-10.8939
洛	-10.8948
編纂	-10.8954
述べる	-10.896
廷	-10.8962
考案	-10.8964
むしろ	-10.8965
酸素	-10.8968
事項	-10.8975
懲	-10.8976
影響力	-10.8983
トーマス	-10.8983
必ずしも	-10.8986
翔	-10.8993
限界	-10.8993
プロ入り	-10.8997
総選挙	-10.9
テーション	-10.9007
岩手県	-10.9011
外観	-10.9011
方程式	-10.9012
黄金	-10.9016
に伴って	-10.9016
上がった	-10.9017
認可	-10.9019
讃	-10.9021
を知る	-10.9022
年ぶりの	-10.9025
亡くなった	-10.9028
と呼ばれていた	-10.903
偵察	-10.903
軽量	-10.9034
亮	-10.9036
言われ	-10.9039
勤め	-10.9042
騒動	-10.905
嗣	-10.9055
強調	-10.9055
悪魔	-10.9067
ビュ	-10.9067
衛生	-10.907
働く	-10.9075
にわたる	-10.9075
とは異なる	-10.908
トリック	-10.9085
お笑い	-10.9089
好きな	-10.909
odice	-10.9091
逃亡	-10.9097
圧縮	-10.9097
飛行機	-10.9098
徹底	-10.9106
趙	-10.9113
を手に	-10.9114
と言って	-10.9117
北陸	-10.9121
独占	-10.9122
マーケット	-10.9124
に選出され	-10.9127
に応じ	-10.9129
コマンド	-10.913
考え方	-10.913
頻繁に	-10.914
拍	-10.9146
意向	-10.9147
淳	-10.9151
▁Pro	-10.9152
乾燥	-10.9154
構内	-10.9161
栃木県	-10.9161
勝負	-10.9162
開かれた	-10.9166
コントロール	-10.9173
拒	-10.9174
搭乗	-10.9179
講談社	-10.9184
阻	-10.9184
著作権	-10.9185
次々と	-10.9187
促	-10.9191
東海道	-10.9191
開放	-10.9194
伐	-10.9208
へ向かう	-10.9209
激しく	-10.9218
コンテンツ	-10.9223
琉球	-10.9224
第一次	-10.9226
こともできる	-10.9227
配給	-10.9228
礁	-10.9232
放出	-10.9232
つけられ	-10.9236
マラソン	-10.9239
とも呼ばれ	-10.9241
彫刻	-10.9243
栄養	-10.9248
に任じられ	-10.9249
財務	-10.9251
探偵	-10.9255
log	-10.9257
符	-10.9258
EST	-10.9269
カウント	-10.9269
同時期に	-10.9271
被害者	-10.9275
周年記念	-10.9278
晩	-10.9282
契	-10.9283
歓	-10.929
支流	-10.929
猿	-10.9294
澄	-10.9295
避難	-10.9296
舷	-10.9299
宝塚	-10.9305
タクシー	-10.9306
物資	-10.9318
闘争	-10.9328
変身	-10.933
駐車場	-10.9333
鉛	-10.9349
勲章	-10.9357
電池	-10.9358
境内	-10.936
才能	-10.9363
5,000	-10.9368
研修	-10.9378
ジュー	-10.9385
附	-10.9389
を通る	-10.939
瓦	-10.9394
りゅう	-10.9401
横断	-10.9402
チベット	-10.9409
予定だった	-10.941
示唆	-10.941
心理学	-10.9412
エドワード	-10.9416
世界遺産	-10.9417
1.5	-10.9419
融合	-10.942
汚	-10.9423
突入	-10.9423
芽	-10.9426
ないように	-10.9429
視聴率	-10.9432
漏	-10.9434
を中心とする	-10.9435
生存	-10.9449
閉じ	-10.9452
アレンジ	-10.9458
をきっかけに	-10.946
直径	-10.9463
基本的な	-10.9463
忘れ	-10.9465
皇后	-10.9467
黙	-10.947
乏	-10.9481
蛇	-10.9492
雌	-10.9495
風景	-10.9497
を起こす	-10.95
1908	-10.9502
複雑な	-10.9503
コンスタン	-10.9506
キャスター	-10.951
宮廷	-10.9511
大学文学部	-10.9513
轄	-10.9526
が確認され	-10.9529
謙	-10.9529
叩	-10.9529
アナログ	-10.9535
互いに	-10.9536
説得	-10.9541
淵	-10.9542
就職	-10.9546
徳島県	-10.9546
コンクリート	-10.9547
バレエ	-10.9549
コンテスト	-10.9553
ともいう	-10.9555
を継いだ	-10.9556
交差	-10.9569
勝ちを収め	-10.9571
オスマン帝国	-10.9574
濃度	-10.9579
活発	-10.958
キャンペーン	-10.9585
模型	-10.9585
跳	-10.9585
熱帯	-10.9593
周期	-10.9599
牽引	-10.9604
阪急	-10.9613
品質	-10.9615
オプション	-10.9616
名詞	-10.9616
大分県	-10.9618
ウェブ	-10.962
隅	-10.9626
られなかった	-10.9628
滋賀県	-10.9628
サンフランシスコ	-10.9641
取り上げられ	-10.9642
ブルガリア	-10.9647
捉え	-10.9648
巧	-10.9648
擬	-10.9649
怪獣	-10.9653
につれ	-10.9654
配布	-10.9658
を指し	-10.9658
努力	-10.9658
ボーナス	-10.966
兼任	-10.966
通勤	-10.9662
ime	-10.9665
マルクス	-10.9672
にくい	-10.9672
1907	-10.9681
ソビエト	-10.9682
埋	-10.9683
創造	-10.9693
墳	-10.9695
闇	-10.9698
クエスト	-10.9702
挙げ	-10.9707
後継者	-10.9708
トイレ	-10.9711
報告書	-10.9714
宰	-10.9716
を形成する	-10.9716
石川県	-10.9716
保管	-10.9723
環状	-10.9723
噂	-10.9723
ルーマニア	-10.973
何らかの	-10.9736
鳳	-10.9737
間隔	-10.9739
財団法人	-10.9741
懸	-10.9749
講演	-10.975
生じた	-10.9751
切り替え	-10.9753
おそらく	-10.9754
抑制	-10.9758
四郎	-10.9761
財団	-10.9765
嫁	-10.9768
を提供する	-10.9781
生物学	-10.9781
特典	-10.9787
口径	-10.9796
con	-10.9799
として生まれる	-10.9803
慕	-10.9804
交響曲	-10.9804
有料	-10.981
符号	-10.9811
に設置された	-10.9813
査	-10.9814
壌	-10.9815
胡	-10.982
抗争	-10.9822
改装	-10.9822
夫妻	-10.9823
駐屯	-10.9824
穏	-10.9828
キューバ	-10.983
スカウト	-10.9831
解雇	-10.9834
修復	-10.9835
障	-10.984
偉	-10.9846
番目に	-10.9849
近江	-10.985
震災	-10.9856
アルコール	-10.9861
時刻	-10.9869
楽章	-10.9874
バラエティ番組	-10.9874
救助	-10.9877
クロアチア	-10.9878
薩摩	-10.9878
予測	-10.9879
紋章	-10.9886
尽力	-10.9895
感覚	-10.9896
奈良県	-10.9899
大韓民国	-10.9906
剥	-10.991
チェーン	-10.9911
ジャクソン	-10.9913
検索	-10.9915
昆虫	-10.9918
慶應義塾	-10.9923
朝廷	-10.993
粛	-10.9932
質問	-10.9938
又	-10.9938
プレーオフ	-10.9942
アイランド	-10.9944
木曜	-10.9948
を持たない	-10.9949
結ばれ	-10.9954
綾	-10.9955
衆議院議員	-10.9956
愛媛県	-10.9957
ことはできない	-10.9967
刺激	-10.9974
主宰	-10.998
落選	-10.9982
敷設	-10.9992
遊び	-10.9993
彰	-10.9995
阻止	-10.9996
止ま	-11
バランス	-11.0004
チャレンジ	-11.0004
寛永	-11.0004
かもしれない	-11.0013
と言った	-11.0014
ヒロイン	-11.0019
グレード	-11.0024
に渡って	-11.0024
看護	-11.0025
幽	-11.0026
改編	-11.0029
番人気	-11.0031
簡易	-11.0032
騎乗	-11.0034
庵	-11.0043
ix	-11.0045
交易	-11.0048
丘陵	-11.0049
視聴者	-11.005
中継局	-11.0051
選考	-11.0052
倒れ	-11.0058
消え	-11.0058
【	-11.0063
事務局	-11.0065
招待	-11.0066
排気	-11.0072
】	-11.0074
はっきり	-11.0075
何度も	-11.0085
▁外部リンク	-11.0089
圧倒的	-11.0097
珍しい	-11.0097
五輪	-11.0102
つつある	-11.0103
漁業	-11.0109
砲撃	-11.0109
ファンタジー	-11.0111
冒頭	-11.0114
を基に	-11.0124
判明	-11.0125
地中海	-11.0133
1905	-11.0133
応募	-11.0139
を導入し	-11.0146
簿	-11.0147
ぎょう	-11.0148
変わる	-11.015
固め	-11.015
挙げられ	-11.0158
松竹	-11.016
演じる	-11.0168
本格的な	-11.0172
鋳	-11.0176
敢	-11.018
確実	-11.0191
累	-11.0194
ァ	-11.0198
パネル	-11.02
呪	-11.0201
港湾	-11.0205
励	-11.0206
冬季	-11.0208
函館	-11.0211
アンドレ	-11.0213
ロップ	-11.0215
保証	-11.0218
重複	-11.0221
といわれている	-11.0231
大学名誉教授	-11.0234
ぜん	-11.0236
美濃	-11.0239
碁	-11.0251
世紀末	-11.0252
MLB	-11.0255
辻	-11.0256
Tr	-11.0269
ミュンヘン	-11.027
テーブル	-11.0271
加わった	-11.0274
互換	-11.0275
に所在する	-11.0277
緊	-11.0279
収容所	-11.0282
実践	-11.0291
ence	-11.0293
フェスティバル	-11.0294
信濃	-11.0297
ウェブサイト	-11.0302
帽	-11.0303
探検	-11.0303
ある程度	-11.0309
幅広い	-11.0312
ヨハン	-11.0312
ユナイテッド	-11.0316
滅亡	-11.0319
統制	-11.032
俳	-11.0325
1909	-11.0329
ウルトラ	-11.033
登記	-11.033
カロライナ	-11.0331
民営化	-11.0331
長崎県	-11.0332
gh	-11.0334
寄付	-11.0335
惨	-11.0336
エリザベス	-11.0352
左翼	-11.0356
ダウンロード	-11.0357
つとめ	-11.0362
衝	-11.0367
に関わる	-11.0372
従業員	-11.0374
奴	-11.0374
観光客	-11.0379
ヴィルヘルム	-11.0386
絶滅	-11.0387
鐘	-11.039
吐	-11.0391
焦	-11.0391
低迷	-11.0392
懸念	-11.0397
配慮	-11.0399
警戒	-11.0403
世紀後半	-11.0403
ぴ	-11.0405
カンパニー	-11.0416
コンクール	-11.0423
ホールディングス	-11.0424
レーシング	-11.0428
庭園	-11.0428
検察	-11.0431
ことが判明	-11.0433
協議	-11.0435
エンタテインメント	-11.0437
諾	-11.0437
糧	-11.0446
長らく	-11.0449
1906	-11.0449
乗降	-11.0452
甥	-11.0454
世紀初頭	-11.0457
メロディ	-11.046
奮	-11.0462
叔父	-11.0463
*	-11.0468
▁Ro	-11.0476
出来ない	-11.0477
を遂げ	-11.048
元禄	-11.049
敦	-11.0491
本格的に	-11.0492
幕末	-11.0494
と言える	-11.0499
到	-11.051
天文学	-11.0513
を装備し	-11.0514
アダルト	-11.0523
振動	-11.0529
沈没	-11.0533
オリコン	-11.0533
仕掛け	-11.0533
クリスマス	-11.0533
考慮	-11.0537
ドキュメンタリー	-11.0538
創建	-11.0538
苗	-11.0539
烏	-11.0553
ないまま	-11.0554
診	-11.0566
アシスタント	-11.0577
を破り	-11.0579
共和党	-11.0579
ノミネート	-11.0588
捕らえ	-11.0591
イスラーム	-11.0594
是	-11.0596
を見つけ	-11.0596
歌舞伎	-11.0599
穀	-11.0616
萩	-11.0617
富山県	-11.0619
種牡馬	-11.062
猪	-11.0621
帥	-11.0625
企	-11.0626
フランシス	-11.0626
衆議院	-11.0632
に及ぶ	-11.0638
オレンジ	-11.064
ish	-11.064
浸	-11.0646
衣装	-11.0647
併合	-11.0649
秋田県	-11.0652
複雑	-11.0654
砲塔	-11.0661
階段	-11.0662
忌	-11.0663
宿泊	-11.0667
洪水	-11.0672
を結んで	-11.0678
偶	-11.0679
サークル	-11.0689
涙	-11.0692
ook	-11.0694
山形県	-11.0694
佐々木	-11.0697
墨	-11.0698
とはいえ	-11.0701
と呼んで	-11.0707
漫	-11.0709
細菌	-11.0712
ドリーム	-11.0716
髄	-11.0718
スポット	-11.0719
変遷	-11.0722
殆ど	-11.0723
変わった	-11.0727
短期大学	-11.0732
ことが多く	-11.0739
であって	-11.0739
リトアニア	-11.074
臭	-11.0749
脅	-11.0751
趣	-11.0763
零	-11.0801
楼	-11.0819
仰	-11.082
緯	-11.083
篤	-11.0831
嶺	-11.0852
岬	-11.0852
函	-11.0853
責	-11.093
醸	-11.0979
鴨	-11.0985
泣	-11.0985
遡	-11.101
刈	-11.1016
貼	-11.1045
鍋	-11.1052
胆	-11.1065
虐	-11.1071
蹴	-11.1072
壮	-11.1106
遼	-11.1107
砕	-11.1136
傑	-11.1184
棚	-11.1202
哉	-11.1204
蒸	-11.1205
膝	-11.1206
綴	-11.1217
遮	-11.1243
郵	-11.1258
刃	-11.1281
蒙	-11.1292
廊	-11.1299
俺	-11.1337
汽	-11.134
坪	-11.1345
汎	-11.1353
賭	-11.1376
覧	-11.1384
錯	-11.14
酔	-11.1417
窟	-11.1418
勾	-11.1423
雇	-11.143
囚	-11.1499
輌	-11.1542
ぽ	-11.1564
淀	-11.1568
恭	-11.1595
疲	-11.1622
斑	-11.1626
肖	-11.1638
胤	-11.1647
己	-11.17
廠	-11.1702
宛	-11.1707
ぱ	-11.1708
芦	-11.1744
貢	-11.1779
駄	-11.1784
鞍	-11.1798
諭	-11.1817
拾	-11.1865
橘	-11.1933
舗	-11.1936
窮	-11.1942
吊	-11.1998
墜	-11.2003
藍	-11.2044
胎	-11.2055
帆	-11.206
欄	-11.2067
紛	-11.208
狼	-11.2082
唄	-11.2089
舌	-11.2094
倣	-11.2102
隙	-11.2103
隈	-11.2109
缶	-11.211
彫	-11.212
靴	-11.2147
挿	-11.2151
鍛	-11.2156
顎	-11.2158
樽	-11.2202
誉	-11.2203
鶏	-11.2205
抑	-11.2214
臼	-11.2247
困	-11.2252
曾	-11.2252
棲	-11.2288
朴	-11.2299
貌	-11.2307
鞭	-11.2316
鯨	-11.2329
湘	-11.233
培	-11.2385
療	-11.2388
茨	-11.2426
拘	-11.2579
后	-11.2586
幡	-11.265
妖	-11.2706
徐	-11.2805
患	-11.2813
隷	-11.302
控	-11.3079
翻	-11.3413
究	-11.3425
ゅ	-11.3437
○	-11.3571
逐	-11.3658
栃	-11.3785
盟	-11.3883
q	-11.3976
央	-11.3984
抵	-11.4095
峡	-11.4156
賊	-11.4212
午	-11.422
※	-11.4257
ゥ	-11.4472
粒	-11.4474
稚	-11.4605
酵	-11.462
洪	-11.4707
需	-11.4837
輸	-11.5024
刷	-11.5413
昧	-11.5416
掲	-11.5446
於	-11.5745
幌	-11.5955
鎌	-11.6154
顧	-11.6463
滋	-11.6463
験	-11.6531
潟	-11.6886
牡	-11.692
妨	-11.7036
慮	-11.704
看	-11.7223
畿	-11.7299
疾	-11.7417
媛	-11.748
誕	-11.7545
摘	-11.7712
曖	-11.799
紹	-11.7997
傘	-11.8065
批	-11.8456
宙	-11.8542
怖	-11.8628
菱	-11.8808
魅	-11.8828
菩	-11.8911
購	-11.8911
唯	-11.8944
叔	-11.8957
勉	-11.899
閲	-11.9011
捜	-11.9202
斐	-11.9679
険	-12.0343
擢	-12.0581
菓	-12.0595
屯	-12.0713
妊	-12.0729
喪	-12.0765
厩	-12.0966
旦	-12.1185
薩	-12.1219
殊	-12.133
昆	-12.1355
朽	-12.1548
箇	-12.1558
繊	-12.1786
勃	-12.2047
礎	-12.2331
牽	-12.2335
埼	-12.2788
般	-12.2924
哨	-12.2982
捉	-12.3032
努	-12.3974
渉	-12.402
憶	-12.4252
捨	-12.4266
ォ	-12.4269
薦	-12.4357
弧	-12.4369
暫	-12.4371
冒	-12.4772
距	-12.5719
撲	-12.5731
択	-12.6245
應	-12.7223
栽	-12.7511
虜	-12.763
忘	-12.8079
繰	-12.8571
漠	-12.8744
析	-12.8915
"	-12.9007
把	-12.9212
牝	-12.929
倶	-12.9401
郊	-12.9862
玩	-13.0349
較	-13.2869
琉	-13.3516
披	-13.3612
偵	-13.3653
阜	-13.4461
械	-13.483
犠	-13.5048
伎	-13.5877
褐	-13.6117
唆	-13.6174
纂	-13.637
涯	-13.6755
践	-13.7084
舶	-13.7504
据	-13.7875
竣	-13.7878
訟	-14.1237
循	-14.1564
措	-14.2002
該	-14.4401
燥	-14.5568
#	-14.5827
貿	-14.6083
殆	-14.6273
膚	-14.6373
搭	-14.9602
賠	-15.1564
祉	-15.2894
諏	-15.5978
逮	-16.3786
牲	-16.8345
娠	-17.4223
雰	-19.0254
